{
  "version": "1.0",
  "truncation": null,
  "padding": null,
  "added_tokens": [
    {
      "id": 0,
      "content": "[UNK]",
      "single_word": false,
      "lstrip": false,
      "rstrip": false,
      "normalized": false,
      "special": true
    },
    {
      "id": 1,
      "content": "[CLS]",
      "single_word": false,
      "lstrip": false,
      "rstrip": false,
      "normalized": false,
      "special": true
    },
    {
      "id": 2,
      "content": "[SEP]",
      "single_word": false,
      "lstrip": false,
      "rstrip": false,
      "normalized": false,
      "special": true
    },
    {
      "id": 3,
      "content": "[PAD]",
      "single_word": false,
      "lstrip": false,
      "rstrip": false,
      "normalized": false,
      "special": true
    },
    {
      "id": 4,
      "content": "[MASK]",
      "single_word": false,
      "lstrip": false,
      "rstrip": false,
      "normalized": false,
      "special": true
    }
  ],
  "normalizer": {
    "type": "Sequence",
    "normalizers": [
      {
        "type": "NFKC"
      },
      {
        "type": "Lowercase"
      }
    ]
  },
  "pre_tokenizer": {
    "type": "Whitespace"
  },
  "post_processor": null,
  "decoder": null,
  "model": {
    "type": "WordPiece",
    "unk_token": "[UNK]",
    "continuing_subword_prefix": "##",
    "max_input_chars_per_word": 100,
    "vocab": {
      "[UNK]": 0,
      "[CLS]": 1,
      "[SEP]": 2,
      "[PAD]": 3,
      "[MASK]": 4,
      "!": 5,
      "\"": 6,
      "#": 7,
      "$": 8,
      "%": 9,
      "&": 10,
      "'": 11,
      "(": 12,
      ")": 13,
      "*": 14,
      "+": 15,
      ",": 16,
      "-": 17,
      ".": 18,
      "/": 19,
      "0": 20,
      "1": 21,
      "2": 22,
      "3": 23,
      "4": 24,
      "5": 25,
      "6": 26,
      "7": 27,
      "8": 28,
      "9": 29,
      ":": 30,
      ";": 31,
      "<": 32,
      "=": 33,
      ">": 34,
      "?": 35,
      "@": 36,
      "[": 37,
      "\\": 38,
      "]": 39,
      "^": 40,
      "_": 41,
      "`": 42,
      "a": 43,
      "b": 44,
      "c": 45,
      "d": 46,
      "e": 47,
      "f": 48,
      "g": 49,
      "h": 50,
      "i": 51,
      "j": 52,
      "k": 53,
      "l": 54,
      "m": 55,
      "n": 56,
      "o": 57,
      "p": 58,
      "q": 59,
      "r": 60,
      "s": 61,
      "t": 62,
      "u": 63,
      "v": 64,
      "w": 65,
      "x": 66,
      "y": 67,
      "z": 68,
      "{": 69,
      "|": 70,
      "}": 71,
      "~": 72,
      "": 73,
      "": 74,
      "": 75,
      "": 76,
      "": 77,
      "": 78,
      "": 79,
      "": 80,
      "": 81,
      "": 82,
      "": 83,
      "": 84,
      "": 85,
      "": 86,
      "": 87,
      "": 88,
      "": 89,
      "": 90,
      "": 91,
      "": 92,
      "": 93,
      "": 94,
      "": 95,
      "": 96,
      "": 97,
      "": 98,
      "¡": 99,
      "¢": 100,
      "£": 101,
      "¤": 102,
      "¥": 103,
      "¦": 104,
      "§": 105,
      "©": 106,
      "«": 107,
      "¬": 108,
      "­": 109,
      "®": 110,
      "°": 111,
      "±": 112,
      "¶": 113,
      "·": 114,
      "»": 115,
      "¿": 116,
      "×": 117,
      "ß": 118,
      "à": 119,
      "á": 120,
      "â": 121,
      "ã": 122,
      "ä": 123,
      "å": 124,
      "æ": 125,
      "ç": 126,
      "è": 127,
      "é": 128,
      "ê": 129,
      "ë": 130,
      "ì": 131,
      "í": 132,
      "î": 133,
      "ï": 134,
      "ð": 135,
      "ñ": 136,
      "ò": 137,
      "ó": 138,
      "ô": 139,
      "õ": 140,
      "ö": 141,
      "÷": 142,
      "ø": 143,
      "ù": 144,
      "ú": 145,
      "û": 146,
      "ü": 147,
      "ý": 148,
      "þ": 149,
      "ÿ": 150,
      "ā": 151,
      "ă": 152,
      "ą": 153,
      "ć": 154,
      "ĉ": 155,
      "ċ": 156,
      "č": 157,
      "ď": 158,
      "đ": 159,
      "ē": 160,
      "ĕ": 161,
      "ė": 162,
      "ę": 163,
      "ě": 164,
      "ĝ": 165,
      "ğ": 166,
      "ġ": 167,
      "ģ": 168,
      "ĥ": 169,
      "ħ": 170,
      "ĩ": 171,
      "ī": 172,
      "ĭ": 173,
      "į": 174,
      "ı": 175,
      "ĵ": 176,
      "ķ": 177,
      "ļ": 178,
      "ľ": 179,
      "ł": 180,
      "ń": 181,
      "ņ": 182,
      "ň": 183,
      "ŋ": 184,
      "ō": 185,
      "ŏ": 186,
      "ő": 187,
      "œ": 188,
      "ř": 189,
      "ś": 190,
      "ŝ": 191,
      "ş": 192,
      "š": 193,
      "ţ": 194,
      "ť": 195,
      "ŧ": 196,
      "ũ": 197,
      "ū": 198,
      "ŭ": 199,
      "ů": 200,
      "ű": 201,
      "ų": 202,
      "ŵ": 203,
      "ŷ": 204,
      "ź": 205,
      "ż": 206,
      "ž": 207,
      "ƀ": 208,
      "ƒ": 209,
      "ƕ": 210,
      "ơ": 211,
      "ƣ": 212,
      "ƨ": 213,
      "ư": 214,
      "ǃ": 215,
      "ǎ": 216,
      "ǐ": 217,
      "ǒ": 218,
      "ǔ": 219,
      "ǚ": 220,
      "ǜ": 221,
      "ǝ": 222,
      "ǣ": 223,
      "ǥ": 224,
      "ǧ": 225,
      "ǫ": 226,
      "ǰ": 227,
      "ǵ": 228,
      "ȇ": 229,
      "ȋ": 230,
      "ȓ": 231,
      "ș": 232,
      "ț": 233,
      "ɂ": 234,
      "ɐ": 235,
      "ɑ": 236,
      "ɒ": 237,
      "ɓ": 238,
      "ɔ": 239,
      "ɕ": 240,
      "ɖ": 241,
      "ɗ": 242,
      "ə": 243,
      "ɚ": 244,
      "ɛ": 245,
      "ɜ": 246,
      "ɝ": 247,
      "ɟ": 248,
      "ɡ": 249,
      "ɢ": 250,
      "ɣ": 251,
      "ɥ": 252,
      "ɦ": 253,
      "ɨ": 254,
      "ɩ": 255,
      "ɪ": 256,
      "ɫ": 257,
      "ɬ": 258,
      "ɯ": 259,
      "ɳ": 260,
      "ɴ": 261,
      "ɹ": 262,
      "ɽ": 263,
      "ɾ": 264,
      "ʀ": 265,
      "ʁ": 266,
      "ʂ": 267,
      "ʃ": 268,
      "ʇ": 269,
      "ʊ": 270,
      "ʋ": 271,
      "ʌ": 272,
      "ʍ": 273,
      "ʎ": 274,
      "ʏ": 275,
      "ʐ": 276,
      "ʒ": 277,
      "ʔ": 278,
      "ʕ": 279,
      "ʖ": 280,
      "ʘ": 281,
      "ʙ": 282,
      "ʜ": 283,
      "ʝ": 284,
      "ʟ": 285,
      "ʠ": 286,
      "ʹ": 287,
      "ʻ": 288,
      "ʼ": 289,
      "ʽ": 290,
      "ʾ": 291,
      "ʿ": 292,
      "ˀ": 293,
      "˂": 294,
      "ˆ": 295,
      "ˈ": 296,
      "ˊ": 297,
      "ˋ": 298,
      "ˌ": 299,
      "ː": 300,
      "ˑ": 301,
      "˥": 302,
      "˦": 303,
      "˧": 304,
      "˨": 305,
      "˩": 306,
      "ˮ": 307,
      "̀": 308,
      "́": 309,
      "̂": 310,
      "̃": 311,
      "̄": 312,
      "̅": 313,
      "̇": 314,
      "̈": 315,
      "̊": 316,
      "̌": 317,
      "̍": 318,
      "̐": 319,
      "̑": 320,
      "̓": 321,
      "̕": 322,
      "̖": 323,
      "̗": 324,
      "̘": 325,
      "̙": 326,
      "̚": 327,
      "̛": 328,
      "̜": 329,
      "̝": 330,
      "̞": 331,
      "̟": 332,
      "̠": 333,
      "̡": 334,
      "̢": 335,
      "̣": 336,
      "̤": 337,
      "̥": 338,
      "̦": 339,
      "̧": 340,
      "̨": 341,
      "̩": 342,
      "̪": 343,
      "̫": 344,
      "̬": 345,
      "̭": 346,
      "̮": 347,
      "̯": 348,
      "̰": 349,
      "̱": 350,
      "̲": 351,
      "̳": 352,
      "̴": 353,
      "̵": 354,
      "̶": 355,
      "̷": 356,
      "̸": 357,
      "̹": 358,
      "̺": 359,
      "̻": 360,
      "̼": 361,
      "͂": 362,
      "ͅ": 363,
      "͇": 364,
      "͈": 365,
      "͉": 366,
      "͍": 367,
      "͎": 368,
      "͓": 369,
      "͔": 370,
      "͕": 371,
      "͖": 372,
      "͘": 373,
      "͙": 374,
      "͚": 375,
      "͜": 376,
      "͝": 377,
      "͞": 378,
      "͟": 379,
      "͠": 380,
      "͡": 381,
      "͢": 382,
      "ά": 383,
      "έ": 384,
      "ή": 385,
      "ί": 386,
      "α": 387,
      "β": 388,
      "γ": 389,
      "δ": 390,
      "ε": 391,
      "ζ": 392,
      "η": 393,
      "θ": 394,
      "ι": 395,
      "κ": 396,
      "λ": 397,
      "μ": 398,
      "ν": 399,
      "ξ": 400,
      "ο": 401,
      "π": 402,
      "ρ": 403,
      "ς": 404,
      "σ": 405,
      "τ": 406,
      "υ": 407,
      "φ": 408,
      "χ": 409,
      "ψ": 410,
      "ω": 411,
      "ϊ": 412,
      "ό": 413,
      "ύ": 414,
      "ώ": 415,
      "ϝ": 416,
      "ϣ": 417,
      "ϭ": 418,
      "а": 419,
      "б": 420,
      "в": 421,
      "г": 422,
      "д": 423,
      "е": 424,
      "ж": 425,
      "з": 426,
      "и": 427,
      "й": 428,
      "к": 429,
      "л": 430,
      "м": 431,
      "н": 432,
      "о": 433,
      "п": 434,
      "р": 435,
      "с": 436,
      "т": 437,
      "у": 438,
      "ф": 439,
      "х": 440,
      "ц": 441,
      "ч": 442,
      "ш": 443,
      "щ": 444,
      "ъ": 445,
      "ы": 446,
      "ь": 447,
      "э": 448,
      "ю": 449,
      "я": 450,
      "ё": 451,
      "ђ": 452,
      "є": 453,
      "ѕ": 454,
      "і": 455,
      "ї": 456,
      "ј": 457,
      "ў": 458,
      "џ": 459,
      "ѽ": 460,
      "ғ": 461,
      "қ": 462,
      "ҡ": 463,
      "ү": 464,
      "ҳ": 465,
      "ҷ": 466,
      "ӑ": 467,
      "ӕ": 468,
      "ә": 469,
      "ӡ": 470,
      "ӣ": 471,
      "ӧ": 472,
      "ө": 473,
      "ӵ": 474,
      "ԛ": 475,
      "ՠ": 476,
      "ա": 477,
      "բ": 478,
      "գ": 479,
      "ե": 480,
      "թ": 481,
      "ի": 482,
      "լ": 483,
      "խ": 484,
      "կ": 485,
      "հ": 486,
      "ղ": 487,
      "մ": 488,
      "յ": 489,
      "ն": 490,
      "ո": 491,
      "ռ": 492,
      "ս": 493,
      "ր": 494,
      "ց": 495,
      "ւ": 496,
      "ք": 497,
      "֛": 498,
      "֤": 499,
      "֫": 500,
      "֭": 501,
      "ְ": 502,
      "ֳ": 503,
      "ִ": 504,
      "ֵ": 505,
      "ֶ": 506,
      "ַ": 507,
      "ָ": 508,
      "ֹ": 509,
      "ֻ": 510,
      "ּ": 511,
      "־": 512,
      "ֿ": 513,
      "ׁ": 514,
      "׃": 515,
      "א": 516,
      "ב": 517,
      "ג": 518,
      "ד": 519,
      "ה": 520,
      "ו": 521,
      "ז": 522,
      "ח": 523,
      "ט": 524,
      "י": 525,
      "ך": 526,
      "כ": 527,
      "ל": 528,
      "ם": 529,
      "מ": 530,
      "ן": 531,
      "נ": 532,
      "ס": 533,
      "ע": 534,
      "ף": 535,
      "פ": 536,
      "צ": 537,
      "ק": 538,
      "ר": 539,
      "ש": 540,
      "ת": 541,
      "ײ": 542,
      "״": 543,
      "،": 544,
      "؛": 545,
      "؟": 546,
      "ء": 547,
      "آ": 548,
      "أ": 549,
      "ؤ": 550,
      "إ": 551,
      "ئ": 552,
      "ا": 553,
      "ب": 554,
      "ة": 555,
      "ت": 556,
      "ث": 557,
      "ج": 558,
      "ح": 559,
      "خ": 560,
      "د": 561,
      "ذ": 562,
      "ر": 563,
      "ز": 564,
      "س": 565,
      "ش": 566,
      "ص": 567,
      "ض": 568,
      "ط": 569,
      "ظ": 570,
      "ع": 571,
      "غ": 572,
      "ـ": 573,
      "ف": 574,
      "ق": 575,
      "ك": 576,
      "ل": 577,
      "م": 578,
      "ن": 579,
      "ه": 580,
      "و": 581,
      "ى": 582,
      "ي": 583,
      "ً": 584,
      "ٌ": 585,
      "ٍ": 586,
      "َ": 587,
      "ُ": 588,
      "ِ": 589,
      "ّ": 590,
      "ْ": 591,
      "ٔ": 592,
      "١": 593,
      "٩": 594,
      "٪": 595,
      "ٰ": 596,
      "ٱ": 597,
      "ٴ": 598,
      "ٹ": 599,
      "ٻ": 600,
      "پ": 601,
      "ڀ": 602,
      "ڃ": 603,
      "ڄ": 604,
      "چ": 605,
      "ڌ": 606,
      "ڏ": 607,
      "ڑ": 608,
      "ژ": 609,
      "ښ": 610,
      "ڦ": 611,
      "ک": 612,
      "ڭ": 613,
      "گ": 614,
      "ڳ": 615,
      "ڻ": 616,
      "ھ": 617,
      "ۀ": 618,
      "ہ": 619,
      "ۅ": 620,
      "ۆ": 621,
      "ۇ": 622,
      "ۈ": 623,
      "ۉ": 624,
      "ۋ": 625,
      "ی": 626,
      "ې": 627,
      "ے": 628,
      "ۓ": 629,
      "ە": 630,
      "ۖ": 631,
      "ۗ": 632,
      "ۚ": 633,
      "۰": 634,
      "۱": 635,
      "۲": 636,
      "۳": 637,
      "۵": 638,
      "۶": 639,
      "ܐ": 640,
      "ܓ": 641,
      "ܙ": 642,
      "ܢ": 643,
      "ܥ": 644,
      "ܪ": 645,
      "ހ": 646,
      "ބ": 647,
      "އ": 648,
      "ވ": 649,
      "މ": 650,
      "ދ": 651,
      "ލ": 652,
      "ސ": 653,
      "ަ": 654,
      "ާ": 655,
      "ި": 656,
      "ީ": 657,
      "ު": 658,
      "ެ": 659,
      "ޯ": 660,
      "ް": 661,
      "ँ": 662,
      "ं": 663,
      "ः": 664,
      "अ": 665,
      "आ": 666,
      "इ": 667,
      "ई": 668,
      "उ": 669,
      "ए": 670,
      "ऐ": 671,
      "ओ": 672,
      "क": 673,
      "ख": 674,
      "ग": 675,
      "च": 676,
      "ज": 677,
      "झ": 678,
      "ञ": 679,
      "ट": 680,
      "ठ": 681,
      "ड": 682,
      "ण": 683,
      "त": 684,
      "थ": 685,
      "द": 686,
      "ध": 687,
      "न": 688,
      "प": 689,
      "फ": 690,
      "ब": 691,
      "भ": 692,
      "म": 693,
      "य": 694,
      "र": 695,
      "ल": 696,
      "ळ": 697,
      "व": 698,
      "श": 699,
      "ष": 700,
      "स": 701,
      "ह": 702,
      "़": 703,
      "ा": 704,
      "ि": 705,
      "ी": 706,
      "ु": 707,
      "ू": 708,
      "ृ": 709,
      "ॆ": 710,
      "े": 711,
      "ै": 712,
      "ो": 713,
      "ौ": 714,
      "्": 715,
      "।": 716,
      "॥": 717,
      "१": 718,
      "३": 719,
      "ং": 720,
      "অ": 721,
      "আ": 722,
      "ই": 723,
      "উ": 724,
      "এ": 725,
      "ও": 726,
      "ক": 727,
      "খ": 728,
      "গ": 729,
      "চ": 730,
      "জ": 731,
      "ঞ": 732,
      "ঠ": 733,
      "ড": 734,
      "ণ": 735,
      "ত": 736,
      "থ": 737,
      "দ": 738,
      "ধ": 739,
      "ন": 740,
      "প": 741,
      "ব": 742,
      "ভ": 743,
      "ম": 744,
      "য": 745,
      "র": 746,
      "ল": 747,
      "ষ": 748,
      "স": 749,
      "হ": 750,
      "়": 751,
      "া": 752,
      "ি": 753,
      "ী": 754,
      "ু": 755,
      "ে": 756,
      "ো": 757,
      "ৌ": 758,
      "্": 759,
      "ৰ": 760,
      "ৱ": 761,
      "৷": 762,
      "ਂ": 763,
      "ਈ": 764,
      "ਕ": 765,
      "ਖ": 766,
      "ਗ": 767,
      "ਜ": 768,
      "ਡ": 769,
      "ਢ": 770,
      "ਤ": 771,
      "ਦ": 772,
      "ਨ": 773,
      "ਪ": 774,
      "ਬ": 775,
      "ਮ": 776,
      "ਰ": 777,
      "ਲ": 778,
      "ਸ": 779,
      "ਾ": 780,
      "ਿ": 781,
      "ੀ": 782,
      "ੇ": 783,
      "ੈ": 784,
      "ੋ": 785,
      "ੰ": 786,
      "ગ": 787,
      "જ": 788,
      "ત": 789,
      "ભ": 790,
      "ર": 791,
      "લ": 792,
      "ષ": 793,
      "સ": 794,
      "ા": 795,
      "ી": 796,
      "ુ": 797,
      "ે": 798,
      "ો": 799,
      "ଂ": 800,
      "କ": 801,
      "ଣ": 802,
      "ତ": 803,
      "ଥ": 804,
      "ଧ": 805,
      "ନ": 806,
      "ପ": 807,
      "ର": 808,
      "ସ": 809,
      "ା": 810,
      "ି": 811,
      "୍": 812,
      "ୟ": 813,
      "அ": 814,
      "க": 815,
      "ச": 816,
      "ட": 817,
      "த": 818,
      "ந": 819,
      "ன": 820,
      "ப": 821,
      "ம": 822,
      "ய": 823,
      "ர": 824,
      "ற": 825,
      "ல": 826,
      "ள": 827,
      "ழ": 828,
      "வ": 829,
      "ஸ": 830,
      "ா": 831,
      "ி": 832,
      "ு": 833,
      "ூ": 834,
      "ெ": 835,
      "ே": 836,
      "ை": 837,
      "ொ": 838,
      "ோ": 839,
      "்": 840,
      "గ": 841,
      "ల": 842,
      "వ": 843,
      "స": 844,
      "ా": 845,
      "ె": 846,
      "ో": 847,
      "్": 848,
      "ಅ": 849,
      "ಕ": 850,
      "ಗ": 851,
      "ಚ": 852,
      "ಜ": 853,
      "ಞ": 854,
      "ಠ": 855,
      "ಡ": 856,
      "ತ": 857,
      "ಥ": 858,
      "ಧ": 859,
      "ನ": 860,
      "ಪ": 861,
      "ಭ": 862,
      "ಮ": 863,
      "ಯ": 864,
      "ರ": 865,
      "ಲ": 866,
      "ವ": 867,
      "ಶ": 868,
      "ಷ": 869,
      "ಸ": 870,
      "ಾ": 871,
      "ಿ": 872,
      "ೀ": 873,
      "ೆ": 874,
      "ೇ": 875,
      "ೊ": 876,
      "ೋ": 877,
      "್": 878,
      "ം": 879,
      "അ": 880,
      "ക": 881,
      "ഗ": 882,
      "ജ": 883,
      "ട": 884,
      "ണ": 885,
      "ത": 886,
      "ന": 887,
      "പ": 888,
      "ഭ": 889,
      "മ": 890,
      "യ": 891,
      "ല": 892,
      "ള": 893,
      "വ": 894,
      "ഷ": 895,
      "സ": 896,
      "ാ": 897,
      "ി": 898,
      "ു": 899,
      "ൂ": 900,
      "െ": 901,
      "ോ": 902,
      "്": 903,
      "ං": 904,
      "ග": 905,
      "ච": 906,
      "ප": 907,
      "ම": 908,
      "ර": 909,
      "ල": 910,
      "ස": 911,
      "හ": 912,
      "්": 913,
      "ා": 914,
      "ි": 915,
      "ෙ": 916,
      "ෝ": 917,
      "ก": 918,
      "ข": 919,
      "ค": 920,
      "ฆ": 921,
      "ง": 922,
      "จ": 923,
      "ฉ": 924,
      "ช": 925,
      "ซ": 926,
      "ญ": 927,
      "ฏ": 928,
      "ฐ": 929,
      "ฑ": 930,
      "ฒ": 931,
      "ณ": 932,
      "ด": 933,
      "ต": 934,
      "ถ": 935,
      "ท": 936,
      "ธ": 937,
      "น": 938,
      "บ": 939,
      "ป": 940,
      "ผ": 941,
      "ฝ": 942,
      "พ": 943,
      "ฟ": 944,
      "ภ": 945,
      "ม": 946,
      "ย": 947,
      "ร": 948,
      "ฤ": 949,
      "ล": 950,
      "ว": 951,
      "ศ": 952,
      "ษ": 953,
      "ส": 954,
      "ห": 955,
      "อ": 956,
      "ฯ": 957,
      "ะ": 958,
      "ั": 959,
      "า": 960,
      "ิ": 961,
      "ี": 962,
      "ึ": 963,
      "ื": 964,
      "ุ": 965,
      "ู": 966,
      "฿": 967,
      "เ": 968,
      "แ": 969,
      "โ": 970,
      "ใ": 971,
      "ไ": 972,
      "ๆ": 973,
      "็": 974,
      "่": 975,
      "้": 976,
      "๊": 977,
      "๋": 978,
      "์": 979,
      "ํ": 980,
      "๑": 981,
      "๓": 982,
      "๔": 983,
      "๕": 984,
      "๙": 985,
      "ຊ": 986,
      "ດ": 987,
      "ຕ": 988,
      "ທ": 989,
      "ນ": 990,
      "ປ": 991,
      "ພ": 992,
      "ລ": 993,
      "ວ": 994,
      "ສ": 995,
      "ະ": 996,
      "ັ": 997,
      "າ": 998,
      "ິ": 999,
      "ົ": 1000,
      "ເ": 1001,
      "ໄ": 1002,
      "་": 1003,
      "༼": 1004,
      "༽": 1005,
      "ག": 1006,
      "ཆ": 1007,
      "ཇ": 1008,
      "ད": 1009,
      "ན": 1010,
      "པ": 1011,
      "ཕ": 1012,
      "བ": 1013,
      "འ": 1014,
      "ལ": 1015,
      "ས": 1016,
      "ུ": 1017,
      "ེ": 1018,
      "ོ": 1019,
      "ྐ": 1020,
      "န": 1021,
      "ဘ": 1022,
      "မ": 1023,
      "သ": 1024,
      "ာ": 1025,
      "်": 1026,
      "ြ": 1027,
      "ა": 1028,
      "ბ": 1029,
      "გ": 1030,
      "დ": 1031,
      "ე": 1032,
      "ვ": 1033,
      "ზ": 1034,
      "თ": 1035,
      "ი": 1036,
      "კ": 1037,
      "ლ": 1038,
      "მ": 1039,
      "ნ": 1040,
      "ო": 1041,
      "რ": 1042,
      "ს": 1043,
      "ტ": 1044,
      "უ": 1045,
      "ფ": 1046,
      "ქ": 1047,
      "ღ": 1048,
      "შ": 1049,
      "ჩ": 1050,
      "ც": 1051,
      "ძ": 1052,
      "ჭ": 1053,
      "ხ": 1054,
      "ჯ": 1055,
      "ჰ": 1056,
      "ᄀ": 1057,
      "ᄅ": 1058,
      "ᄋ": 1059,
      "ᄏ": 1060,
      "ᅮ": 1061,
      "ᅲ": 1062,
      "ᅳ": 1063,
      "ለ": 1064,
      "ላ": 1065,
      "ል": 1066,
      "ሐ": 1067,
      "መ": 1068,
      "ማ": 1069,
      "ም": 1070,
      "ር": 1071,
      "ሱ": 1072,
      "ስ": 1073,
      "ቋ": 1074,
      "ብ": 1075,
      "ት": 1076,
      "ና": 1077,
      "ን": 1078,
      "ኛ": 1079,
      "አ": 1080,
      "ኢ": 1081,
      "የ": 1082,
      "ያ": 1083,
      "ድ": 1084,
      "ጅ": 1085,
      "ጎ": 1086,
      "ጥ": 1087,
      "፭": 1088,
      "ᐃ": 1089,
      "ᐅ": 1090,
      "ᐊ": 1091,
      "ᐖ": 1092,
      "ᐛ": 1093,
      "ᑎ": 1094,
      "ᑐ": 1095,
      "ᑕ": 1096,
      "ᑦ": 1097,
      "ᑰ": 1098,
      "ᒃ": 1099,
      "ᒋ": 1100,
      "ᒪ": 1101,
      "ᒻ": 1102,
      "ᓂ": 1103,
      "ᓄ": 1104,
      "ᓇ": 1105,
      "ᓕ": 1106,
      "ᓯ": 1107,
      "ᓴ": 1108,
      "ᔉ": 1109,
      "ᔊ": 1110,
      "ᔵ": 1111,
      "ᔺ": 1112,
      "ᕆ": 1113,
      "ᕈ": 1114,
      "ᕋ": 1115,
      "ᕐ": 1116,
      "ᖄ": 1117,
      "ᖅ": 1118,
      "ᖏ": 1119,
      "ᗜ": 1120,
      "ᙠ": 1121,
      "ᚱ": 1122,
      "ᚾ": 1123,
      "ᛁ": 1124,
      "ᛗ": 1125,
      "ᛚ": 1126,
      "ᛟ": 1127,
      "ណ": 1128,
      "ទ": 1129,
      "ប": 1130,
      "រ": 1131,
      "វ": 1132,
      "ស": 1133,
      "ឡ": 1134,
      "ា": 1135,
      "ី": 1136,
      "ូ": 1137,
      "េ": 1138,
      "្": 1139,
      "ᴀ": 1140,
      "ᴄ": 1141,
      "ᴇ": 1142,
      "ᴉ": 1143,
      "ᴏ": 1144,
      "ᴖ": 1145,
      "ᴘ": 1146,
      "ᴛ": 1147,
      "ᴠ": 1148,
      "ᴥ": 1149,
      "ḍ": 1150,
      "ḏ": 1151,
      "ḗ": 1152,
      "ḡ": 1153,
      "ḥ": 1154,
      "ḫ": 1155,
      "ḱ": 1156,
      "ḳ": 1157,
      "ḵ": 1158,
      "ḷ": 1159,
      "ṁ": 1160,
      "ṃ": 1161,
      "ṅ": 1162,
      "ṇ": 1163,
      "ṉ": 1164,
      "ṓ": 1165,
      "ṛ": 1166,
      "ṣ": 1167,
      "ṭ": 1168,
      "ṯ": 1169,
      "ṳ": 1170,
      "ẓ": 1171,
      "ạ": 1172,
      "ả": 1173,
      "ấ": 1174,
      "ầ": 1175,
      "ẩ": 1176,
      "ậ": 1177,
      "ắ": 1178,
      "ằ": 1179,
      "ặ": 1180,
      "ẹ": 1181,
      "ế": 1182,
      "ề": 1183,
      "ể": 1184,
      "ễ": 1185,
      "ệ": 1186,
      "ỉ": 1187,
      "ị": 1188,
      "ọ": 1189,
      "ỏ": 1190,
      "ố": 1191,
      "ồ": 1192,
      "ổ": 1193,
      "ộ": 1194,
      "ớ": 1195,
      "ờ": 1196,
      "ở": 1197,
      "ợ": 1198,
      "ụ": 1199,
      "ủ": 1200,
      "ứ": 1201,
      "ử": 1202,
      "ữ": 1203,
      "ự": 1204,
      "ỳ": 1205,
      "ỵ": 1206,
      "ἀ": 1207,
      "ἁ": 1208,
      "ἄ": 1209,
      "ἅ": 1210,
      "ἐ": 1211,
      "ἑ": 1212,
      "ἔ": 1213,
      "ἠ": 1214,
      "ἡ": 1215,
      "ἢ": 1216,
      "ἤ": 1217,
      "ἥ": 1218,
      "ἦ": 1219,
      "ἰ": 1220,
      "ἱ": 1221,
      "ἴ": 1222,
      "ἵ": 1223,
      "ἶ": 1224,
      "ὀ": 1225,
      "ὁ": 1226,
      "ὄ": 1227,
      "ὅ": 1228,
      "ὐ": 1229,
      "ὑ": 1230,
      "ὕ": 1231,
      "ὡ": 1232,
      "ὥ": 1233,
      "ὧ": 1234,
      "ὰ": 1235,
      "ὴ": 1236,
      "ὶ": 1237,
      "ὸ": 1238,
      "ὺ": 1239,
      "ὼ": 1240,
      "ῃ": 1241,
      "ῆ": 1242,
      "ῇ": 1243,
      "ῖ": 1244,
      "ῥ": 1245,
      "ῦ": 1246,
      "ῧ": 1247,
      "ῳ": 1248,
      "ῶ": 1249,
      "ῷ": 1250,
      "​": 1251,
      "‌": 1252,
      "‍": 1253,
      "‎": 1254,
      "‏": 1255,
      "‐": 1256,
      "‒": 1257,
      "–": 1258,
      "—": 1259,
      "―": 1260,
      "‖": 1261,
      "‘": 1262,
      "’": 1263,
      "‚": 1264,
      "‛": 1265,
      "“": 1266,
      "”": 1267,
      "„": 1268,
      "‟": 1269,
      "†": 1270,
      "‡": 1271,
      "•": 1272,
      "‣": 1273,
      "‧": 1274,
      "‪": 1275,
      "‫": 1276,
      "‬": 1277,
      "‭": 1278,
      "‮": 1279,
      "‰": 1280,
      "′": 1281,
      "‹": 1282,
      "›": 1283,
      "※": 1284,
      "‽": 1285,
      "‿": 1286,
      "⁂": 1287,
      "⁃": 1288,
      "⁄": 1289,
      "⁊": 1290,
      "⁠": 1291,
      "⁡": 1292,
      "⁢": 1293,
      "₤": 1294,
      "₩": 1295,
      "€": 1296,
      "₱": 1297,
      "₹": 1298,
      "⃣": 1299,
      "℗": 1300,
      "℘": 1301,
      "℞": 1302,
      "⅋": 1303,
      "←": 1304,
      "↑": 1305,
      "→": 1306,
      "↓": 1307,
      "↔": 1308,
      "↦": 1309,
      "↩": 1310,
      "⇄": 1311,
      "⇆": 1312,
      "⇌": 1313,
      "⇐": 1314,
      "⇒": 1315,
      "⇓": 1316,
      "⇚": 1317,
      "⇛": 1318,
      "⇧": 1319,
      "∀": 1320,
      "∂": 1321,
      "∃": 1322,
      "∄": 1323,
      "∅": 1324,
      "∆": 1325,
      "∇": 1326,
      "∈": 1327,
      "∏": 1328,
      "∑": 1329,
      "−": 1330,
      "∓": 1331,
      "∗": 1332,
      "∘": 1333,
      "√": 1334,
      "∝": 1335,
      "∞": 1336,
      "∣": 1337,
      "∥": 1338,
      "∦": 1339,
      "∧": 1340,
      "∨": 1341,
      "∩": 1342,
      "∪": 1343,
      "∫": 1344,
      "∮": 1345,
      "∴": 1346,
      "∶": 1347,
      "∷": 1348,
      "∼": 1349,
      "≃": 1350,
      "≅": 1351,
      "≈": 1352,
      "≜": 1353,
      "≠": 1354,
      "≡": 1355,
      "≤": 1356,
      "≥": 1357,
      "≦": 1358,
      "≪": 1359,
      "≫": 1360,
      "≻": 1361,
      "⊂": 1362,
      "⊃": 1363,
      "⊕": 1364,
      "⊗": 1365,
      "⊙": 1366,
      "⊥": 1367,
      "⋅": 1368,
      "⋆": 1369,
      "⋕": 1370,
      "⋮": 1371,
      "⋯": 1372,
      "⌐": 1373,
      "⌘": 1374,
      "⎇": 1375,
      "⎝": 1376,
      "⎠": 1377,
      "⎯": 1378,
      "⏟": 1379,
      "⏱": 1380,
      "␣": 1381,
      "─": 1382,
      "━": 1383,
      "│": 1384,
      "┃": 1385,
      "┌": 1386,
      "┐": 1387,
      "└": 1388,
      "┕": 1389,
      "┘": 1390,
      "├": 1391,
      "┬": 1392,
      "┴": 1393,
      "┻": 1394,
      "┼": 1395,
      "═": 1396,
      "║": 1397,
      "╒": 1398,
      "╔": 1399,
      "╕": 1400,
      "╗": 1401,
      "╚": 1402,
      "╜": 1403,
      "╝": 1404,
      "╠": 1405,
      "╣": 1406,
      "╦": 1407,
      "╨": 1408,
      "╩": 1409,
      "╬": 1410,
      "╭": 1411,
      "╮": 1412,
      "╯": 1413,
      "╰": 1414,
      "╱": 1415,
      "╲": 1416,
      "╳": 1417,
      "╹": 1418,
      "▀": 1419,
      "▄": 1420,
      "█": 1421,
      "▋": 1422,
      "▌": 1423,
      "▐": 1424,
      "░": 1425,
      "▒": 1426,
      "▓": 1427,
      "■": 1428,
      "□": 1429,
      "▢": 1430,
      "▣": 1431,
      "▪": 1432,
      "▬": 1433,
      "▲": 1434,
      "△": 1435,
      "▶": 1436,
      "▸": 1437,
      "►": 1438,
      "▼": 1439,
      "▾": 1440,
      "◂": 1441,
      "◄": 1442,
      "◆": 1443,
      "◇": 1444,
      "◉": 1445,
      "◊": 1446,
      "○": 1447,
      "◎": 1448,
      "●": 1449,
      "◔": 1450,
      "◕": 1451,
      "◡": 1452,
      "◥": 1453,
      "◦": 1454,
      "◻": 1455,
      "◼": 1456,
      "◾": 1457,
      "☀": 1458,
      "☁": 1459,
      "☃": 1460,
      "★": 1461,
      "☆": 1462,
      "☉": 1463,
      "☐": 1464,
      "☑": 1465,
      "☒": 1466,
      "☔": 1467,
      "☕": 1468,
      "☘": 1469,
      "☙": 1470,
      "☛": 1471,
      "☝": 1472,
      "☠": 1473,
      "☤": 1474,
      "☯": 1475,
      "☰": 1476,
      "☲": 1477,
      "☵": 1478,
      "☷": 1479,
      "☹": 1480,
      "☺": 1481,
      "☼": 1482,
      "☽": 1483,
      "♀": 1484,
      "♂": 1485,
      "♏": 1486,
      "♔": 1487,
      "♕": 1488,
      "♛": 1489,
      "♞": 1490,
      "♠": 1491,
      "♡": 1492,
      "♣": 1493,
      "♥": 1494,
      "♦": 1495,
      "♪": 1496,
      "♫": 1497,
      "♭": 1498,
      "♯": 1499,
      "⚐": 1500,
      "⚓": 1501,
      "⚔": 1502,
      "⚖": 1503,
      "⚗": 1504,
      "⚙": 1505,
      "⚛": 1506,
      "⚠": 1507,
      "⚡": 1508,
      "⚥": 1509,
      "⚪": 1510,
      "⚽": 1511,
      "⛽": 1512,
      "✂": 1513,
      "✅": 1514,
      "✈": 1515,
      "✉": 1516,
      "✊": 1517,
      "✋": 1518,
      "✌": 1519,
      "✍": 1520,
      "✎": 1521,
      "✏": 1522,
      "✓": 1523,
      "✔": 1524,
      "✕": 1525,
      "✖": 1526,
      "✘": 1527,
      "✧": 1528,
      "✨": 1529,
      "✪": 1530,
      "✮": 1531,
      "✯": 1532,
      "✱": 1533,
      "✿": 1534,
      "❄": 1535,
      "❋": 1536,
      "❌": 1537,
      "❍": 1538,
      "❎": 1539,
      "❝": 1540,
      "❞": 1541,
      "❤": 1542,
      "❦": 1543,
      "❧": 1544,
      "❮": 1545,
      "❯": 1546,
      "➙": 1547,
      "➜": 1548,
      "➡": 1549,
      "➤": 1550,
      "➫": 1551,
      "➯": 1552,
      "⟨": 1553,
      "⟩": 1554,
      "⟶": 1555,
      "⟹": 1556,
      "⟺": 1557,
      "⠀": 1558,
      "⦁": 1559,
      "⬇": 1560,
      "⭐": 1561,
      "ⲁ": 1562,
      "ⲏ": 1563,
      "ⲑ": 1564,
      "ⲓ": 1565,
      "ⲙ": 1566,
      "ⲛ": 1567,
      "ⲟ": 1568,
      "ⲥ": 1569,
      "ⲧ": 1570,
      "ⲩ": 1571,
      "ⲭ": 1572,
      "ⲱ": 1573,
      "ⴰ": 1574,
      "ⴱ": 1575,
      "ⴻ": 1576,
      "ⵄ": 1577,
      "ⵉ": 1578,
      "ⵍ": 1579,
      "ⵎ": 1580,
      "ⵏ": 1581,
      "ⵓ": 1582,
      "ⵙ": 1583,
      "ⵜ": 1584,
      "ⵟ": 1585,
      "ⵡ": 1586,
      "⸢": 1587,
      "⸣": 1588,
      "⸮": 1589,
      "、": 1590,
      "。": 1591,
      "々": 1592,
      "〇": 1593,
      "〈": 1594,
      "〉": 1595,
      "《": 1596,
      "》": 1597,
      "「": 1598,
      "」": 1599,
      "『": 1600,
      "』": 1601,
      "【": 1602,
      "】": 1603,
      "〒": 1604,
      "〜": 1605,
      "ぁ": 1606,
      "あ": 1607,
      "い": 1608,
      "ぅ": 1609,
      "う": 1610,
      "ぇ": 1611,
      "え": 1612,
      "お": 1613,
      "か": 1614,
      "が": 1615,
      "き": 1616,
      "ぎ": 1617,
      "く": 1618,
      "ぐ": 1619,
      "け": 1620,
      "げ": 1621,
      "こ": 1622,
      "ご": 1623,
      "さ": 1624,
      "ざ": 1625,
      "し": 1626,
      "じ": 1627,
      "す": 1628,
      "ず": 1629,
      "せ": 1630,
      "ぜ": 1631,
      "そ": 1632,
      "ぞ": 1633,
      "た": 1634,
      "だ": 1635,
      "ち": 1636,
      "ぢ": 1637,
      "っ": 1638,
      "つ": 1639,
      "づ": 1640,
      "て": 1641,
      "で": 1642,
      "と": 1643,
      "ど": 1644,
      "な": 1645,
      "に": 1646,
      "ぬ": 1647,
      "ね": 1648,
      "の": 1649,
      "は": 1650,
      "ば": 1651,
      "ぱ": 1652,
      "ひ": 1653,
      "び": 1654,
      "ぴ": 1655,
      "ふ": 1656,
      "ぶ": 1657,
      "ぷ": 1658,
      "へ": 1659,
      "べ": 1660,
      "ほ": 1661,
      "ぼ": 1662,
      "ぽ": 1663,
      "ま": 1664,
      "み": 1665,
      "む": 1666,
      "め": 1667,
      "も": 1668,
      "ゃ": 1669,
      "や": 1670,
      "ゅ": 1671,
      "ゆ": 1672,
      "ょ": 1673,
      "よ": 1674,
      "ら": 1675,
      "り": 1676,
      "る": 1677,
      "れ": 1678,
      "ろ": 1679,
      "わ": 1680,
      "を": 1681,
      "ん": 1682,
      "゙": 1683,
      "゚": 1684,
      "ゞ": 1685,
      "ァ": 1686,
      "ア": 1687,
      "ィ": 1688,
      "イ": 1689,
      "ゥ": 1690,
      "ウ": 1691,
      "ェ": 1692,
      "エ": 1693,
      "ォ": 1694,
      "オ": 1695,
      "カ": 1696,
      "ガ": 1697,
      "キ": 1698,
      "ギ": 1699,
      "ク": 1700,
      "グ": 1701,
      "ケ": 1702,
      "ゲ": 1703,
      "コ": 1704,
      "ゴ": 1705,
      "サ": 1706,
      "ザ": 1707,
      "シ": 1708,
      "ジ": 1709,
      "ス": 1710,
      "ズ": 1711,
      "セ": 1712,
      "ゼ": 1713,
      "ソ": 1714,
      "ゾ": 1715,
      "タ": 1716,
      "ダ": 1717,
      "チ": 1718,
      "ヂ": 1719,
      "ッ": 1720,
      "ツ": 1721,
      "テ": 1722,
      "デ": 1723,
      "ト": 1724,
      "ド": 1725,
      "ナ": 1726,
      "ニ": 1727,
      "ヌ": 1728,
      "ネ": 1729,
      "ノ": 1730,
      "ハ": 1731,
      "バ": 1732,
      "パ": 1733,
      "ヒ": 1734,
      "ビ": 1735,
      "ピ": 1736,
      "フ": 1737,
      "ブ": 1738,
      "プ": 1739,
      "ヘ": 1740,
      "ベ": 1741,
      "ペ": 1742,
      "ホ": 1743,
      "ボ": 1744,
      "ポ": 1745,
      "マ": 1746,
      "ミ": 1747,
      "ム": 1748,
      "メ": 1749,
      "モ": 1750,
      "ャ": 1751,
      "ヤ": 1752,
      "ュ": 1753,
      "ユ": 1754,
      "ョ": 1755,
      "ヨ": 1756,
      "ラ": 1757,
      "リ": 1758,
      "ル": 1759,
      "レ": 1760,
      "ロ": 1761,
      "ヮ": 1762,
      "ワ": 1763,
      "ヲ": 1764,
      "ン": 1765,
      "ヴ": 1766,
      "ヶ": 1767,
      "・": 1768,
      "ー": 1769,
      "ヽ": 1770,
      "一": 1771,
      "丁": 1772,
      "七": 1773,
      "万": 1774,
      "丈": 1775,
      "三": 1776,
      "上": 1777,
      "下": 1778,
      "不": 1779,
      "与": 1780,
      "且": 1781,
      "世": 1782,
      "丘": 1783,
      "业": 1784,
      "丛": 1785,
      "东": 1786,
      "丝": 1787,
      "丟": 1788,
      "両": 1789,
      "两": 1790,
      "严": 1791,
      "並": 1792,
      "个": 1793,
      "中": 1794,
      "丰": 1795,
      "临": 1796,
      "丸": 1797,
      "为": 1798,
      "主": 1799,
      "丽": 1800,
      "举": 1801,
      "乃": 1802,
      "久": 1803,
      "么": 1804,
      "义": 1805,
      "之": 1806,
      "乎": 1807,
      "乐": 1808,
      "乔": 1809,
      "乗": 1810,
      "乙": 1811,
      "九": 1812,
      "也": 1813,
      "书": 1814,
      "乱": 1815,
      "乳": 1816,
      "乾": 1817,
      "亀": 1818,
      "亂": 1819,
      "了": 1820,
      "予": 1821,
      "争": 1822,
      "事": 1823,
      "二": 1824,
      "于": 1825,
      "亐": 1826,
      "云": 1827,
      "互": 1828,
      "五": 1829,
      "井": 1830,
      "亚": 1831,
      "些": 1832,
      "亜": 1833,
      "亞": 1834,
      "亡": 1835,
      "交": 1836,
      "享": 1837,
      "京": 1838,
      "亭": 1839,
      "亮": 1840,
      "亲": 1841,
      "人": 1842,
      "亻": 1843,
      "亿": 1844,
      "什": 1845,
      "仁": 1846,
      "仆": 1847,
      "今": 1848,
      "介": 1849,
      "从": 1850,
      "仕": 1851,
      "他": 1852,
      "付": 1853,
      "仙": 1854,
      "代": 1855,
      "令": 1856,
      "以": 1857,
      "们": 1858,
      "仲": 1859,
      "件": 1860,
      "价": 1861,
      "任": 1862,
      "企": 1863,
      "伊": 1864,
      "休": 1865,
      "众": 1866,
      "优": 1867,
      "会": 1868,
      "伝": 1869,
      "伟": 1870,
      "传": 1871,
      "伤": 1872,
      "伯": 1873,
      "伸": 1874,
      "似": 1875,
      "伽": 1876,
      "佇": 1877,
      "位": 1878,
      "低": 1879,
      "住": 1880,
      "佐": 1881,
      "佑": 1882,
      "体": 1883,
      "何": 1884,
      "佗": 1885,
      "余": 1886,
      "佛": 1887,
      "作": 1888,
      "你": 1889,
      "佳": 1890,
      "併": 1891,
      "使": 1892,
      "來": 1893,
      "例": 1894,
      "侍": 1895,
      "侏": 1896,
      "供": 1897,
      "依": 1898,
      "侠": 1899,
      "価": 1900,
      "侯": 1901,
      "侵": 1902,
      "便": 1903,
      "係": 1904,
      "促": 1905,
      "俊": 1906,
      "俗": 1907,
      "保": 1908,
      "俞": 1909,
      "信": 1910,
      "修": 1911,
      "俯": 1912,
      "俱": 1913,
      "俳": 1914,
      "俵": 1915,
      "俺": 1916,
      "倉": 1917,
      "個": 1918,
      "倍": 1919,
      "候": 1920,
      "借": 1921,
      "値": 1922,
      "倭": 1923,
      "值": 1924,
      "倾": 1925,
      "假": 1926,
      "停": 1927,
      "健": 1928,
      "側": 1929,
      "偶": 1930,
      "偷": 1931,
      "傑": 1932,
      "備": 1933,
      "储": 1934,
      "催": 1935,
      "傷": 1936,
      "傻": 1937,
      "傾": 1938,
      "働": 1939,
      "像": 1940,
      "僕": 1941,
      "僚": 1942,
      "儀": 1943,
      "儂": 1944,
      "儒": 1945,
      "優": 1946,
      "儿": 1947,
      "元": 1948,
      "充": 1949,
      "先": 1950,
      "光": 1951,
      "克": 1952,
      "児": 1953,
      "兖": 1954,
      "党": 1955,
      "入": 1956,
      "內": 1957,
      "全": 1958,
      "兩": 1959,
      "八": 1960,
      "公": 1961,
      "六": 1962,
      "兮": 1963,
      "共": 1964,
      "关": 1965,
      "兵": 1966,
      "其": 1967,
      "具": 1968,
      "典": 1969,
      "兼": 1970,
      "兽": 1971,
      "内": 1972,
      "円": 1973,
      "再": 1974,
      "冒": 1975,
      "写": 1976,
      "军": 1977,
      "农": 1978,
      "冠": 1979,
      "冬": 1980,
      "决": 1981,
      "冷": 1982,
      "冻": 1983,
      "凄": 1984,
      "准": 1985,
      "凌": 1986,
      "凍": 1987,
      "几": 1988,
      "処": 1989,
      "凯": 1990,
      "出": 1991,
      "击": 1992,
      "凿": 1993,
      "刀": 1994,
      "分": 1995,
      "切": 1996,
      "刊": 1997,
      "刑": 1998,
      "列": 1999,
      "刘": 2000,
      "则": 2001,
      "初": 2002,
      "判": 2003,
      "別": 2004,
      "利": 2005,
      "别": 2006,
      "到": 2007,
      "制": 2008,
      "刹": 2009,
      "刺": 2010,
      "刻": 2011,
      "則": 2012,
      "削": 2013,
      "前": 2014,
      "剑": 2015,
      "剥": 2016,
      "剩": 2017,
      "副": 2018,
      "剰": 2019,
      "割": 2020,
      "創": 2021,
      "劇": 2022,
      "劈": 2023,
      "劉": 2024,
      "力": 2025,
      "劝": 2026,
      "办": 2027,
      "功": 2028,
      "加": 2029,
      "务": 2030,
      "动": 2031,
      "助": 2032,
      "努": 2033,
      "励": 2034,
      "労": 2035,
      "効": 2036,
      "势": 2037,
      "勃": 2038,
      "勇": 2039,
      "勉": 2040,
      "勒": 2041,
      "動": 2042,
      "務": 2043,
      "勝": 2044,
      "勞": 2045,
      "募": 2046,
      "勢": 2047,
      "勾": 2048,
      "匂": 2049,
      "包": 2050,
      "化": 2051,
      "北": 2052,
      "匠": 2053,
      "匣": 2054,
      "匹": 2055,
      "区": 2056,
      "医": 2057,
      "匿": 2058,
      "區": 2059,
      "十": 2060,
      "千": 2061,
      "升": 2062,
      "午": 2063,
      "半": 2064,
      "华": 2065,
      "卒": 2066,
      "協": 2067,
      "单": 2068,
      "南": 2069,
      "単": 2070,
      "博": 2071,
      "占": 2072,
      "卡": 2073,
      "卦": 2074,
      "卫": 2075,
      "印": 2076,
      "危": 2077,
      "即": 2078,
      "却": 2079,
      "卿": 2080,
      "历": 2081,
      "压": 2082,
      "厚": 2083,
      "原": 2084,
      "去": 2085,
      "县": 2086,
      "参": 2087,
      "又": 2088,
      "及": 2089,
      "友": 2090,
      "双": 2091,
      "反": 2092,
      "収": 2093,
      "发": 2094,
      "取": 2095,
      "受": 2096,
      "变": 2097,
      "叟": 2098,
      "口": 2099,
      "古": 2100,
      "句": 2101,
      "叩": 2102,
      "只": 2103,
      "叫": 2104,
      "召": 2105,
      "叭": 2106,
      "可": 2107,
      "台": 2108,
      "史": 2109,
      "右": 2110,
      "叶": 2111,
      "号": 2112,
      "司": 2113,
      "吃": 2114,
      "各": 2115,
      "合": 2116,
      "吉": 2117,
      "同": 2118,
      "名": 2119,
      "后": 2120,
      "吏": 2121,
      "吐": 2122,
      "向": 2123,
      "君": 2124,
      "吟": 2125,
      "否": 2126,
      "吧": 2127,
      "含": 2128,
      "吳": 2129,
      "吴": 2130,
      "吸": 2131,
      "吹": 2132,
      "吾": 2133,
      "呂": 2134,
      "呈": 2135,
      "告": 2136,
      "员": 2137,
      "呟": 2138,
      "呢": 2139,
      "周": 2140,
      "味": 2141,
      "呼": 2142,
      "命": 2143,
      "和": 2144,
      "咖": 2145,
      "咲": 2146,
      "哀": 2147,
      "品": 2148,
      "哈": 2149,
      "哉": 2150,
      "員": 2151,
      "哥": 2152,
      "哪": 2153,
      "哲": 2154,
      "唆": 2155,
      "唇": 2156,
      "唐": 2157,
      "唯": 2158,
      "唱": 2159,
      "商": 2160,
      "問": 2161,
      "啡": 2162,
      "善": 2163,
      "喚": 2164,
      "喜": 2165,
      "喧": 2166,
      "喪": 2167,
      "單": 2168,
      "喵": 2169,
      "営": 2170,
      "嗚": 2171,
      "嘗": 2172,
      "嘩": 2173,
      "嘴": 2174,
      "噛": 2175,
      "器": 2176,
      "噴": 2177,
      "噺": 2178,
      "嚢": 2179,
      "嚴": 2180,
      "嚼": 2181,
      "囗": 2182,
      "四": 2183,
      "回": 2184,
      "因": 2185,
      "团": 2186,
      "団": 2187,
      "园": 2188,
      "困": 2189,
      "囲": 2190,
      "図": 2191,
      "围": 2192,
      "固": 2193,
      "国": 2194,
      "图": 2195,
      "圆": 2196,
      "國": 2197,
      "圍": 2198,
      "園": 2199,
      "圖": 2200,
      "團": 2201,
      "土": 2202,
      "圣": 2203,
      "圧": 2204,
      "在": 2205,
      "地": 2206,
      "场": 2207,
      "圾": 2208,
      "坂": 2209,
      "均": 2210,
      "坊": 2211,
      "坎": 2212,
      "坝": 2213,
      "坤": 2214,
      "垂": 2215,
      "垃": 2216,
      "型": 2217,
      "垢": 2218,
      "垦": 2219,
      "埋": 2220,
      "城": 2221,
      "域": 2222,
      "執": 2223,
      "培": 2224,
      "基": 2225,
      "埼": 2226,
      "堂": 2227,
      "堅": 2228,
      "堤": 2229,
      "堪": 2230,
      "報": 2231,
      "場": 2232,
      "塔": 2233,
      "塗": 2234,
      "塚": 2235,
      "境": 2236,
      "墓": 2237,
      "増": 2238,
      "墙": 2239,
      "增": 2240,
      "墟": 2241,
      "墨": 2242,
      "墮": 2243,
      "墳": 2244,
      "壁": 2245,
      "壇": 2246,
      "壊": 2247,
      "壩": 2248,
      "士": 2249,
      "壮": 2250,
      "声": 2251,
      "売": 2252,
      "壽": 2253,
      "夂": 2254,
      "変": 2255,
      "复": 2256,
      "夏": 2257,
      "夕": 2258,
      "外": 2259,
      "多": 2260,
      "夜": 2261,
      "夢": 2262,
      "大": 2263,
      "天": 2264,
      "太": 2265,
      "夫": 2266,
      "央": 2267,
      "失": 2268,
      "头": 2269,
      "夷": 2270,
      "奇": 2271,
      "奈": 2272,
      "奋": 2273,
      "奏": 2274,
      "奔": 2275,
      "奕": 2276,
      "奖": 2277,
      "套": 2278,
      "奥": 2279,
      "奪": 2280,
      "奮": 2281,
      "女": 2282,
      "奴": 2283,
      "她": 2284,
      "好": 2285,
      "如": 2286,
      "妃": 2287,
      "妈": 2288,
      "妖": 2289,
      "妙": 2290,
      "妹": 2291,
      "妻": 2292,
      "妾": 2293,
      "姉": 2294,
      "始": 2295,
      "姐": 2296,
      "姑": 2297,
      "姓": 2298,
      "委": 2299,
      "姥": 2300,
      "姿": 2301,
      "娇": 2302,
      "婚": 2303,
      "婦": 2304,
      "媒": 2305,
      "嫁": 2306,
      "嫌": 2307,
      "嫖": 2308,
      "嬉": 2309,
      "嬪": 2310,
      "子": 2311,
      "孔": 2312,
      "字": 2313,
      "存": 2314,
      "孙": 2315,
      "孝": 2316,
      "季": 2317,
      "孤": 2318,
      "学": 2319,
      "孩": 2320,
      "孫": 2321,
      "學": 2322,
      "宅": 2323,
      "宇": 2324,
      "守": 2325,
      "安": 2326,
      "宋": 2327,
      "完": 2328,
      "宏": 2329,
      "宗": 2330,
      "官": 2331,
      "宙": 2332,
      "定": 2333,
      "宛": 2334,
      "宜": 2335,
      "宝": 2336,
      "实": 2337,
      "実": 2338,
      "审": 2339,
      "客": 2340,
      "宣": 2341,
      "室": 2342,
      "宮": 2343,
      "宰": 2344,
      "害": 2345,
      "宴": 2346,
      "宵": 2347,
      "家": 2348,
      "容": 2349,
      "宿": 2350,
      "寂": 2351,
      "寄": 2352,
      "密": 2353,
      "寇": 2354,
      "富": 2355,
      "寒": 2356,
      "察": 2357,
      "實": 2358,
      "寧": 2359,
      "審": 2360,
      "寮": 2361,
      "寶": 2362,
      "寸": 2363,
      "对": 2364,
      "寺": 2365,
      "导": 2366,
      "対": 2367,
      "寿": 2368,
      "封": 2369,
      "専": 2370,
      "射": 2371,
      "将": 2372,
      "將": 2373,
      "尊": 2374,
      "導": 2375,
      "小": 2376,
      "少": 2377,
      "尔": 2378,
      "尖": 2379,
      "尚": 2380,
      "就": 2381,
      "尻": 2382,
      "尽": 2383,
      "尾": 2384,
      "局": 2385,
      "层": 2386,
      "居": 2387,
      "屈": 2388,
      "届": 2389,
      "屋": 2390,
      "展": 2391,
      "属": 2392,
      "履": 2393,
      "屬": 2394,
      "山": 2395,
      "屿": 2396,
      "岛": 2397,
      "岡": 2398,
      "岩": 2399,
      "岬": 2400,
      "岳": 2401,
      "峠": 2402,
      "峡": 2403,
      "峪": 2404,
      "峰": 2405,
      "島": 2406,
      "崇": 2407,
      "崎": 2408,
      "崩": 2409,
      "崽": 2410,
      "嵐": 2411,
      "嵩": 2412,
      "嶋": 2413,
      "嶺": 2414,
      "嶽": 2415,
      "川": 2416,
      "州": 2417,
      "巡": 2418,
      "工": 2419,
      "左": 2420,
      "巧": 2421,
      "巨": 2422,
      "差": 2423,
      "己": 2424,
      "已": 2425,
      "巴": 2426,
      "巻": 2427,
      "巾": 2428,
      "市": 2429,
      "布": 2430,
      "帆": 2431,
      "希": 2432,
      "帝": 2433,
      "帥": 2434,
      "師": 2435,
      "席": 2436,
      "帮": 2437,
      "帯": 2438,
      "帰": 2439,
      "帶": 2440,
      "常": 2441,
      "帽": 2442,
      "幅": 2443,
      "幕": 2444,
      "干": 2445,
      "平": 2446,
      "年": 2447,
      "幸": 2448,
      "幹": 2449,
      "幻": 2450,
      "幼": 2451,
      "幾": 2452,
      "广": 2453,
      "庁": 2454,
      "広": 2455,
      "庄": 2456,
      "庆": 2457,
      "库": 2458,
      "应": 2459,
      "底": 2460,
      "府": 2461,
      "废": 2462,
      "度": 2463,
      "座": 2464,
      "庫": 2465,
      "庭": 2466,
      "庶": 2467,
      "康": 2468,
      "廃": 2469,
      "廊": 2470,
      "廖": 2471,
      "廠": 2472,
      "廣": 2473,
      "延": 2474,
      "廷": 2475,
      "建": 2476,
      "开": 2477,
      "弁": 2478,
      "异": 2479,
      "弊": 2480,
      "式": 2481,
      "弓": 2482,
      "引": 2483,
      "弘": 2484,
      "弟": 2485,
      "张": 2486,
      "弥": 2487,
      "張": 2488,
      "強": 2489,
      "弹": 2490,
      "强": 2491,
      "弾": 2492,
      "彎": 2493,
      "当": 2494,
      "录": 2495,
      "彙": 2496,
      "形": 2497,
      "彦": 2498,
      "彩": 2499,
      "彰": 2500,
      "影": 2501,
      "役": 2502,
      "彼": 2503,
      "征": 2504,
      "待": 2505,
      "很": 2506,
      "律": 2507,
      "後": 2508,
      "徐": 2509,
      "徒": 2510,
      "得": 2511,
      "從": 2512,
      "御": 2513,
      "復": 2514,
      "循": 2515,
      "微": 2516,
      "徳": 2517,
      "徵": 2518,
      "德": 2519,
      "徽": 2520,
      "心": 2521,
      "必": 2522,
      "忍": 2523,
      "志": 2524,
      "忘": 2525,
      "忙": 2526,
      "応": 2527,
      "忠": 2528,
      "快": 2529,
      "念": 2530,
      "怀": 2531,
      "态": 2532,
      "怒": 2533,
      "怕": 2534,
      "思": 2535,
      "怡": 2536,
      "急": 2537,
      "性": 2538,
      "怪": 2539,
      "总": 2540,
      "恋": 2541,
      "恐": 2542,
      "恠": 2543,
      "恢": 2544,
      "恥": 2545,
      "恩": 2546,
      "恭": 2547,
      "息": 2548,
      "恵": 2549,
      "恶": 2550,
      "悟": 2551,
      "患": 2552,
      "悩": 2553,
      "悪": 2554,
      "悲": 2555,
      "情": 2556,
      "惑": 2557,
      "惜": 2558,
      "惟": 2559,
      "惠": 2560,
      "惡": 2561,
      "想": 2562,
      "惺": 2563,
      "愉": 2564,
      "意": 2565,
      "愕": 2566,
      "愚": 2567,
      "愛": 2568,
      "感": 2569,
      "慈": 2570,
      "態": 2571,
      "慧": 2572,
      "慮": 2573,
      "慰": 2574,
      "慶": 2575,
      "憂": 2576,
      "憤": 2577,
      "憧": 2578,
      "憬": 2579,
      "憶": 2580,
      "憾": 2581,
      "應": 2582,
      "懐": 2583,
      "懲": 2584,
      "懸": 2585,
      "懿": 2586,
      "戀": 2587,
      "戈": 2588,
      "戉": 2589,
      "戏": 2590,
      "成": 2591,
      "我": 2592,
      "戒": 2593,
      "或": 2594,
      "戟": 2595,
      "戦": 2596,
      "戰": 2597,
      "戳": 2598,
      "戴": 2599,
      "戻": 2600,
      "房": 2601,
      "所": 2602,
      "扁": 2603,
      "扉": 2604,
      "手": 2605,
      "才": 2606,
      "扒": 2607,
      "打": 2608,
      "払": 2609,
      "扱": 2610,
      "批": 2611,
      "承": 2612,
      "技": 2613,
      "把": 2614,
      "抑": 2615,
      "抓": 2616,
      "投": 2617,
      "抗": 2618,
      "折": 2619,
      "抜": 2620,
      "択": 2621,
      "抢": 2622,
      "护": 2623,
      "披": 2624,
      "抱": 2625,
      "抵": 2626,
      "押": 2627,
      "担": 2628,
      "拉": 2629,
      "拍": 2630,
      "拒": 2631,
      "拘": 2632,
      "拙": 2633,
      "招": 2634,
      "拠": 2635,
      "拭": 2636,
      "拿": 2637,
      "持": 2638,
      "指": 2639,
      "按": 2640,
      "挑": 2641,
      "挙": 2642,
      "挝": 2643,
      "振": 2644,
      "捉": 2645,
      "捕": 2646,
      "捜": 2647,
      "换": 2648,
      "捨": 2649,
      "据": 2650,
      "掀": 2651,
      "授": 2652,
      "排": 2653,
      "掛": 2654,
      "採": 2655,
      "探": 2656,
      "接": 2657,
      "控": 2658,
      "推": 2659,
      "掩": 2660,
      "掲": 2661,
      "揃": 2662,
      "揍": 2663,
      "描": 2664,
      "提": 2665,
      "插": 2666,
      "揚": 2667,
      "換": 2668,
      "握": 2669,
      "援": 2670,
      "揺": 2671,
      "損": 2672,
      "搞": 2673,
      "搶": 2674,
      "携": 2675,
      "摂": 2676,
      "摄": 2677,
      "摘": 2678,
      "摩": 2679,
      "撃": 2680,
      "撒": 2681,
      "播": 2682,
      "撮": 2683,
      "撾": 2684,
      "擁": 2685,
      "操": 2686,
      "支": 2687,
      "收": 2688,
      "改": 2689,
      "攻": 2690,
      "放": 2691,
      "政": 2692,
      "故": 2693,
      "敌": 2694,
      "救": 2695,
      "敗": 2696,
      "教": 2697,
      "敢": 2698,
      "散": 2699,
      "敦": 2700,
      "敬": 2701,
      "数": 2702,
      "整": 2703,
      "敵": 2704,
      "敷": 2705,
      "文": 2706,
      "斉": 2707,
      "斌": 2708,
      "斑": 2709,
      "斗": 2710,
      "料": 2711,
      "斜": 2712,
      "断": 2713,
      "斯": 2714,
      "新": 2715,
      "方": 2716,
      "於": 2717,
      "施": 2718,
      "旅": 2719,
      "旋": 2720,
      "族": 2721,
      "旗": 2722,
      "无": 2723,
      "既": 2724,
      "日": 2725,
      "旧": 2726,
      "旨": 2727,
      "早": 2728,
      "旬": 2729,
      "旱": 2730,
      "时": 2731,
      "昆": 2732,
      "昇": 2733,
      "昌": 2734,
      "明": 2735,
      "易": 2736,
      "昔": 2737,
      "星": 2738,
      "映": 2739,
      "春": 2740,
      "昨": 2741,
      "昭": 2742,
      "是": 2743,
      "時": 2744,
      "晉": 2745,
      "晋": 2746,
      "晒": 2747,
      "晨": 2748,
      "晩": 2749,
      "普": 2750,
      "景": 2751,
      "晴": 2752,
      "晶": 2753,
      "智": 2754,
      "暁": 2755,
      "暇": 2756,
      "暑": 2757,
      "暗": 2758,
      "暫": 2759,
      "暮": 2760,
      "暴": 2761,
      "曙": 2762,
      "曜": 2763,
      "曝": 2764,
      "曰": 2765,
      "曲": 2766,
      "更": 2767,
      "書": 2768,
      "曼": 2769,
      "曾": 2770,
      "替": 2771,
      "最": 2772,
      "會": 2773,
      "月": 2774,
      "有": 2775,
      "朋": 2776,
      "服": 2777,
      "朕": 2778,
      "朗": 2779,
      "望": 2780,
      "朝": 2781,
      "期": 2782,
      "朧": 2783,
      "木": 2784,
      "未": 2785,
      "末": 2786,
      "本": 2787,
      "术": 2788,
      "朱": 2789,
      "机": 2790,
      "权": 2791,
      "李": 2792,
      "杏": 2793,
      "材": 2794,
      "村": 2795,
      "束": 2796,
      "条": 2797,
      "来": 2798,
      "杨": 2799,
      "杯": 2800,
      "杰": 2801,
      "東": 2802,
      "松": 2803,
      "板": 2804,
      "析": 2805,
      "林": 2806,
      "枘": 2807,
      "枚": 2808,
      "果": 2809,
      "枝": 2810,
      "架": 2811,
      "柄": 2812,
      "柏": 2813,
      "某": 2814,
      "染": 2815,
      "查": 2816,
      "柯": 2817,
      "柱": 2818,
      "柴": 2819,
      "査": 2820,
      "栄": 2821,
      "标": 2822,
      "校": 2823,
      "株": 2824,
      "核": 2825,
      "根": 2826,
      "格": 2827,
      "桂": 2828,
      "桃": 2829,
      "案": 2830,
      "桜": 2831,
      "桥": 2832,
      "梁": 2833,
      "梓": 2834,
      "條": 2835,
      "械": 2836,
      "棄": 2837,
      "棠": 2838,
      "森": 2839,
      "椅": 2840,
      "植": 2841,
      "検": 2842,
      "椰": 2843,
      "楊": 2844,
      "楚": 2845,
      "業": 2846,
      "極": 2847,
      "楽": 2848,
      "概": 2849,
      "榜": 2850,
      "榮": 2851,
      "構": 2852,
      "様": 2853,
      "樂": 2854,
      "樋": 2855,
      "樓": 2856,
      "標": 2857,
      "模": 2858,
      "権": 2859,
      "横": 2860,
      "樹": 2861,
      "樺": 2862,
      "橋": 2863,
      "橘": 2864,
      "橙": 2865,
      "機": 2866,
      "欠": 2867,
      "次": 2868,
      "欢": 2869,
      "欲": 2870,
      "欺": 2871,
      "欽": 2872,
      "歉": 2873,
      "歌": 2874,
      "歓": 2875,
      "止": 2876,
      "正": 2877,
      "此": 2878,
      "武": 2879,
      "歩": 2880,
      "歪": 2881,
      "歯": 2882,
      "歲": 2883,
      "歳": 2884,
      "歴": 2885,
      "死": 2886,
      "殊": 2887,
      "残": 2888,
      "殖": 2889,
      "段": 2890,
      "殺": 2891,
      "殻": 2892,
      "殿": 2893,
      "母": 2894,
      "毎": 2895,
      "每": 2896,
      "比": 2897,
      "毕": 2898,
      "毘": 2899,
      "毛": 2900,
      "氏": 2901,
      "民": 2902,
      "气": 2903,
      "気": 2904,
      "氣": 2905,
      "水": 2906,
      "氷": 2907,
      "永": 2908,
      "求": 2909,
      "汕": 2910,
      "汚": 2911,
      "汝": 2912,
      "江": 2913,
      "池": 2914,
      "污": 2915,
      "汤": 2916,
      "汪": 2917,
      "決": 2918,
      "汽": 2919,
      "沃": 2920,
      "沈": 2921,
      "沒": 2922,
      "沖": 2923,
      "沙": 2924,
      "没": 2925,
      "河": 2926,
      "沸": 2927,
      "治": 2928,
      "沿": 2929,
      "況": 2930,
      "泉": 2931,
      "法": 2932,
      "波": 2933,
      "泣": 2934,
      "泥": 2935,
      "注": 2936,
      "泰": 2937,
      "泳": 2938,
      "洋": 2939,
      "洗": 2940,
      "洛": 2941,
      "洞": 2942,
      "津": 2943,
      "洪": 2944,
      "洱": 2945,
      "活": 2946,
      "派": 2947,
      "流": 2948,
      "浙": 2949,
      "浜": 2950,
      "浦": 2951,
      "浪": 2952,
      "浬": 2953,
      "浮": 2954,
      "浴": 2955,
      "海": 2956,
      "消": 2957,
      "涙": 2958,
      "涛": 2959,
      "涧": 2960,
      "涯": 2961,
      "涵": 2962,
      "涼": 2963,
      "淑": 2964,
      "淡": 2965,
      "淦": 2966,
      "淨": 2967,
      "淫": 2968,
      "深": 2969,
      "淳": 2970,
      "混": 2971,
      "添": 2972,
      "清": 2973,
      "済": 2974,
      "渓": 2975,
      "減": 2976,
      "渠": 2977,
      "渡": 2978,
      "渦": 2979,
      "温": 2980,
      "測": 2981,
      "港": 2982,
      "游": 2983,
      "渾": 2984,
      "湖": 2985,
      "湛": 2986,
      "湯": 2987,
      "湾": 2988,
      "湿": 2989,
      "満": 2990,
      "源": 2991,
      "準": 2992,
      "溢": 2993,
      "滅": 2994,
      "滑": 2995,
      "满": 2996,
      "滩": 2997,
      "滲": 2998,
      "滴": 2999,
      "漁": 3000,
      "漏": 3001,
      "演": 3002,
      "漠": 3003,
      "漢": 3004,
      "漫": 3005,
      "漯": 3006,
      "潜": 3007,
      "潤": 3008,
      "潮": 3009,
      "潰": 3010,
      "澤": 3011,
      "激": 3012,
      "濃": 3013,
      "濟": 3014,
      "濡": 3015,
      "濱": 3016,
      "濺": 3017,
      "瀚": 3018,
      "瀬": 3019,
      "灘": 3020,
      "灣": 3021,
      "火": 3022,
      "灯": 3023,
      "灵": 3024,
      "災": 3025,
      "炁": 3026,
      "炉": 3027,
      "炎": 3028,
      "炫": 3029,
      "炮": 3030,
      "点": 3031,
      "為": 3032,
      "烈": 3033,
      "热": 3034,
      "焉": 3035,
      "焚": 3036,
      "無": 3037,
      "焦": 3038,
      "然": 3039,
      "焼": 3040,
      "照": 3041,
      "煽": 3042,
      "熱": 3043,
      "燃": 3044,
      "燕": 3045,
      "營": 3046,
      "燮": 3047,
      "爆": 3048,
      "爬": 3049,
      "爲": 3050,
      "爵": 3051,
      "父": 3052,
      "爷": 3053,
      "爸": 3054,
      "爾": 3055,
      "牆": 3056,
      "片": 3057,
      "版": 3058,
      "牌": 3059,
      "牙": 3060,
      "牛": 3061,
      "牧": 3062,
      "物": 3063,
      "牲": 3064,
      "特": 3065,
      "犠": 3066,
      "犬": 3067,
      "犯": 3068,
      "状": 3069,
      "狂": 3070,
      "狒": 3071,
      "狗": 3072,
      "独": 3073,
      "狭": 3074,
      "猛": 3075,
      "猪": 3076,
      "猫": 3077,
      "献": 3078,
      "猴": 3079,
      "猿": 3080,
      "獨": 3081,
      "獲": 3082,
      "獸": 3083,
      "獻": 3084,
      "玄": 3085,
      "率": 3086,
      "玉": 3087,
      "王": 3088,
      "玩": 3089,
      "环": 3090,
      "现": 3091,
      "玲": 3092,
      "珍": 3093,
      "現": 3094,
      "球": 3095,
      "琅": 3096,
      "理": 3097,
      "琉": 3098,
      "琊": 3099,
      "琢": 3100,
      "琪": 3101,
      "琴": 3102,
      "琼": 3103,
      "瑋": 3104,
      "瑛": 3105,
      "瑞": 3106,
      "瑶": 3107,
      "璐": 3108,
      "環": 3109,
      "瓊": 3110,
      "瓶": 3111,
      "生": 3112,
      "産": 3113,
      "用": 3114,
      "田": 3115,
      "由": 3116,
      "甲": 3117,
      "申": 3118,
      "电": 3119,
      "男": 3120,
      "甸": 3121,
      "町": 3122,
      "画": 3123,
      "界": 3124,
      "留": 3125,
      "畜": 3126,
      "畢": 3127,
      "略": 3128,
      "番": 3129,
      "畫": 3130,
      "異": 3131,
      "疆": 3132,
      "疑": 3133,
      "疲": 3134,
      "疾": 3135,
      "病": 3136,
      "症": 3137,
      "痛": 3138,
      "痩": 3139,
      "癌": 3140,
      "癒": 3141,
      "発": 3142,
      "登": 3143,
      "白": 3144,
      "百": 3145,
      "皃": 3146,
      "的": 3147,
      "皆": 3148,
      "皇": 3149,
      "皮": 3150,
      "盆": 3151,
      "益": 3152,
      "监": 3153,
      "盖": 3154,
      "盗": 3155,
      "盛": 3156,
      "盟": 3157,
      "監": 3158,
      "盤": 3159,
      "目": 3160,
      "直": 3161,
      "相": 3162,
      "盾": 3163,
      "省": 3164,
      "看": 3165,
      "県": 3166,
      "真": 3167,
      "眠": 3168,
      "眺": 3169,
      "眼": 3170,
      "眾": 3171,
      "着": 3172,
      "督": 3173,
      "睦": 3174,
      "睿": 3175,
      "瞎": 3176,
      "瞑": 3177,
      "瞬": 3178,
      "瞰": 3179,
      "瞳": 3180,
      "矛": 3181,
      "矢": 3182,
      "矣": 3183,
      "知": 3184,
      "短": 3185,
      "矮": 3186,
      "石": 3187,
      "砂": 3188,
      "研": 3189,
      "砲": 3190,
      "破": 3191,
      "硬": 3192,
      "碑": 3193,
      "確": 3194,
      "碼": 3195,
      "磁": 3196,
      "磨": 3197,
      "礁": 3198,
      "礎": 3199,
      "示": 3200,
      "礼": 3201,
      "社": 3202,
      "祈": 3203,
      "祐": 3204,
      "祓": 3205,
      "祝": 3206,
      "神": 3207,
      "祥": 3208,
      "票": 3209,
      "祭": 3210,
      "祺": 3211,
      "禁": 3212,
      "禊": 3213,
      "福": 3214,
      "禕": 3215,
      "禧": 3216,
      "禮": 3217,
      "离": 3218,
      "禾": 3219,
      "秀": 3220,
      "私": 3221,
      "秋": 3222,
      "种": 3223,
      "科": 3224,
      "秒": 3225,
      "秘": 3226,
      "秦": 3227,
      "称": 3228,
      "移": 3229,
      "程": 3230,
      "稍": 3231,
      "税": 3232,
      "種": 3233,
      "稲": 3234,
      "稻": 3235,
      "稼": 3236,
      "稽": 3237,
      "稿": 3238,
      "穀": 3239,
      "積": 3240,
      "穏": 3241,
      "究": 3242,
      "穹": 3243,
      "空": 3244,
      "穿": 3245,
      "突": 3246,
      "窝": 3247,
      "立": 3248,
      "站": 3249,
      "竜": 3250,
      "章": 3251,
      "童": 3252,
      "端": 3253,
      "竹": 3254,
      "笑": 3255,
      "笔": 3256,
      "笛": 3257,
      "符": 3258,
      "第": 3259,
      "筆": 3260,
      "等": 3261,
      "筋": 3262,
      "筑": 3263,
      "答": 3264,
      "签": 3265,
      "简": 3266,
      "箇": 3267,
      "算": 3268,
      "箝": 3269,
      "管": 3270,
      "箱": 3271,
      "節": 3272,
      "範": 3273,
      "築": 3274,
      "篝": 3275,
      "篤": 3276,
      "簡": 3277,
      "簾": 3278,
      "籍": 3279,
      "米": 3280,
      "类": 3281,
      "粉": 3282,
      "粋": 3283,
      "粒": 3284,
      "粵": 3285,
      "精": 3286,
      "糞": 3287,
      "系": 3288,
      "紀": 3289,
      "約": 3290,
      "純": 3291,
      "紙": 3292,
      "級": 3293,
      "紛": 3294,
      "素": 3295,
      "索": 3296,
      "紫": 3297,
      "累": 3298,
      "細": 3299,
      "紹": 3300,
      "終": 3301,
      "組": 3302,
      "絆": 3303,
      "経": 3304,
      "結": 3305,
      "絞": 3306,
      "絡": 3307,
      "給": 3308,
      "統": 3309,
      "絲": 3310,
      "絵": 3311,
      "絶": 3312,
      "經": 3313,
      "継": 3314,
      "続": 3315,
      "綜": 3316,
      "綠": 3317,
      "維": 3318,
      "綱": 3319,
      "網": 3320,
      "綺": 3321,
      "綾": 3322,
      "総": 3323,
      "緑": 3324,
      "緒": 3325,
      "線": 3326,
      "締": 3327,
      "編": 3328,
      "緩": 3329,
      "緯": 3330,
      "練": 3331,
      "縁": 3332,
      "總": 3333,
      "繁": 3334,
      "繋": 3335,
      "織": 3336,
      "繭": 3337,
      "繰": 3338,
      "纏": 3339,
      "红": 3340,
      "纪": 3341,
      "纯": 3342,
      "线": 3343,
      "终": 3344,
      "经": 3345,
      "结": 3346,
      "给": 3347,
      "统": 3348,
      "绥": 3349,
      "继": 3350,
      "续": 3351,
      "维": 3352,
      "综": 3353,
      "缩": 3354,
      "缶": 3355,
      "缽": 3356,
      "网": 3357,
      "罗": 3358,
      "罠": 3359,
      "罪": 3360,
      "置": 3361,
      "罰": 3362,
      "署": 3363,
      "罵": 3364,
      "羅": 3365,
      "羊": 3366,
      "美": 3367,
      "羞": 3368,
      "群": 3369,
      "義": 3370,
      "羽": 3371,
      "翌": 3372,
      "習": 3373,
      "翻": 3374,
      "翼": 3375,
      "耀": 3376,
      "老": 3377,
      "考": 3378,
      "者": 3379,
      "而": 3380,
      "耐": 3381,
      "耕": 3382,
      "耽": 3383,
      "聋": 3384,
      "职": 3385,
      "联": 3386,
      "聖": 3387,
      "聞": 3388,
      "聯": 3389,
      "職": 3390,
      "聽": 3391,
      "肇": 3392,
      "肉": 3393,
      "肋": 3394,
      "肌": 3395,
      "肏": 3396,
      "肝": 3397,
      "肠": 3398,
      "育": 3399,
      "背": 3400,
      "胎": 3401,
      "胞": 3402,
      "胡": 3403,
      "胸": 3404,
      "能": 3405,
      "脈": 3406,
      "脚": 3407,
      "脩": 3408,
      "脱": 3409,
      "脳": 3410,
      "腐": 3411,
      "腕": 3412,
      "腚": 3413,
      "腰": 3414,
      "腺": 3415,
      "膏": 3416,
      "膝": 3417,
      "膠": 3418,
      "膳": 3419,
      "臓": 3420,
      "臣": 3421,
      "臥": 3422,
      "臨": 3423,
      "自": 3424,
      "臭": 3425,
      "至": 3426,
      "致": 3427,
      "臺": 3428,
      "舆": 3429,
      "興": 3430,
      "舊": 3431,
      "舌": 3432,
      "舞": 3433,
      "航": 3434,
      "般": 3435,
      "船": 3436,
      "艤": 3437,
      "艦": 3438,
      "良": 3439,
      "色": 3440,
      "艾": 3441,
      "节": 3442,
      "芝": 3443,
      "花": 3444,
      "芳": 3445,
      "芸": 3446,
      "苍": 3447,
      "苏": 3448,
      "苑": 3449,
      "苟": 3450,
      "若": 3451,
      "苦": 3452,
      "英": 3453,
      "茂": 3454,
      "范": 3455,
      "茨": 3456,
      "茵": 3457,
      "茶": 3458,
      "草": 3459,
      "荒": 3460,
      "荷": 3461,
      "莉": 3462,
      "莫": 3463,
      "莱": 3464,
      "菊": 3465,
      "菜": 3466,
      "菩": 3467,
      "華": 3468,
      "菲": 3469,
      "萄": 3470,
      "萊": 3471,
      "萩": 3472,
      "萬": 3473,
      "落": 3474,
      "葉": 3475,
      "著": 3476,
      "葡": 3477,
      "董": 3478,
      "葬": 3479,
      "蒜": 3480,
      "蓋": 3481,
      "蓝": 3482,
      "蔑": 3483,
      "蔡": 3484,
      "蔣": 3485,
      "蔵": 3486,
      "蔽": 3487,
      "蕃": 3488,
      "薄": 3489,
      "薇": 3490,
      "薩": 3491,
      "薫": 3492,
      "藍": 3493,
      "藏": 3494,
      "藝": 3495,
      "藤": 3496,
      "藥": 3497,
      "蘇": 3498,
      "蘭": 3499,
      "虎": 3500,
      "虐": 3501,
      "處": 3502,
      "虚": 3503,
      "號": 3504,
      "虫": 3505,
      "蚕": 3506,
      "蛇": 3507,
      "蛛": 3508,
      "蜘": 3509,
      "蝦": 3510,
      "蝶": 3511,
      "融": 3512,
      "螺": 3513,
      "蟠": 3514,
      "蟹": 3515,
      "蠛": 3516,
      "蠻": 3517,
      "血": 3518,
      "衆": 3519,
      "行": 3520,
      "術": 3521,
      "街": 3522,
      "衛": 3523,
      "衝": 3524,
      "衡": 3525,
      "衣": 3526,
      "表": 3527,
      "衰": 3528,
      "袋": 3529,
      "袖": 3530,
      "被": 3531,
      "裁": 3532,
      "裂": 3533,
      "装": 3534,
      "裏": 3535,
      "裕": 3536,
      "補": 3537,
      "裡": 3538,
      "裳": 3539,
      "裴": 3540,
      "裸": 3541,
      "製": 3542,
      "複": 3543,
      "褐": 3544,
      "褒": 3545,
      "襲": 3546,
      "西": 3547,
      "要": 3548,
      "覆": 3549,
      "見": 3550,
      "規": 3551,
      "視": 3552,
      "覚": 3553,
      "覧": 3554,
      "親": 3555,
      "観": 3556,
      "覺": 3557,
      "视": 3558,
      "角": 3559,
      "解": 3560,
      "触": 3561,
      "言": 3562,
      "計": 3563,
      "討": 3564,
      "託": 3565,
      "記": 3566,
      "訟": 3567,
      "訪": 3568,
      "設": 3569,
      "許": 3570,
      "訳": 3571,
      "訴": 3572,
      "証": 3573,
      "詐": 3574,
      "評": 3575,
      "詞": 3576,
      "試": 3577,
      "詰": 3578,
      "話": 3579,
      "該": 3580,
      "詳": 3581,
      "誇": 3582,
      "誌": 3583,
      "認": 3584,
      "誐": 3585,
      "誕": 3586,
      "誘": 3587,
      "語": 3588,
      "誤": 3589,
      "説": 3590,
      "読": 3591,
      "誰": 3592,
      "調": 3593,
      "談": 3594,
      "請": 3595,
      "諏": 3596,
      "論": 3597,
      "諦": 3598,
      "諸": 3599,
      "謂": 3600,
      "謉": 3601,
      "謎": 3602,
      "講": 3603,
      "謝": 3604,
      "謨": 3605,
      "識": 3606,
      "警": 3607,
      "譯": 3608,
      "議": 3609,
      "譲": 3610,
      "護": 3611,
      "變": 3612,
      "讚": 3613,
      "计": 3614,
      "订": 3615,
      "认": 3616,
      "让": 3617,
      "记": 3618,
      "许": 3619,
      "论": 3620,
      "设": 3621,
      "证": 3622,
      "试": 3623,
      "话": 3624,
      "语": 3625,
      "误": 3626,
      "说": 3627,
      "请": 3628,
      "读": 3629,
      "调": 3630,
      "谐": 3631,
      "谢": 3632,
      "谴": 3633,
      "谷": 3634,
      "谿": 3635,
      "豆": 3636,
      "象": 3637,
      "豪": 3638,
      "貍": 3639,
      "貓": 3640,
      "貞": 3641,
      "負": 3642,
      "財": 3643,
      "貢": 3644,
      "貧": 3645,
      "販": 3646,
      "責": 3647,
      "貰": 3648,
      "貴": 3649,
      "買": 3650,
      "費": 3651,
      "貼": 3652,
      "賀": 3653,
      "資": 3654,
      "賊": 3655,
      "賑": 3656,
      "賛": 3657,
      "賞": 3658,
      "賢": 3659,
      "賦": 3660,
      "質": 3661,
      "賴": 3662,
      "購": 3663,
      "责": 3664,
      "贩": 3665,
      "贴": 3666,
      "贵": 3667,
      "费": 3668,
      "赛": 3669,
      "赤": 3670,
      "走": 3671,
      "赵": 3672,
      "起": 3673,
      "超": 3674,
      "越": 3675,
      "趙": 3676,
      "足": 3677,
      "跃": 3678,
      "跋": 3679,
      "跑": 3680,
      "距": 3681,
      "跡": 3682,
      "路": 3683,
      "跳": 3684,
      "踊": 3685,
      "踏": 3686,
      "踒": 3687,
      "踢": 3688,
      "蹦": 3689,
      "躇": 3690,
      "躊": 3691,
      "躍": 3692,
      "身": 3693,
      "躯": 3694,
      "車": 3695,
      "軍": 3696,
      "軒": 3697,
      "転": 3698,
      "軽": 3699,
      "較": 3700,
      "載": 3701,
      "輝": 3702,
      "輩": 3703,
      "轉": 3704,
      "车": 3705,
      "轨": 3706,
      "轩": 3707,
      "转": 3708,
      "辛": 3709,
      "辭": 3710,
      "辰": 3711,
      "農": 3712,
      "辺": 3713,
      "込": 3714,
      "达": 3715,
      "迂": 3716,
      "迄": 3717,
      "过": 3718,
      "迎": 3719,
      "运": 3720,
      "近": 3721,
      "返": 3722,
      "还": 3723,
      "这": 3724,
      "远": 3725,
      "违": 3726,
      "连": 3727,
      "迟": 3728,
      "迤": 3729,
      "迦": 3730,
      "述": 3731,
      "迷": 3732,
      "追": 3733,
      "退": 3734,
      "送": 3735,
      "逃": 3736,
      "逆": 3737,
      "选": 3738,
      "透": 3739,
      "逐": 3740,
      "途": 3741,
      "逗": 3742,
      "這": 3743,
      "通": 3744,
      "速": 3745,
      "造": 3746,
      "連": 3747,
      "逮": 3748,
      "週": 3749,
      "進": 3750,
      "逶": 3751,
      "逸": 3752,
      "遂": 3753,
      "遅": 3754,
      "遇": 3755,
      "遊": 3756,
      "運": 3757,
      "遍": 3758,
      "過": 3759,
      "道": 3760,
      "達": 3761,
      "違": 3762,
      "遠": 3763,
      "遥": 3764,
      "適": 3765,
      "遭": 3766,
      "遮": 3767,
      "遲": 3768,
      "選": 3769,
      "遺": 3770,
      "避": 3771,
      "還": 3772,
      "邊": 3773,
      "邑": 3774,
      "邓": 3775,
      "那": 3776,
      "邦": 3777,
      "邪": 3778,
      "邸": 3779,
      "郊": 3780,
      "郎": 3781,
      "郑": 3782,
      "部": 3783,
      "郭": 3784,
      "都": 3785,
      "鄉": 3786,
      "鄭": 3787,
      "酉": 3788,
      "配": 3789,
      "酒": 3790,
      "酬": 3791,
      "酷": 3792,
      "酸": 3793,
      "醒": 3794,
      "醬": 3795,
      "釈": 3796,
      "釋": 3797,
      "里": 3798,
      "重": 3799,
      "野": 3800,
      "量": 3801,
      "金": 3802,
      "釗": 3803,
      "釣": 3804,
      "鈍": 3805,
      "鈡": 3806,
      "鈴": 3807,
      "鉄": 3808,
      "鉅": 3809,
      "銀": 3810,
      "銘": 3811,
      "鋼": 3812,
      "錄": 3813,
      "錢": 3814,
      "錨": 3815,
      "錫": 3816,
      "錬": 3817,
      "錯": 3818,
      "録": 3819,
      "鎖": 3820,
      "鏞": 3821,
      "鏡": 3822,
      "鑑": 3823,
      "钉": 3824,
      "钟": 3825,
      "钧": 3826,
      "钱": 3827,
      "锅": 3828,
      "锋": 3829,
      "镇": 3830,
      "長": 3831,
      "长": 3832,
      "門": 3833,
      "閉": 3834,
      "開": 3835,
      "閑": 3836,
      "間": 3837,
      "関": 3838,
      "閣": 3839,
      "閩": 3840,
      "閲": 3841,
      "閻": 3842,
      "闘": 3843,
      "關": 3844,
      "门": 3845,
      "问": 3846,
      "闲": 3847,
      "阅": 3848,
      "阱": 3849,
      "防": 3850,
      "阳": 3851,
      "阴": 3852,
      "阶": 3853,
      "阻": 3854,
      "阿": 3855,
      "陀": 3856,
      "际": 3857,
      "陆": 3858,
      "陈": 3859,
      "降": 3860,
      "限": 3861,
      "院": 3862,
      "除": 3863,
      "陥": 3864,
      "险": 3865,
      "陰": 3866,
      "陳": 3867,
      "陵": 3868,
      "陷": 3869,
      "陸": 3870,
      "険": 3871,
      "陽": 3872,
      "隆": 3873,
      "隊": 3874,
      "隋": 3875,
      "階": 3876,
      "随": 3877,
      "隔": 3878,
      "際": 3879,
      "障": 3880,
      "隠": 3881,
      "隣": 3882,
      "險": 3883,
      "隻": 3884,
      "难": 3885,
      "雀": 3886,
      "雁": 3887,
      "雄": 3888,
      "雅": 3889,
      "集": 3890,
      "雇": 3891,
      "雉": 3892,
      "雑": 3893,
      "雞": 3894,
      "離": 3895,
      "難": 3896,
      "雨": 3897,
      "雪": 3898,
      "雲": 3899,
      "零": 3900,
      "雷": 3901,
      "電": 3902,
      "需": 3903,
      "霊": 3904,
      "霜": 3905,
      "霧": 3906,
      "露": 3907,
      "霸": 3908,
      "靈": 3909,
      "青": 3910,
      "静": 3911,
      "非": 3912,
      "靠": 3913,
      "面": 3914,
      "革": 3915,
      "靴": 3916,
      "韓": 3917,
      "音": 3918,
      "韻": 3919,
      "響": 3920,
      "頁": 3921,
      "頃": 3922,
      "項": 3923,
      "順": 3924,
      "須": 3925,
      "預": 3926,
      "頑": 3927,
      "頒": 3928,
      "領": 3929,
      "頬": 3930,
      "頭": 3931,
      "頼": 3932,
      "題": 3933,
      "額": 3934,
      "顏": 3935,
      "顔": 3936,
      "願": 3937,
      "類": 3938,
      "顧": 3939,
      "顯": 3940,
      "页": 3941,
      "顶": 3942,
      "项": 3943,
      "顺": 3944,
      "顾": 3945,
      "频": 3946,
      "题": 3947,
      "颜": 3948,
      "额": 3949,
      "風": 3950,
      "风": 3951,
      "飛": 3952,
      "飞": 3953,
      "食": 3954,
      "飲": 3955,
      "飽": 3956,
      "養": 3957,
      "餐": 3958,
      "餘": 3959,
      "館": 3960,
      "饗": 3961,
      "馆": 3962,
      "馒": 3963,
      "首": 3964,
      "香": 3965,
      "馬": 3966,
      "駅": 3967,
      "駆": 3968,
      "駈": 3969,
      "騎": 3970,
      "騒": 3971,
      "験": 3972,
      "驚": 3973,
      "驪": 3974,
      "马": 3975,
      "驼": 3976,
      "骆": 3977,
      "骨": 3978,
      "體": 3979,
      "高": 3980,
      "髙": 3981,
      "髢": 3982,
      "髪": 3983,
      "髻": 3984,
      "鬯": 3985,
      "鬼": 3986,
      "魂": 3987,
      "魅": 3988,
      "魏": 3989,
      "魔": 3990,
      "魚": 3991,
      "魯": 3992,
      "鮎": 3993,
      "鮑": 3994,
      "鮮": 3995,
      "鱿": 3996,
      "鲍": 3997,
      "鲸": 3998,
      "鳥": 3999,
      "鳩": 4000,
      "鳳": 4001,
      "鳴": 4002,
      "鴉": 4003,
      "鴻": 4004,
      "鶴": 4005,
      "鸞": 4006,
      "鸡": 4007,
      "鸦": 4008,
      "鸽": 4009,
      "鹑": 4010,
      "鹿": 4011,
      "麓": 4012,
      "麗": 4013,
      "麥": 4014,
      "麺": 4015,
      "麻": 4016,
      "麼": 4017,
      "麿": 4018,
      "黃": 4019,
      "黄": 4020,
      "黑": 4021,
      "黒": 4022,
      "默": 4023,
      "黙": 4024,
      "點": 4025,
      "鼓": 4026,
      "鼠": 4027,
      "鼻": 4028,
      "齋": 4029,
      "齒": 4030,
      "齡": 4031,
      "齢": 4032,
      "龃": 4033,
      "龄": 4034,
      "龉": 4035,
      "龍": 4036,
      "龔": 4037,
      "龙": 4038,
      "龜": 4039,
      "ꜣ": 4040,
      "ꜥ": 4041,
      "꞉": 4042,
      "ꠁ": 4043,
      "ꠃ": 4044,
      "ꠅ": 4045,
      "꠆": 4046,
      "ꠉ": 4047,
      "ꠌ": 4048,
      "ꠎ": 4049,
      "ꠑ": 4050,
      "ꠖ": 4051,
      "ꠘ": 4052,
      "ꠡ": 4053,
      "ꠤ": 4054,
      "ꠥ": 4055,
      "ꠦ": 4056,
      "ꦁ": 4057,
      "ꦂ": 4058,
      "ꦈ": 4059,
      "ꦏ": 4060,
      "ꦔ": 4061,
      "ꦛ": 4062,
      "ꦝ": 4063,
      "ꦟ": 4064,
      "ꦠ": 4065,
      "ꦢ": 4066,
      "ꦤ": 4067,
      "ꦥ": 4068,
      "ꦧ": 4069,
      "ꦩ": 4070,
      "ꦫ": 4071,
      "ꦭ": 4072,
      "ꦮ": 4073,
      "ꦱ": 4074,
      "ꦲ": 4075,
      "ꦴ": 4076,
      "ꦶ": 4077,
      "ꦸ": 4078,
      "ꦺ": 4079,
      "ꦼ": 4080,
      "꧀": 4081,
      "꧉": 4082,
      "꧋": 4083,
      "ꮎ": 4084,
      "ꮟ": 4085,
      "ꮤ": 4086,
      "가": 4087,
      "각": 4088,
      "간": 4089,
      "갈": 4090,
      "감": 4091,
      "갑": 4092,
      "갓": 4093,
      "갔": 4094,
      "강": 4095,
      "갖": 4096,
      "같": 4097,
      "개": 4098,
      "걔": 4099,
      "거": 4100,
      "걱": 4101,
      "건": 4102,
      "걸": 4103,
      "검": 4104,
      "겁": 4105,
      "것": 4106,
      "게": 4107,
      "겠": 4108,
      "겨": 4109,
      "격": 4110,
      "견": 4111,
      "결": 4112,
      "겹": 4113,
      "겼": 4114,
      "경": 4115,
      "계": 4116,
      "고": 4117,
      "곡": 4118,
      "곤": 4119,
      "곧": 4120,
      "골": 4121,
      "곰": 4122,
      "곱": 4123,
      "공": 4124,
      "과": 4125,
      "곽": 4126,
      "관": 4127,
      "광": 4128,
      "괘": 4129,
      "괴": 4130,
      "굉": 4131,
      "교": 4132,
      "구": 4133,
      "국": 4134,
      "군": 4135,
      "굴": 4136,
      "궁": 4137,
      "권": 4138,
      "귀": 4139,
      "규": 4140,
      "균": 4141,
      "그": 4142,
      "극": 4143,
      "근": 4144,
      "글": 4145,
      "금": 4146,
      "급": 4147,
      "긋": 4148,
      "기": 4149,
      "긴": 4150,
      "길": 4151,
      "김": 4152,
      "깃": 4153,
      "까": 4154,
      "깎": 4155,
      "깐": 4156,
      "깔": 4157,
      "깜": 4158,
      "깨": 4159,
      "꺼": 4160,
      "껀": 4161,
      "껄": 4162,
      "께": 4163,
      "꼬": 4164,
      "꼭": 4165,
      "꼼": 4166,
      "꽃": 4167,
      "꾀": 4168,
      "꾸": 4169,
      "꾼": 4170,
      "꿀": 4171,
      "꿔": 4172,
      "끄": 4173,
      "끈": 4174,
      "끌": 4175,
      "끔": 4176,
      "끝": 4177,
      "끼": 4178,
      "낀": 4179,
      "낄": 4180,
      "나": 4181,
      "낙": 4182,
      "낚": 4183,
      "난": 4184,
      "날": 4185,
      "남": 4186,
      "났": 4187,
      "낳": 4188,
      "내": 4189,
      "낸": 4190,
      "낼": 4191,
      "냈": 4192,
      "냐": 4193,
      "냥": 4194,
      "너": 4195,
      "넉": 4196,
      "넌": 4197,
      "널": 4198,
      "넓": 4199,
      "넘": 4200,
      "넛": 4201,
      "넝": 4202,
      "넣": 4203,
      "네": 4204,
      "넥": 4205,
      "넷": 4206,
      "녀": 4207,
      "년": 4208,
      "녔": 4209,
      "녕": 4210,
      "노": 4211,
      "녹": 4212,
      "놈": 4213,
      "농": 4214,
      "높": 4215,
      "놓": 4216,
      "놔": 4217,
      "누": 4218,
      "눈": 4219,
      "뉴": 4220,
      "느": 4221,
      "늑": 4222,
      "는": 4223,
      "늘": 4224,
      "능": 4225,
      "니": 4226,
      "닌": 4227,
      "닐": 4228,
      "님": 4229,
      "닛": 4230,
      "다": 4231,
      "단": 4232,
      "달": 4233,
      "담": 4234,
      "닷": 4235,
      "당": 4236,
      "대": 4237,
      "댁": 4238,
      "댄": 4239,
      "더": 4240,
      "덕": 4241,
      "던": 4242,
      "덜": 4243,
      "덤": 4244,
      "데": 4245,
      "덴": 4246,
      "뎌": 4247,
      "도": 4248,
      "독": 4249,
      "돈": 4250,
      "돌": 4251,
      "돕": 4252,
      "동": 4253,
      "돼": 4254,
      "됐": 4255,
      "되": 4256,
      "된": 4257,
      "될": 4258,
      "됨": 4259,
      "두": 4260,
      "둔": 4261,
      "둘": 4262,
      "둬": 4263,
      "뒤": 4264,
      "뒷": 4265,
      "드": 4266,
      "득": 4267,
      "든": 4268,
      "듣": 4269,
      "들": 4270,
      "듯": 4271,
      "등": 4272,
      "디": 4273,
      "딘": 4274,
      "딨": 4275,
      "딩": 4276,
      "따": 4277,
      "딸": 4278,
      "때": 4279,
      "땐": 4280,
      "떠": 4281,
      "떤": 4282,
      "떨": 4283,
      "떳": 4284,
      "떻": 4285,
      "또": 4286,
      "똑": 4287,
      "뚝": 4288,
      "뚫": 4289,
      "뚱": 4290,
      "뛰": 4291,
      "뜨": 4292,
      "뜻": 4293,
      "라": 4294,
      "락": 4295,
      "란": 4296,
      "랄": 4297,
      "람": 4298,
      "랍": 4299,
      "랐": 4300,
      "랑": 4301,
      "래": 4302,
      "랙": 4303,
      "랜": 4304,
      "램": 4305,
      "랩": 4306,
      "랬": 4307,
      "략": 4308,
      "러": 4309,
      "럭": 4310,
      "런": 4311,
      "럼": 4312,
      "럽": 4313,
      "렀": 4314,
      "렁": 4315,
      "렇": 4316,
      "레": 4317,
      "렉": 4318,
      "려": 4319,
      "력": 4320,
      "련": 4321,
      "렬": 4322,
      "렸": 4323,
      "령": 4324,
      "례": 4325,
      "로": 4326,
      "록": 4327,
      "론": 4328,
      "롤": 4329,
      "롭": 4330,
      "롯": 4331,
      "료": 4332,
      "룡": 4333,
      "루": 4334,
      "룩": 4335,
      "룰": 4336,
      "류": 4337,
      "률": 4338,
      "륭": 4339,
      "르": 4340,
      "른": 4341,
      "를": 4342,
      "름": 4343,
      "릅": 4344,
      "릉": 4345,
      "리": 4346,
      "린": 4347,
      "릴": 4348,
      "림": 4349,
      "립": 4350,
      "링": 4351,
      "마": 4352,
      "막": 4353,
      "만": 4354,
      "많": 4355,
      "말": 4356,
      "맘": 4357,
      "맙": 4358,
      "망": 4359,
      "맞": 4360,
      "맡": 4361,
      "매": 4362,
      "맺": 4363,
      "머": 4364,
      "먹": 4365,
      "먼": 4366,
      "멀": 4367,
      "멋": 4368,
      "멍": 4369,
      "메": 4370,
      "며": 4371,
      "면": 4372,
      "멸": 4373,
      "명": 4374,
      "몇": 4375,
      "모": 4376,
      "목": 4377,
      "몬": 4378,
      "몰": 4379,
      "못": 4380,
      "몽": 4381,
      "무": 4382,
      "문": 4383,
      "묻": 4384,
      "물": 4385,
      "뭐": 4386,
      "뭘": 4387,
      "뮤": 4388,
      "미": 4389,
      "민": 4390,
      "믿": 4391,
      "밀": 4392,
      "밍": 4393,
      "및": 4394,
      "바": 4395,
      "박": 4396,
      "밖": 4397,
      "반": 4398,
      "받": 4399,
      "발": 4400,
      "밝": 4401,
      "밥": 4402,
      "방": 4403,
      "배": 4404,
      "백": 4405,
      "버": 4406,
      "벅": 4407,
      "번": 4408,
      "벌": 4409,
      "범": 4410,
      "법": 4411,
      "벗": 4412,
      "베": 4413,
      "벤": 4414,
      "벨": 4415,
      "벽": 4416,
      "변": 4417,
      "별": 4418,
      "병": 4419,
      "보": 4420,
      "복": 4421,
      "본": 4422,
      "볼": 4423,
      "봉": 4424,
      "봐": 4425,
      "봣": 4426,
      "봤": 4427,
      "뵙": 4428,
      "부": 4429,
      "북": 4430,
      "분": 4431,
      "불": 4432,
      "붉": 4433,
      "붙": 4434,
      "뷰": 4435,
      "브": 4436,
      "블": 4437,
      "비": 4438,
      "빈": 4439,
      "빌": 4440,
      "빙": 4441,
      "빚": 4442,
      "빛": 4443,
      "빠": 4444,
      "빨": 4445,
      "빵": 4446,
      "뻣": 4447,
      "뻥": 4448,
      "뽀": 4449,
      "뽑": 4450,
      "뿔": 4451,
      "쁘": 4452,
      "쁜": 4453,
      "삐": 4454,
      "사": 4455,
      "삭": 4456,
      "산": 4457,
      "살": 4458,
      "삶": 4459,
      "삼": 4460,
      "상": 4461,
      "새": 4462,
      "생": 4463,
      "서": 4464,
      "석": 4465,
      "선": 4466,
      "설": 4467,
      "섬": 4468,
      "섭": 4469,
      "섰": 4470,
      "성": 4471,
      "세": 4472,
      "센": 4473,
      "셈": 4474,
      "션": 4475,
      "셧": 4476,
      "셨": 4477,
      "소": 4478,
      "속": 4479,
      "손": 4480,
      "솔": 4481,
      "송": 4482,
      "쇠": 4483,
      "쇼": 4484,
      "수": 4485,
      "숙": 4486,
      "순": 4487,
      "술": 4488,
      "숨": 4489,
      "쉬": 4490,
      "쉽": 4491,
      "쉿": 4492,
      "슈": 4493,
      "스": 4494,
      "슨": 4495,
      "슬": 4496,
      "슴": 4497,
      "습": 4498,
      "슷": 4499,
      "승": 4500,
      "시": 4501,
      "식": 4502,
      "신": 4503,
      "실": 4504,
      "싫": 4505,
      "심": 4506,
      "십": 4507,
      "싶": 4508,
      "싸": 4509,
      "싼": 4510,
      "쌈": 4511,
      "쌍": 4512,
      "써": 4513,
      "썩": 4514,
      "썼": 4515,
      "쓰": 4516,
      "쓴": 4517,
      "씨": 4518,
      "씩": 4519,
      "씬": 4520,
      "씸": 4521,
      "씹": 4522,
      "아": 4523,
      "악": 4524,
      "안": 4525,
      "않": 4526,
      "알": 4527,
      "암": 4528,
      "압": 4529,
      "았": 4530,
      "앞": 4531,
      "애": 4532,
      "액": 4533,
      "앨": 4534,
      "야": 4535,
      "약": 4536,
      "양": 4537,
      "얘": 4538,
      "어": 4539,
      "억": 4540,
      "언": 4541,
      "얻": 4542,
      "얼": 4543,
      "엄": 4544,
      "업": 4545,
      "없": 4546,
      "엇": 4547,
      "었": 4548,
      "엉": 4549,
      "에": 4550,
      "엑": 4551,
      "엔": 4552,
      "엘": 4553,
      "여": 4554,
      "역": 4555,
      "연": 4556,
      "열": 4557,
      "염": 4558,
      "였": 4559,
      "영": 4560,
      "예": 4561,
      "오": 4562,
      "옥": 4563,
      "온": 4564,
      "올": 4565,
      "옮": 4566,
      "옷": 4567,
      "옹": 4568,
      "와": 4569,
      "완": 4570,
      "왔": 4571,
      "왕": 4572,
      "왜": 4573,
      "외": 4574,
      "요": 4575,
      "욕": 4576,
      "용": 4577,
      "우": 4578,
      "욱": 4579,
      "운": 4580,
      "울": 4581,
      "움": 4582,
      "웁": 4583,
      "웃": 4584,
      "워": 4585,
      "원": 4586,
      "월": 4587,
      "웟": 4588,
      "웠": 4589,
      "웬": 4590,
      "윁": 4591,
      "위": 4592,
      "윙": 4593,
      "유": 4594,
      "육": 4595,
      "윤": 4596,
      "율": 4597,
      "으": 4598,
      "은": 4599,
      "을": 4600,
      "음": 4601,
      "읍": 4602,
      "응": 4603,
      "의": 4604,
      "이": 4605,
      "익": 4606,
      "인": 4607,
      "일": 4608,
      "임": 4609,
      "입": 4610,
      "잇": 4611,
      "있": 4612,
      "잉": 4613,
      "잊": 4614,
      "자": 4615,
      "작": 4616,
      "잔": 4617,
      "잘": 4618,
      "잠": 4619,
      "잡": 4620,
      "장": 4621,
      "재": 4622,
      "저": 4623,
      "적": 4624,
      "전": 4625,
      "절": 4626,
      "젊": 4627,
      "점": 4628,
      "접": 4629,
      "정": 4630,
      "젖": 4631,
      "제": 4632,
      "젝": 4633,
      "젤": 4634,
      "져": 4635,
      "졌": 4636,
      "조": 4637,
      "족": 4638,
      "존": 4639,
      "좀": 4640,
      "종": 4641,
      "좆": 4642,
      "좋": 4643,
      "죄": 4644,
      "죠": 4645,
      "주": 4646,
      "죽": 4647,
      "준": 4648,
      "줄": 4649,
      "줌": 4650,
      "중": 4651,
      "줘": 4652,
      "줬": 4653,
      "쥐": 4654,
      "즈": 4655,
      "즉": 4656,
      "즌": 4657,
      "즘": 4658,
      "증": 4659,
      "지": 4660,
      "직": 4661,
      "진": 4662,
      "질": 4663,
      "짐": 4664,
      "집": 4665,
      "짓": 4666,
      "징": 4667,
      "짜": 4668,
      "짝": 4669,
      "짧": 4670,
      "째": 4671,
      "쨌": 4672,
      "쨍": 4673,
      "쪽": 4674,
      "쫓": 4675,
      "쯧": 4676,
      "찌": 4677,
      "찍": 4678,
      "찔": 4679,
      "차": 4680,
      "착": 4681,
      "찬": 4682,
      "찰": 4683,
      "참": 4684,
      "창": 4685,
      "찾": 4686,
      "채": 4687,
      "책": 4688,
      "챔": 4689,
      "챙": 4690,
      "처": 4691,
      "천": 4692,
      "철": 4693,
      "첩": 4694,
      "첫": 4695,
      "청": 4696,
      "체": 4697,
      "쳐": 4698,
      "쳤": 4699,
      "초": 4700,
      "총": 4701,
      "최": 4702,
      "추": 4703,
      "축": 4704,
      "춘": 4705,
      "출": 4706,
      "충": 4707,
      "춰": 4708,
      "취": 4709,
      "츠": 4710,
      "측": 4711,
      "층": 4712,
      "치": 4713,
      "칙": 4714,
      "친": 4715,
      "칠": 4716,
      "카": 4717,
      "캐": 4718,
      "캡": 4719,
      "커": 4720,
      "컨": 4721,
      "컬": 4722,
      "컴": 4723,
      "케": 4724,
      "켜": 4725,
      "켰": 4726,
      "코": 4727,
      "콘": 4728,
      "콜": 4729,
      "콧": 4730,
      "콩": 4731,
      "콸": 4732,
      "쿨": 4733,
      "쿵": 4734,
      "퀘": 4735,
      "퀴": 4736,
      "크": 4737,
      "큰": 4738,
      "클": 4739,
      "큼": 4740,
      "키": 4741,
      "킨": 4742,
      "킬": 4743,
      "킴": 4744,
      "킹": 4745,
      "타": 4746,
      "탄": 4747,
      "탈": 4748,
      "탐": 4749,
      "탑": 4750,
      "탕": 4751,
      "태": 4752,
      "택": 4753,
      "터": 4754,
      "턴": 4755,
      "텀": 4756,
      "테": 4757,
      "텐": 4758,
      "텔": 4759,
      "템": 4760,
      "토": 4761,
      "통": 4762,
      "퇴": 4763,
      "투": 4764,
      "튀": 4765,
      "트": 4766,
      "특": 4767,
      "튼": 4768,
      "틀": 4769,
      "티": 4770,
      "틴": 4771,
      "팀": 4772,
      "팅": 4773,
      "파": 4774,
      "판": 4775,
      "팔": 4776,
      "패": 4777,
      "팩": 4778,
      "팬": 4779,
      "퍼": 4780,
      "페": 4781,
      "편": 4782,
      "평": 4783,
      "폐": 4784,
      "포": 4785,
      "폭": 4786,
      "표": 4787,
      "푸": 4788,
      "풀": 4789,
      "품": 4790,
      "프": 4791,
      "픈": 4792,
      "플": 4793,
      "픔": 4794,
      "피": 4795,
      "픽": 4796,
      "필": 4797,
      "하": 4798,
      "학": 4799,
      "한": 4800,
      "할": 4801,
      "함": 4802,
      "합": 4803,
      "항": 4804,
      "해": 4805,
      "햄": 4806,
      "햇": 4807,
      "했": 4808,
      "행": 4809,
      "향": 4810,
      "허": 4811,
      "험": 4812,
      "헝": 4813,
      "헤": 4814,
      "혀": 4815,
      "현": 4816,
      "혐": 4817,
      "협": 4818,
      "혔": 4819,
      "형": 4820,
      "혜": 4821,
      "호": 4822,
      "혹": 4823,
      "혼": 4824,
      "홀": 4825,
      "홍": 4826,
      "화": 4827,
      "확": 4828,
      "환": 4829,
      "활": 4830,
      "황": 4831,
      "회": 4832,
      "획": 4833,
      "효": 4834,
      "후": 4835,
      "훈": 4836,
      "훨": 4837,
      "훼": 4838,
      "휘": 4839,
      "휭": 4840,
      "휴": 4841,
      "흑": 4842,
      "흔": 4843,
      "흘": 4844,
      "흥": 4845,
      "희": 4846,
      "히": 4847,
      "힌": 4848,
      "힐": 4849,
      "힘": 4850,
      "힙": 4851,
      "": 4852,
      "": 4853,
      "": 4854,
      "": 4855,
      "": 4856,
      "": 4857,
      "": 4858,
      "": 4859,
      "": 4860,
      "": 4861,
      "": 4862,
      "": 4863,
      "": 4864,
      "": 4865,
      "": 4866,
      "": 4867,
      "": 4868,
      "": 4869,
      "": 4870,
      "": 4871,
      "": 4872,
      "": 4873,
      "": 4874,
      "": 4875,
      "": 4876,
      "": 4877,
      "": 4878,
      "": 4879,
      "": 4880,
      "": 4881,
      "": 4882,
      "": 4883,
      "": 4884,
      "": 4885,
      "": 4886,
      "": 4887,
      "": 4888,
      "": 4889,
      "": 4890,
      "": 4891,
      "": 4892,
      "": 4893,
      "": 4894,
      "": 4895,
      "": 4896,
      "": 4897,
      "": 4898,
      "": 4899,
      "": 4900,
      "": 4901,
      "": 4902,
      "": 4903,
      "": 4904,
      "": 4905,
      "": 4906,
      "": 4907,
      "": 4908,
      "": 4909,
      "": 4910,
      "": 4911,
      "": 4912,
      "": 4913,
      "": 4914,
      "": 4915,
      "": 4916,
      "": 4917,
      "": 4918,
      "": 4919,
      "": 4920,
      "": 4921,
      "": 4922,
      "": 4923,
      "": 4924,
      "": 4925,
      "": 4926,
      "": 4927,
      "": 4928,
      "": 4929,
      "": 4930,
      "": 4931,
      "": 4932,
      "": 4933,
      "": 4934,
      "": 4935,
      "": 4936,
      "": 4937,
      "︎": 4938,
      "️": 4939,
      "﻿": 4940,
      "￼": 4941,
      "�": 4942,
      "𐑓": 4943,
      "𐑕": 4944,
      "𐑖": 4945,
      "𐑝": 4946,
      "𐑟": 4947,
      "𐑨": 4948,
      "𐑯": 4949,
      "𐑰": 4950,
      "𐑱": 4951,
      "𐑹": 4952,
      "𐑾": 4953,
      "𐩣": 4954,
      "𐩬": 4955,
      "𐩺": 4956,
      "𓃀": 4957,
      "𓅃": 4958,
      "𓆑": 4959,
      "𓇳": 4960,
      "𓇼": 4961,
      "𓈖": 4962,
      "𓊀": 4963,
      "𓋴": 4964,
      "𓏥": 4965,
      "𝆩": 4966,
      "🆕": 4967,
      "🇦": 4968,
      "🇧": 4969,
      "🇨": 4970,
      "🇩": 4971,
      "🇪": 4972,
      "🇫": 4973,
      "🇮": 4974,
      "🇰": 4975,
      "🇱": 4976,
      "🇲": 4977,
      "🇳": 4978,
      "🇴": 4979,
      "🇵": 4980,
      "🇷": 4981,
      "🇸": 4982,
      "🇹": 4983,
      "🇺": 4984,
      "🌈": 4985,
      "🌊": 4986,
      "🌍": 4987,
      "🌎": 4988,
      "🌐": 4989,
      "🌞": 4990,
      "🌟": 4991,
      "🌧": 4992,
      "🌨": 4993,
      "🌴": 4994,
      "🌹": 4995,
      "🌻": 4996,
      "🍁": 4997,
      "🍅": 4998,
      "🍉": 4999,
      "🍑": 5000,
      "🍕": 5001,
      "🍖": 5002,
      "🍗": 5003,
      "🍟": 5004,
      "🍤": 5005,
      "🍳": 5006,
      "🍴": 5007,
      "🍺": 5008,
      "🍻": 5009,
      "🎁": 5010,
      "🎃": 5011,
      "🎄": 5012,
      "🎅": 5013,
      "🎈": 5014,
      "🎉": 5015,
      "🎊": 5016,
      "🎤": 5017,
      "🎥": 5018,
      "🎬": 5019,
      "🎶": 5020,
      "🎷": 5021,
      "🎺": 5022,
      "🏀": 5023,
      "🏁": 5024,
      "🏃": 5025,
      "🏆": 5026,
      "🏈": 5027,
      "🏊": 5028,
      "🏌": 5029,
      "🏍": 5030,
      "🏏": 5031,
      "🏖": 5032,
      "🏫": 5033,
      "🏳": 5034,
      "🏻": 5035,
      "🏼": 5036,
      "🏽": 5037,
      "🏾": 5038,
      "🏿": 5039,
      "🐐": 5040,
      "🐒": 5041,
      "🐕": 5042,
      "🐘": 5043,
      "🐙": 5044,
      "🐝": 5045,
      "🐧": 5046,
      "🐱": 5047,
      "🐳": 5048,
      "🐴": 5049,
      "🐶": 5050,
      "🐸": 5051,
      "🐺": 5052,
      "🐻": 5053,
      "🐼": 5054,
      "👀": 5055,
      "👇": 5056,
      "👈": 5057,
      "👉": 5058,
      "👊": 5059,
      "👋": 5060,
      "👌": 5061,
      "👍": 5062,
      "👎": 5063,
      "👏": 5064,
      "👑": 5065,
      "👓": 5066,
      "👟": 5067,
      "👨": 5068,
      "👩": 5069,
      "👫": 5070,
      "👬": 5071,
      "👮": 5072,
      "👯": 5073,
      "👲": 5074,
      "👳": 5075,
      "👶": 5076,
      "👻": 5077,
      "👽": 5078,
      "👾": 5079,
      "💀": 5080,
      "💁": 5081,
      "💃": 5082,
      "💄": 5083,
      "💅": 5084,
      "💆": 5085,
      "💉": 5086,
      "💋": 5087,
      "💌": 5088,
      "💍": 5089,
      "💔": 5090,
      "💖": 5091,
      "💙": 5092,
      "💚": 5093,
      "💛": 5094,
      "💜": 5095,
      "💡": 5096,
      "💥": 5097,
      "💩": 5098,
      "💪": 5099,
      "💯": 5100,
      "💰": 5101,
      "💵": 5102,
      "💻": 5103,
      "💾": 5104,
      "📃": 5105,
      "📊": 5106,
      "📍": 5107,
      "📏": 5108,
      "📓": 5109,
      "📖": 5110,
      "📝": 5111,
      "📣": 5112,
      "📱": 5113,
      "📷": 5114,
      "📸": 5115,
      "📼": 5116,
      "📽": 5117,
      "🔃": 5118,
      "🔊": 5119,
      "🔍": 5120,
      "🔎": 5121,
      "🔑": 5122,
      "🔓": 5123,
      "🔥": 5124,
      "🔫": 5125,
      "🔬": 5126,
      "🔮": 5127,
      "🔴": 5128,
      "🔵": 5129,
      "🔹": 5130,
      "🔺": 5131,
      "🔽": 5132,
      "🕇": 5133,
      "🕊": 5134,
      "🕴": 5135,
      "🕺": 5136,
      "🖖": 5137,
      "🖤": 5138,
      "🗽": 5139,
      "😀": 5140,
      "😁": 5141,
      "😂": 5142,
      "😃": 5143,
      "😄": 5144,
      "😅": 5145,
      "😆": 5146,
      "😇": 5147,
      "😈": 5148,
      "😉": 5149,
      "😊": 5150,
      "😌": 5151,
      "😍": 5152,
      "😎": 5153,
      "😏": 5154,
      "😐": 5155,
      "😑": 5156,
      "😒": 5157,
      "😔": 5158,
      "😕": 5159,
      "😖": 5160,
      "😘": 5161,
      "😛": 5162,
      "😜": 5163,
      "😟": 5164,
      "😡": 5165,
      "😢": 5166,
      "😣": 5167,
      "😤": 5168,
      "😥": 5169,
      "😦": 5170,
      "😩": 5171,
      "😪": 5172,
      "😬": 5173,
      "😭": 5174,
      "😮": 5175,
      "😯": 5176,
      "😱": 5177,
      "😲": 5178,
      "😳": 5179,
      "😵": 5180,
      "😷": 5181,
      "😸": 5182,
      "😹": 5183,
      "😺": 5184,
      "😻": 5185,
      "😼": 5186,
      "😽": 5187,
      "😾": 5188,
      "😿": 5189,
      "🙀": 5190,
      "🙁": 5191,
      "🙂": 5192,
      "🙃": 5193,
      "🙄": 5194,
      "🙇": 5195,
      "🙈": 5196,
      "🙉": 5197,
      "🙊": 5198,
      "🙋": 5199,
      "🙌": 5200,
      "🙏": 5201,
      "🙰": 5202,
      "🙱": 5203,
      "🙲": 5204,
      "🙳": 5205,
      "🙴": 5206,
      "🙵": 5207,
      "🚀": 5208,
      "🚂": 5209,
      "🚃": 5210,
      "🚗": 5211,
      "🚝": 5212,
      "🚨": 5213,
      "🚴": 5214,
      "🛀": 5215,
      "🛁": 5216,
      "🛳": 5217,
      "🤓": 5218,
      "🤔": 5219,
      "🤖": 5220,
      "🤗": 5221,
      "🤘": 5222,
      "🤙": 5223,
      "🤢": 5224,
      "🤦": 5225,
      "🤫": 5226,
      "🤷": 5227,
      "🥁": 5228,
      "🥔": 5229,
      "🥖": 5230,
      "🥗": 5231,
      "🥛": 5232,
      "🥫": 5233,
      "🥶": 5234,
      "🦁": 5235,
      "🦆": 5236,
      "🦖": 5237,
      "🧐": 5238,
      "𥢂": 5239,
      "𥢃": 5240,
      "𥢄": 5241,
      "𥢈": 5242,
      "𥢊": 5243,
      "𥢍": 5244,
      "𥢎": 5245,
      "𥢏": 5246,
      "𥤐": 5247,
      "𥤚": 5248,
      "𥤟": 5249,
      "𥤦": 5250,
      "𥤪": 5251,
      "𥤫": 5252,
      "𥤯": 5253,
      "󾌵": 5254,
      "##h": 5255,
      "##a": 5256,
      "##n": 5257,
      "##g": 5258,
      "##e": 5259,
      "##r": 5260,
      "##o": 5261,
      "##m": 5262,
      "##s": 5263,
      "##c": 5264,
      "##j": 5265,
      "##i": 5266,
      "##t": 5267,
      "##v": 5268,
      "##l": 5269,
      "##x": 5270,
      "##d": 5271,
      "##4": 5272,
      "##k": 5273,
      "##p": 5274,
      "##_": 5275,
      "##5": 5276,
      "##0": 5277,
      "##u": 5278,
      "##b": 5279,
      "##w": 5280,
      "##y": 5281,
      "##ø": 5282,
      "##2": 5283,
      "##6": 5284,
      "##1": 5285,
      "##9": 5286,
      "##3": 5287,
      "##ä": 5288,
      "##í": 5289,
      "##z": 5290,
      "##q": 5291,
      "##7": 5292,
      "##à": 5293,
      "##ʼ": 5294,
      "##f": 5295,
      "##8": 5296,
      "##ñ": 5297,
      "##é": 5298,
      "##ร": 5299,
      "##ิ": 5300,
      "##ช": 5301,
      "##ф": 5302,
      "##е": 5303,
      "##к": 5304,
      "##т": 5305,
      "##ī": 5306,
      "##ă": 5307,
      "##ţ": 5308,
      "##ş": 5309,
      "##도": 5310,
      "##ž": 5311,
      "##年": 5312,
      "##月": 5313,
      "##æ": 5314,
      "##а": 5315,
      "##в": 5316,
      "##л": 5317,
      "##у": 5318,
      "##х": 5319,
      "##р": 5320,
      "##н": 5321,
      "##ā": 5322,
      "##я": 5323,
      "##ö": 5324,
      "##ó": 5325,
      "##=": 5326,
      "##і": 5327,
      "##ν": 5328,
      "##δ": 5329,
      "##ρ": 5330,
      "##ε": 5331,
      "##ς": 5332,
      "##á": 5333,
      "##с": 5334,
      "##м": 5335,
      "##о": 5336,
      "##春": 5337,
      "##и": 5338,
      "##\"": 5339,
      "##,": 5340,
      "##ë": 5341,
      "##č": 5342,
      "##ู": 5343,
      "##ล": 5344,
      "##่": 5345,
      "##ç": 5346,
      "##.": 5347,
      "##}": 5348,
      "##è": 5349,
      "##α": 5350,
      "##프": 5351,
      "##”": 5352,
      "##(": 5353,
      "##ü": 5354,
      "##ы": 5355,
      "##п": 5356,
      "##分": 5357,
      "##た": 5358,
      "##ち": 5359,
      "##の": 5360,
      "##服": 5361,
      "##を": 5362,
      "##残": 5363,
      "##り": 5364,
      "##者": 5365,
      "##に": 5366,
      "##譲": 5367,
      "##っ": 5368,
      "##ら": 5369,
      "##し": 5370,
      "##い": 5371,
      "##こ": 5372,
      "##と": 5373,
      "##示": 5374,
      "##て": 5375,
      "##ث": 5376,
      "##ر": 5377,
      "##ي": 5378,
      "##ا": 5379,
      "##ء": 5380,
      "##ò": 5381,
      "##→": 5382,
      "##時": 5383,
      "##ソ": 5384,
      "##連": 5385,
      "##捜": 5386,
      "##査": 5387,
      "##当": 5388,
      "##局": 5389,
      "##は": 5390,
      "##з": 5391,
      "##>": 5392,
      "##某": 5393,
      "##-": 5394,
      "##`": 5395,
      "##ί": 5396,
      "##τ": 5397,
      "##ο": 5398,
      "##:": 5399,
      "##д": 5400,
      "##ю": 5401,
      "##щ": 5402,
      "##)": 5403,
      "##;": 5404,
      "##ょ": 5405,
      "##う": 5406,
      "##も": 5407,
      "##な": 5408,
      "##作": 5409,
      "##品": 5410,
      "##が": 5411,
      "##増": 5412,
      "##え": 5413,
      "##く": 5414,
      "##س": 5415,
      "##ت": 5416,
      "##م": 5417,
      "##^": 5418,
      "##\\": 5419,
      "##+": 5420,
      "##~": 5421,
      "##이": 5422,
      "##다": 5423,
      "##ú": 5424,
      "##!": 5425,
      "##{": 5426,
      "##ブ": 5427,
      "##ダ": 5428,
      "##ク": 5429,
      "##シ": 5430,
      "##ョ": 5431,
      "##ン": 5432,
      "##す": 5433,
      "##る": 5434,
      "##*": 5435,
      "##λ": 5436,
      "##σ": 5437,
      "##ό": 5438,
      "##온": 5439,
      "##더": 5440,
      "##라": 5441,
      "##/": 5442,
      "##θ": 5443,
      "##َ": 5444,
      "##ل": 5445,
      "##ْ": 5446,
      "##ق": 5447,
      "##ى": 5448,
      "##ी": 5449,
      "##⊕": 5450,
      "##г": 5451,
      "##́": 5452,
      "##й": 5453,
      "##|": 5454,
      "##’": 5455,
      "##然": 5456,
      "##現": 5457,
      "##象": 5458,
      "##れ": 5459,
      "##ǔ": 5460,
      "##ː": 5461,
      "##용": 5462,
      "##하": 5463,
      "##면": 5464,
      "##서": 5465,
      "##ʿ": 5466,
      "##었": 5467,
      "##는": 5468,
      "##데": 5469,
      "##기": 5470,
      "##지": 5471,
      "##б": 5472,
      "##창": 5473,
      "##랑": 5474,
      "##ə": 5475,
      "##ˈ": 5476,
      "##͡": 5477,
      "##?": 5478,
      "##â": 5479,
      "##ı": 5480,
      "##ロ": 5481,
      "##ノ": 5482,
      "##형": 5483,
      "##혀": 5484,
      "##졌": 5485,
      "##닛": 5486,
      "##수": 5487,
      "##가": 5488,
      "##ж": 5489,
      "##ь": 5490,
      "##“": 5491,
      "##‘": 5492,
      "##ș": 5493,
      "##ч": 5494,
      "##व": 5495,
      "##ा": 5496,
      "##ल": 5497,
      "##̶": 5498,
      "##̲": 5499,
      "##̥": 5500,
      "##̅": 5501,
      "##̊": 5502,
      "##ど": 5503,
      "##や": 5504,
      "##最": 5505,
      "##初": 5506,
      "##亡": 5507,
      "##メ": 5508,
      "##バ": 5509,
      "##ー": 5510,
      "##ì": 5511,
      "##[": 5512,
      "##来": 5513,
      "##ャ": 5514,
      "##ツ": 5515,
      "##様": 5516,
      "##々": 5517,
      "##で": 5518,
      "##ง": 5519,
      "##ก": 5520,
      "##ว": 5521,
      "##า": 5522,
      "##น": 5523,
      "##ั": 5524,
      "##้": 5525,
      "##ต": 5526,
      "##อ": 5527,
      "##ส": 5528,
      "##ท": 5529,
      "##ํ": 5530,
      "##ใ": 5531,
      "##ห": 5532,
      "##เ": 5533,
      "##ข": 5534,
      "##ย": 5535,
      "##ป": 5536,
      "##็": 5537,
      "##ผ": 5538,
      "##口": 5539,
      "##å": 5540,
      "##ظ": 5541,
      "##ه": 5542,
      "##و": 5543,
      "##起": 5544,
      "##き": 5545,
      "##信": 5546,
      "##じ": 5547,
      "##谐": 5548,
      "##ô": 5549,
      "##광": 5550,
      "##京": 5551,
      "##都": 5552,
      "##千": 5553,
      "##代": 5554,
      "##田": 5555,
      "##区": 5556,
      "##丸": 5557,
      "##内": 5558,
      "##ц": 5559,
      "##의": 5560,
      "##사": 5561,
      "##터": 5562,
      "##넷": 5563,
      "##]": 5564,
      "##'": 5565,
      "##을": 5566,
      "##리": 5567,
      "##치": 5568,
      "##커": 5569,
      "##를": 5570,
      "##ز": 5571,
      "##š": 5572,
      "##ć": 5573,
      "##ț": 5574,
      "##ִ": 5575,
      "##צ": 5576,
      "##ְ": 5577,
      "##ר": 5578,
      "##ַ": 5579,
      "##י": 5580,
      "##ם": 5581,
      "##ę": 5582,
      "##ł": 5583,
      "##—": 5584,
      "##–": 5585,
      "##ğ": 5586,
      "##配": 5587,
      "##ピ": 5588,
      "##ザ": 5589,
      "##ド": 5590,
      "##ミ": 5591,
      "##õ": 5592,
      "##ê": 5593,
      "##û": 5594,
      "##니": 5595,
      "##フ": 5596,
      "##ァ": 5597,
      "##野": 5598,
      "##望": 5599,
      "##ذ": 5600,
      "##ك": 5601,
      "##ま": 5602,
      "##か": 5603,
      "##撃": 5604,
      "##ن": 5605,
      "##ی": 5606,
      "##ו": 5607,
      "##ב": 5608,
      "##ה": 5609,
      "##π": 5610,
      "##ไ": 5611,
      "##ม": 5612,
      "##จ": 5613,
      "##ะ": 5614,
      "##ด": 5615,
      "##ึ": 5616,
      "##ُ": 5617,
      "##송": 5618,
      "##나": 5619,
      "##즈": 5620,
      "##ш": 5621,
      "##テ": 5622,
      "##ジ": 5623,
      "##見": 5624,
      "##観": 5625,
      "##客": 5626,
      "##席": 5627,
      "##景": 5628,
      "##色": 5629,
      "##そ": 5630,
      "##よ": 5631,
      "##感": 5632,
      "##回": 5633,
      "##河": 5634,
      "##ヒ": 5635,
      "##ッ": 5636,
      "##チ": 5637,
      "##ハ": 5638,
      "##イ": 5639,
      "##ū": 5640,
      "##組": 5641,
      "##ѕ": 5642,
      "##إ": 5643,
      "##ح": 5644,
      "##ً": 5645,
      "##ḫ": 5646,
      "##ē": 5647,
      "##§": 5648,
      "##ط": 5649,
      "##ż": 5650,
      "##î": 5651,
      "##ō": 5652,
      "##": 5653,
      "##": 5654,
      "##회": 5655,
      "##地": 5656,
      "##球": 5657,
      "##生": 5658,
      "##物": 5659,
      "##環": 5660,
      "##境": 5661,
      "##向": 5662,
      "##上": 5663,
      "##貢": 5664,
      "##献": 5665,
      "##木": 5666,
      "##線": 5667,
      "##量": 5668,
      "##放": 5669,
      "##射": 5670,
      "##性": 5671,
      "##質": 5672,
      "##検": 5673,
      "##出": 5674,
      "##さ": 5675,
      "##ج": 5676,
      "##ھ": 5677,
      "##ے": 5678,
      "##ã": 5679,
      "##ض": 5680,
      "##ة": 5681,
      "##グ": 5682,
      "##ラ": 5683,
      "##マ": 5684,
      "##定": 5685,
      "##つ": 5686,
      "##だ": 5687,
      "##走": 5688,
      "##公": 5689,
      "##判": 5690,
      "##네": 5691,
      "##요": 5692,
      "##에": 5693,
      "##ス": 5694,
      "##デ": 5695,
      "##ィ": 5696,
      "##χ": 5697,
      "##ώ": 5698,
      "##έ": 5699,
      "##μ": 5700,
      "##州": 5701,
      "##十": 5702,
      "##君": 5703,
      "##子": 5704,
      "##案": 5705,
      "##ß": 5706,
      "##息": 5707,
      "##ع": 5708,
      "##ِ": 5709,
      "##件": 5710,
      "##後": 5711,
      "##間": 5712,
      "##わ": 5713,
      "##<": 5714,
      "##해": 5715,
      "##발": 5716,
      "##획": 5717,
      "##難": 5718,
      "##体": 5719,
      "##通": 5720,
      "##常": 5721,
      "##二": 5722,
      "##倍": 5723,
      "##程": 5724,
      "##度": 5725,
      "##不": 5726,
      "##自": 5727,
      "##近": 5728,
      "##開": 5729,
      "##発": 5730,
      "##場": 5731,
      "##リ": 5732,
      "##コ": 5733,
      "##書": 5734,
      "##仕": 5735,
      "##事": 5736,
      "##遠": 5737,
      "##ざ": 5738,
      "##ろ": 5739,
      "##あ": 5740,
      "##": 5741,
      "##ん": 5742,
      "##役": 5743,
      "##立": 5744,
      "##レ": 5745,
      "##タ": 5746,
      "##ル": 5747,
      "##人": 5748,
      "##達": 5749,
      "##お": 5750,
      "##げ": 5751,
      "##食": 5752,
      "##ぐ": 5753,
      "##된": 5754,
      "##재": 5755,
      "##덕": 5756,
      "##ן": 5757,
      "##🏻": 5758,
      "##主": 5759,
      "##宰": 5760,
      "##町": 5761,
      "##友": 5762,
      "##交": 5763,
      "##可": 5764,
      "##能": 5765,
      "##台": 5766,
      "##何": 5767,
      "##照": 5768,
      "##笑": 5769,
      "##完": 5770,
      "##全": 5771,
      "##水": 5772,
      "##由": 5773,
      "##結": 5774,
      "##姿": 5775,
      "##け": 5776,
      "##•": 5777,
      "##签": 5778,
      "##以": 5779,
      "##过": 5780,
      "##セ": 5781,
      "##エ": 5782,
      "##ヴ": 5783,
      "##ナ": 5784,
      "##ो": 5785,
      "##न": 5786,
      "##द": 5787,
      "##›": 5788,
      "##ɨ": 5789,
      "##̌": 5790,
      "##ω": 5791,
      "##آ": 5792,
      "##≥": 5793,
      "##자": 5794,
      "##까": 5795,
      "##ش": 5796,
      "##أ": 5797,
      "##∼": 5798,
      "##동": 5799,
      "##으": 5800,
      "##로": 5801,
      "##👀": 5802,
      "##大": 5803,
      "##神": 5804,
      "##獸": 5805,
      "##$": 5806,
      "##람": 5807,
      "##대": 5808,
      "##할": 5809,
      "##우": 5810,
      "##혹": 5811,
      "##د": 5812,
      "##ف": 5813,
      "##φ": 5814,
      "##ι": 5815,
      "##ė": 5816,
      "##랐": 5817,
      "##없": 5818,
      "##음": 5819,
      "##会": 5820,
      "##盛": 5821,
      "##情": 5822,
      "##森": 5823,
      "##ï": 5824,
      "##내": 5825,
      "##만": 5826,
      "##술": 5827,
      "##र": 5828,
      "##स": 5829,
      "##्": 5830,
      "##प": 5831,
      "##ं": 5832,
      "##ヘ": 5833,
      "##続": 5834,
      "##本": 5835,
      "##端": 5836,
      "##的": 5837,
      "##表": 5838,
      "##同": 5839,
      "##曲": 5840,
      "##堪": 5841,
      "##깎": 5842,
      "##説": 5843,
      "##故": 5844,
      "##苑": 5845,
      "##ù": 5846,
      "##แ": 5847,
      "##พ": 5848,
      "##ฒ": 5849,
      "##บ": 5850,
      "##제": 5851,
      "##시": 5852,
      "##켜": 5853,
      "##준": 5854,
      "##ɦ": 5855,
      "##ɣ": 5856,
      "##물": 5857,
      "##携": 5858,
      "##𥤫": 5859,
      "##전": 5860,
      "##선": 5861,
      "##고": 5862,
      "##�": 5863,
      "##슷": 5864,
      "##한": 5865,
      "##어": 5866,
      "###": 5867,
      "##□": 5868,
      "##■": 5869,
      "##크": 5870,
      "##@": 5871,
      "##%": 5872,
      "##&": 5873,
      "##日": 5874,
      "##ύ": 5875,
      "##島": 5876,
      "##原": 5877,
      "##爆": 5878,
      "##位": 5879,
      "##元": 5880,
      "##素": 5881,
      "##超": 5882,
      "##‎": 5883,
      "##次": 5884,
      "##再": 5885,
      "##█": 5886,
      "##░": 5887,
      "##ị": 5888,
      "##금": 5889,
      "##ガ": 5890,
      "##目": 5891,
      "##せ": 5892,
      "##方": 5893,
      "##工": 5894,
      "##夫": 5895,
      "##✏": 5896,
      "##β": 5897,
      "##υ": 5898,
      "##ą": 5899,
      "##들": 5900,
      "##贩": 5901,
      "##恶": 5902,
      "##踏": 5903,
      "##车": 5904,
      "##ب": 5905,
      "##「": 5906,
      "##外": 5907,
      "##面": 5908,
      "##白": 5909,
      "##ア": 5910,
      "##ト": 5911,
      "##募": 5912,
      "##云": 5913,
      "##志": 5914,
      "##ビ": 5915,
      "##ニ": 5916,
      "##剥": 5917,
      "##편": 5918,
      "##吹": 5919,
      "##荒": 5920,
      "##関": 5921,
      "##ず": 5922,
      "##明": 5923,
      "##音": 5924,
      "##节": 5925,
      "##η": 5926,
      "##": 5927,
      "##غ": 5928,
      "##他": 5929,
      "##一": 5930,
      "##緒": 5931,
      "##考": 5932,
      "##ֹ": 5933,
      "##ש": 5934,
      "##ֵ": 5935,
      "##ׁ": 5936,
      "##ע": 5937,
      "##멍": 5938,
      "##탕": 5939,
      "##因": 5940,
      "##雪": 5941,
      "##崩": 5942,
      "##気": 5943,
      "##専": 5944,
      "##門": 5945,
      "##家": 5946,
      "##断": 5947,
      "##며": 5948,
      "##製": 5949,
      "##造": 5950,
      "##産": 5951,
      "##終": 5952,
      "##了": 5953,
      "##행": 5954,
      "##인": 5955,
      "##ק": 5956,
      "##태": 5957,
      "##💀": 5958,
      "##섰": 5959,
      "##환": 5960,
      "##介": 5961,
      "##๔": 5962,
      "##ῖ": 5963,
      "##ɪ": 5964,
      "##ɳ": 5965,
      "##ё": 5966,
      "##网": 5967,
      "##美": 5968,
      "##瞳": 5969,
      "##喵": 5970,
      "##습": 5971,
      "##是": 5972,
      "##暴": 5973,
      "##民": 5974,
      "##看": 5975,
      "##那": 5976,
      "##个": 5977,
      "##视": 5978,
      "##频": 5979,
      "##吧": 5980,
      "##波": 5981,
      "##オ": 5982,
      "##신": 5983,
      "##ᄏ": 5984,
      "##ṃ": 5985,
      "##פ": 5986,
      "##֭": 5987,
      "##ያ": 5988,
      "##ሱ": 5989,
      "##ά": 5990,
      "##ď": 5991,
      "##병": 5992,
      "##​": 5993,
      "##슨": 5994,
      "##과": 5995,
      "##원": 5996,
      "##테": 5997,
      "##😎": 5998,
      "##😈": 5999,
      "##🏀": 6000,
      "##演": 6001,
      "##刻": 6002,
      "##출": 6003,
      "##구": 6004,
      "##彼": 6005,
      "##脱": 6006,
      "##理": 6007,
      "##ウ": 6008,
      "##ェ": 6009,
      "##右": 6010,
      "##折": 6011,
      "##入": 6012,
      "##ḥ": 6013,
      "##ý": 6014,
      "##涙": 6015,
      "##俺": 6016,
      "##癒": 6017,
      "##란": 6018,
      "##민": 6019,
      "##석": 6020,
      "##법": 6021,
      "##디": 6022,
      "##養": 6023,
      "##湯": 6024,
      "##雇": 6025,
      "##农": 6026,
      "##후": 6027,
      "##상": 6028,
      "##본": 6029,
      "##ʐ": 6030,
      "##đ": 6031,
      "##": 6032,
      "##カ": 6033,
      "##状": 6034,
      "##況": 6035,
      "##使": 6036,
      "##ג": 6037,
      "##א": 6038,
      "##ָ": 6039,
      "##ל": 6040,
      "##ס": 6041,
      "##川": 6042,
      "##伝": 6043,
      "##東": 6044,
      "##流": 6045,
      "##合": 6046,
      "##氣": 6047,
      "##武": 6048,
      "##道": 6049,
      "##相": 6050,
      "##模": 6051,
      "##支": 6052,
      "##部": 6053,
      "##点": 6054,
      "##γ": 6055,
      "##κ": 6056,
      "##炁": 6057,
      "##藝": 6058,
      "##術": 6059,
      "##学": 6060,
      "##ポ": 6061,
      "##ム": 6062,
      "##ő": 6063,
      "##ਡ": 6064,
      "##婚": 6065,
      "##約": 6066,
      "##아": 6067,
      "##있": 6068,
      "##返": 6069,
      "##値": 6070,
      "##ば": 6071,
      "##良": 6072,
      "##ř": 6073,
      "##ð": 6074,
      "##サ": 6075,
      "##プ": 6076,
      "##採": 6077,
      "##取": 6078,
      "##폭": 6079,
      "##탄": 6080,
      "##軍": 6081,
      "##陸": 6082,
      "##戰": 6083,
      "##革": 6084,
      "##命": 6085,
      "##圖": 6086,
      "##죠": 6087,
      "##ꠥ": 6088,
      "##ꠡ": 6089,
      "##꠆": 6090,
      "##ꠑ": 6091,
      "##ꠤ": 6092,
      "##海": 6093,
      "##抱": 6094,
      "##楽": 6095,
      "##モ": 6096,
      "##実": 6097,
      "##ъ": 6098,
      "##┌": 6099,
      "##─": 6100,
      "##┐": 6101,
      "##ネ": 6102,
      "##資": 6103,
      "##へ": 6104,
      "##礼": 6105,
      "##送": 6106,
      "##要": 6107,
      "##域": 6108,
      "##置": 6109,
      "##唆": 6110,
      "##ত": 6111,
      "##্": 6112,
      "##প": 6113,
      "##े": 6114,
      "##­": 6115,
      "##스": 6116,
      "##❤": 6117,
      "##伯": 6118,
      "##魯": 6119,
      "##有": 6120,
      "##力": 6121,
      "##み": 6122,
      "##ś": 6123,
      "##함": 6124,
      "##ὸ": 6125,
      "##国": 6126,
      "##務": 6127,
      "##省": 6128,
      "##報": 6129,
      "##官": 6130,
      "##씨": 6131,
      "##와": 6132,
      "##מ": 6133,
      "##ט": 6134,
      "##好": 6135,
      "##멸": 6136,
      "##ّ": 6137,
      "##픔": 6138,
      "##질": 6139,
      "##때": 6140,
      "##르": 6141,
      "##言": 6142,
      "##ή": 6143,
      "##ズ": 6144,
      "##高": 6145,
      "##昭": 6146,
      "##住": 6147,
      "##̇": 6148,
      "##釈": 6149,
      "##申": 6150,
      "##請": 6151,
      "##認": 6152,
      "##め": 6153,
      "##濡": 6154,
      "##엉": 6155,
      "##부": 6156,
      "##ؤ": 6157,
      "##خ": 6158,
      "##キ": 6159,
      "##책": 6160,
      "##반": 6161,
      "##겨": 6162,
      "##ാ": 6163,
      "##വ": 6164,
      "##ോ": 6165,
      "##സ": 6166,
      "##്": 6167,
      "##謂": 6168,
      "##太": 6169,
      "##之": 6170,
      "##顔": 6171,
      "##活": 6172,
      "##動": 6173,
      "##ɹ": 6174,
      "##ಾ": 6175,
      "##ಷ": 6176,
      "##": 6177,
      "##。": 6178,
      "##・": 6179,
      "##金": 6180,
      "##宣": 6181,
      "##ḗ": 6182,
      "##離": 6183,
      "##別": 6184,
      "##ů": 6185,
      "##곰": 6186,
      "##投": 6187,
      "##稿": 6188,
      "##待": 6189,
      "##저": 6190,
      "##ુ": 6191,
      "##જ": 6192,
      "##ર": 6193,
      "##ા": 6194,
      "##ત": 6195,
      "##ી": 6196,
      "##ゃ": 6197,
      "##貰": 6198,
      "##ぜ": 6199,
      "##명": 6200,
      "##타": 6201,
      "##확": 6202,
      "##률": 6203,
      "##단": 6204,
      "##探": 6205,
      "##险": 6206,
      "##乐": 6207,
      "##园": 6208,
      "##万": 6209,
      "##葉": 6210,
      "##花": 6211,
      "##咲": 6212,
      "##ɡ": 6213,
      "##ǫ": 6214,
      "##️": 6215,
      "##관": 6216,
      "##식": 6217,
      "##러": 6218,
      "##俊": 6219,
      "##峰": 6220,
      "##↑": 6221,
      "##普": 6222,
      "##遍": 6223,
      "##価": 6224,
      "##共": 6225,
      "##我": 6226,
      "##盟": 6227,
      "##係": 6228,
      "##基": 6229,
      "##盤": 6230,
      "##너": 6231,
      "##임": 6232,
      "##馬": 6233,
      "##小": 6234,
      "##英": 6235,
      "##雄": 6236,
      "##路": 6237,
      "##橋": 6238,
      "##賢": 6239,
      "##前": 6240,
      "##期": 6241,
      "##準": 6242,
      "##受": 6243,
      "##賞": 6244,
      "##護": 6245,
      "##団": 6246,
      "##枚": 6247,
      "##及": 6248,
      "##ぶ": 6249,
      "##論": 6250,
      "##告": 6251,
      "##旨": 6252,
      "##提": 6253,
      "##변": 6254,
      "##보": 6255,
      "##호": 6256,
      "##売": 6257,
      "##督": 6258,
      "##종": 6259,
      "##ʾ": 6260,
      "##ғ": 6261,
      "##ҳ": 6262,
      "##着": 6263,
      "##字": 6264,
      "##ص": 6265,
      "##遅": 6266,
      "##延": 6267,
      "##逸": 6268,
      "##山": 6269,
      "##南": 6270,
      "##側": 6271,
      "##ホ": 6272,
      "##麻": 6273,
      "##用": 6274,
      "##距": 6275,
      "##争": 6276,
      "##形": 6277,
      "##跡": 6278,
      "##마": 6279,
      "##ि": 6280,
      "##क": 6281,
      "##ṭ": 6282,
      "##料": 6283,
      "##機": 6284,
      "##密": 6285,
      "##≈": 6286,
      "##ぎ": 6287,
      "##ě": 6288,
      "##성": 6289,
      "##ੰ": 6290,
      "##ਜ": 6291,
      "##ਾ": 6292,
      "##ਬ": 6293,
      "##ੀ": 6294,
      "##苦": 6295,
      "##痛": 6296,
      "##必": 6297,
      "##引": 6298,
      "##数": 6299,
      "##直": 6300,
      "##接": 6301,
      "##└": 6302,
      "##┬": 6303,
      "##┘": 6304,
      "##│": 6305,
      "##❦": 6306,
      "##택": 6307,
      "##ד": 6308,
      "##흑": 6309,
      "##궁": 6310,
      "##̐": 6311,
      "##琉": 6312,
      "##新": 6313,
      "##夜": 6314,
      "##巻": 6315,
      "##э": 6316,
      "##년": 6317,
      "##臭": 6318,
      "##精": 6319,
      "##在": 6320,
      "##進": 6321,
      "##行": 6322,
      "##中": 6323,
      "##ಪ": 6324,
      "##ರ": 6325,
      "##ಿ": 6326,
      "##ಚ": 6327,
      "##ತ": 6328,
      "##ज": 6329,
      "##尊": 6330,
      "##芝": 6331,
      "##怡": 6332,
      "##ń": 6333,
      "##際": 6334,
      "##歳": 6335,
      "##語": 6336,
      "##版": 6337,
      "##♪": 6338,
      "##ٍ": 6339,
      "##令": 6340,
      "##歌": 6341,
      "##敦": 6342,
      "##慶": 6343,
      "##🍅": 6344,
      "##🍖": 6345,
      "##분": 6346,
      "##ź": 6347,
      "##황": 6348,
      "##장": 6349,
      "##애": 6350,
      "##약": 6351,
      "##審": 6352,
      "##決": 6353,
      "##ϝ": 6354,
      "##📣": 6355,
      "##": 6356,
      "##画": 6357,
      "##持": 6358,
      "##写": 6359,
      "##真": 6360,
      "##失": 6361,
      "##공": 6362,
      "##격": 6363,
      "##": 6364,
      "##ʊ": 6365,
      "##除": 6366,
      "##ह": 6367,
      "##ॆ": 6368,
      "##ु": 6369,
      "##य": 6370,
      "##‌": 6371,
      "##¿": 6372,
      "##▄": 6373,
      "##▀": 6374,
      "##述": 6375,
      "##庆": 6376,
      "##社": 6377,
      "##ュ": 6378,
      "##恐": 6379,
      "##받": 6380,
      "##季": 6381,
      "##節": 6382,
      "##ạ": 6383,
      "##只": 6384,
      "##限": 6385,
      "##播": 6386,
      "##降": 6387,
      "##霜": 6388,
      "##雨": 6389,
      "##露": 6390,
      "##게": 6391,
      "##酷": 6392,
      "##察": 6393,
      "##罰": 6394,
      "##円": 6395,
      "##求": 6396,
      "##刑": 6397,
      "##対": 6398,
      "##び": 6399,
      "##ボ": 6400,
      "##ぼ": 6401,
      "##ĩ": 6402,
      "##ɐ": 6403,
      "##無": 6404,
      "##標": 6405,
      "##里": 6406,
      "##隔": 6407,
      "##絶": 6408,
      "##奥": 6409,
      "##양": 6410,
      "##̄": 6411,
      "##ĥ": 6412,
      "##ǧ": 6413,
      "##験": 6414,
      "##試": 6415,
      "##안": 6416,
      "##했": 6417,
      "##ベ": 6418,
      "##治": 6419,
      "##ṛ": 6420,
      "##ʁ": 6421,
      "##ɛ": 6422,
      "##女": 6423,
      "##称": 6424,
      "##賛": 6425,
      "##拍": 6426,
      "##手": 6427,
      "##鳴": 6428,
      "##響": 6429,
      "##幸": 6430,
      "##空": 6431,
      "##包": 6432,
      "##͢": 6433,
      "##ͅ": 6434,
      "##̝": 6435,
      "##͉": 6436,
      "##̙": 6437,
      "##火": 6438,
      "##억": 6439,
      "##드": 6440,
      "##립": 6441,
      "##舞": 6442,
      "##苍": 6443,
      "##穹": 6444,
      "##म": 6445,
      "##भ": 6446,
      "##ण": 6447,
      "##ड": 6448,
      "##乃": 6449,
      "##坂": 6450,
      "##卒": 6451,
      "##業": 6452,
      "##貴": 6453,
      "##押": 6454,
      "##ῦ": 6455,
      "##👎": 6456,
      "##즌": 6457,
      "##ת": 6458,
      "##런": 6459,
      "##🏾": 6460,
      "##ٌ": 6461,
      "##▒": 6462,
      "##ご": 6463,
      "##독": 6464,
      "##學": 6465,
      "##遊": 6466,
      "##벌": 6467,
      "##¶": 6468,
      "##北": 6469,
      "##装": 6470,
      "##김": 6471,
      "##컴": 6472,
      "##퍼": 6473,
      "##论": 6474,
      "##ꦤ": 6475,
      "##꧀": 6476,
      "##त": 6477,
      "##ื": 6478,
      "##ี": 6479,
      "##ค": 6480,
      "##거": 6481,
      "##重": 6482,
      "##低": 6483,
      "##身": 6484,
      "##浴": 6485,
      "##下": 6486,
      "##찬": 6487,
      "##ष": 6488,
      "##⋮": 6489,
      "##忙": 6490,
      "##酬": 6491,
      "##少": 6492,
      "##職": 6493,
      "##意": 6494,
      "##្": 6495,
      "##រ": 6496,
      "##ទ": 6497,
      "##េ": 6498,
      "##ស": 6499,
      "##ឡ": 6500,
      "##ា": 6501,
      "##វ": 6502,
      "##ɔ": 6503,
      "##べ": 6504,
      "##温": 6505,
      "##存": 6506,
      "##む": 6507,
      "##願": 6508,
      "##": 6509,
      "##ォ": 6510,
      "##推": 6511,
      "##派": 6512,
      "##安": 6513,
      "##晋": 6514,
      "##三": 6515,
      "##政": 6516,
      "##権": 6517,
      "##惺": 6518,
      "##肝": 6519,
      "##ɫ": 6520,
      "##ʃ": 6521,
      "##特": 6522,
      "##怒": 6523,
      "##🏼": 6524,
      "##心": 6525,
      "##歓": 6526,
      "##声": 6527,
      "##沸": 6528,
      "##ʌ": 6529,
      "##ʋ": 6530,
      "##為": 6531,
      "##谿": 6532,
      "##谷": 6533,
      "##왔": 6534,
      "##ứ": 6535,
      "##득": 6536,
      "##훈": 6537,
      "##果": 6538,
      "##👉": 6539,
      "##知": 6540,
      "##兖": 6541,
      "##瞎": 6542,
      "##管": 6543,
      "##媒": 6544,
      "##쇠": 6545,
      "##͠": 6546,
      "##롭": 6547,
      "##록": 6548,
      "##褒": 6549,
      "##炉": 6550,
      "##′": 6551,
      "##ņ": 6552,
      "##„": 6553,
      "##역": 6554,
      "##무": 6555,
      "##โ": 6556,
      "##ภ": 6557,
      "##佳": 6558,
      "##카": 6559,
      "##미": 6560,
      "##ヶ": 6561,
      "##ほ": 6562,
      "##👌": 6563,
      "##割": 6564,
      "##刀": 6565,
      "##筋": 6566,
      "##∦": 6567,
      "##ᅮ": 6568,
      "##랜": 6569,
      "##파": 6570,
      "##널": 6571,
      "##﻿": 6572,
      "##ɾ": 6573,
      "##去": 6574,
      "##閲": 6575,
      "##拒": 6576,
      "##否": 6577,
      "##†": 6578,
      "##ῳ": 6579,
      "##等": 6580,
      "##鸽": 6581,
      "##親": 6582,
      "##族": 6583,
      "##‖": 6584,
      "##头": 6585,
      "##默": 6586,
      "##认": 6587,
      "##ך": 6588,
      "##앞": 6589,
      "##🏽": 6590,
      "##정": 6591,
      "##違": 6592,
      "##経": 6593,
      "##積": 6594,
      "##圣": 6595,
      "##曰": 6596,
      "##修": 6597,
      "##직": 6598,
      "##히": 6599,
      "##味": 6600,
      "##ひ": 6601,
      "##ா": 6602,
      "##வ": 6603,
      "##ோ": 6604,
      "##ஸ": 6605,
      "##்": 6606,
      "##牆": 6607,
      "##됐": 6608,
      "##ả": 6609,
      "##ח": 6610,
      "##נ": 6611,
      "##ަ": 6612,
      "##ހ": 6613,
      "##ވ": 6614,
      "##ީ": 6615,
      "##ぞ": 6616,
      "##孫": 6617,
      "##悟": 6618,
      "##仲": 6619,
      "##간": 6620,
      "##»": 6621,
      "##£": 6622,
      "##ञ": 6623,
      "##第": 6624,
      "##電": 6625,
      "##圧": 6626,
      "##ゆ": 6627,
      "##−": 6628,
      "##ʻ": 6629,
      "##衆": 6630,
      "##衛": 6631,
      "##悲": 6632,
      "##劇": 6633,
      "##差": 6634,
      "##悩": 6635,
      "##적": 6636,
      "##刊": 6637,
      "##芸": 6638,
      "##트": 6639,
      "##«": 6640,
      "##월": 6641,
      "##米": 6642,
      "##족": 6643,
      "##摄": 6644,
      "##影": 6645,
      "##展": 6646,
      "##躯": 6647,
      "##男": 6648,
      "##ξ": 6649,
      "##현": 6650,
      "##├": 6651,
      "##┼": 6652,
      "##╕": 6653,
      "##╜": 6654,
      "##생": 6655,
      "##활": 6656,
      "##گ": 6657,
      "##館": 6658,
      "##ゥ": 6659,
      "##足": 6660,
      "##切": 6661,
      "##玉": 6662,
      "##娇": 6663,
      "##加": 6664,
      "##ぅ": 6665,
      "##ǝ": 6666,
      "##ṣ": 6667,
      "##ṇ": 6668,
      "##악": 6669,
      "##夏": 6670,
      "##ね": 6671,
      "##予": 6672,
      "##👊": 6673,
      "##🇺": 6674,
      "##🇸": 6675,
      "##⚡": 6676,
      "##⊥": 6677,
      "##西": 6678,
      "##院": 6679,
      "##张": 6680,
      "##忠": 6681,
      "##厚": 6682,
      "##长": 6683,
      "##蹦": 6684,
      "##亂": 6685,
      "##跳": 6686,
      "##准": 6687,
      "##话": 6688,
      "##追": 6689,
      "##記": 6690,
      "##ཕ": 6691,
      "##ོ": 6692,
      "##裁": 6693,
      "##張": 6694,
      "##雲": 6695,
      "##姉": 6696,
      "##ٰ": 6697,
      "##겠": 6698,
      "##机": 6699,
      "##器": 6700,
      "##ӑ": 6701,
      "##̚": 6702,
      "##格": 6703,
      "##拉": 6704,
      "##没": 6705,
      "##底": 6706,
      "##盆": 6707,
      "##빠": 6708,
      "##뭐": 6709,
      "##ĕ": 6710,
      "##̤": 6711,
      "##°": 6712,
      "##夢": 6713,
      "##希": 6714,
      "##与": 6715,
      "##ே": 6716,
      "##த": 6717,
      "##ம": 6718,
      "##▐": 6719,
      "##😍": 6720,
      "##替": 6721,
      "##調": 6722,
      "##ನ": 6723,
      "##ಮ": 6724,
      "##ಕ": 6725,
      "##‚": 6726,
      "##ɑ": 6727,
      "##ศ": 6728,
      "##์": 6729,
      "##참": 6730,
      "##甲": 6731,
      "##薄": 6732,
      "##ぽ": 6733,
      "##💪": 6734,
      "##쨌": 6735,
      "##느": 6736,
      "##걸": 6737,
      "##死": 6738,
      "##ʕ": 6739,
      "##奏": 6740,
      "##귀": 6741,
      "##‐": 6742,
      "##ে": 6743,
      "##합": 6744,
      "##斜": 6745,
      "##裂": 6746,
      "##裸": 6747,
      "##飛": 6748,
      "##寇": 6749,
      "##ゅ": 6750,
      "##衰": 6751,
      "##̣": 6752,
      "##북": 6753,
      "##墳": 6754,
      "##群": 6755,
      "##ケ": 6756,
      "##供": 6757,
      "##保": 6758,
      "##育": 6759,
      "##所": 6760,
      "##預": 6761,
      "##」": 6762,
      "##奮": 6763,
      "##依": 6764,
      "##融": 6765,
      "##和": 6766,
      "##致": 6767,
      "##כ": 6768,
      "##掲": 6769,
      "##올": 6770,
      "##˧": 6771,
      "##˦": 6772,
      "##法": 6773,
      "##克": 6774,
      "##鱿": 6775,
      "##文": 6776,
      "##연": 6777,
      "##維": 6778,
      "##滑": 6779,
      "##落": 6780,
      "##証": 6781,
      "##左": 6782,
      "##엇": 6783,
      "##負": 6784,
      "##煽": 6785,
      "##享": 6786,
      "##給": 6787,
      "##朋": 6788,
      "##̃": 6789,
      "##놔": 6790,
      "##ữ": 6791,
      "##塚": 6792,
      "##굴": 6793,
      "##개": 6794,
      "##迎": 6795,
      "##激": 6796,
      "##움": 6797,
      "##응": 6798,
      "##典": 6799,
      "##续": 6800,
      "##舌": 6801,
      "##堤": 6802,
      "##逮": 6803,
      "##捕": 6804,
      "##拘": 6805,
      "##留": 6806,
      "##漫": 6807,
      "##短": 6808,
      "##集": 6809,
      "##載": 6810,
      "##始": 6811,
      "##̑": 6812,
      "##력": 6813,
      "##稻": 6814,
      "##雁": 6815,
      "##标": 6816,
      "##颜": 6817,
      "##┴": 6818,
      "##誘": 6819,
      "##惑": 6820,
      "##正": 6821,
      "##解": 6822,
      "##은": 6823,
      "##각": 6824,
      "##书": 6825,
      "##昌": 6826,
      "##래": 6827,
      "##턴": 6828,
      "##친": 6829,
      "##继": 6830,
      "##互": 6831,
      "##动": 6832,
      "##腐": 6833,
      "##肉": 6834,
      "##名": 6835,
      "##ふ": 6836,
      "##異": 6837,
      "##來": 6838,
      "##勝": 6839,
      "##끼": 6840,
      "##早": 6841,
      "##ա": 6842,
      "##ո": 6843,
      "##ս": 6844,
      "##속": 6845,
      "##陆": 6846,
      "##军": 6847,
      "##四": 6848,
      "##秋": 6849,
      "##冬": 6850,
      "##浮": 6851,
      "##許": 6852,
      "##思": 6853,
      "##忘": 6854,
      "##退": 6855,
      "##廷": 6856,
      "##려": 6857,
      "##束": 6858,
      "##찰": 6859,
      "##統": 6860,
      "##領": 6861,
      "##든": 6862,
      "##潰": 6863,
      "##パ": 6864,
      "##屋": 6865,
      "##骨": 6866,
      "##研": 6867,
      "##究": 6868,
      "##番": 6869,
      "##ध": 6870,
      "##œ": 6871,
      "##순": 6872,
      "##陀": 6873,
      "##峪": 6874,
      "##陵": 6875,
      "##、": 6876,
      "##遮": 6877,
      "##蔽": 6878,
      "##設": 6879,
      "##営": 6880,
      "##작": 6881,
      "##ജ": 6882,
      "##ി": 6883,
      "##ത": 6884,
      "##岡": 6885,
      "##辺": 6886,
      "##腺": 6887,
      "##率": 6888,
      "##急": 6889,
      "##昇": 6890,
      "##쪽": 6891,
      "##취": 6892,
      "##벨": 6893,
      "##👏": 6894,
      "##乎": 6895,
      "##五": 6896,
      "##穀": 6897,
      "##絲": 6898,
      "##긴": 6899,
      "##ब": 6900,
      "##ट": 6901,
      "##목": 6902,
      "##표": 6903,
      "##ئ": 6904,
      "##兽": 6905,
      "##叫": 6906,
      "##ệ": 6907,
      "##渓": 6908,
      "##深": 6909,
      "##横": 6910,
      "##극": 6911,
      "##ギ": 6912,
      "##ა": 6913,
      "##გ": 6914,
      "##ზ": 6915,
      "##ი": 6916,
      "##체": 6917,
      "##努": 6918,
      "##到": 6919,
      "##―": 6920,
      "##值": 6921,
      "##光": 6922,
      "##麼": 6923,
      "##什": 6924,
      "##鬼": 6925,
      "##移": 6926,
      "##야": 6927,
      "##던": 6928,
      "##灯": 6929,
      "##소": 6930,
      "##反": 6931,
      "##秒": 6932,
      "##变": 6933,
      "##ễ": 6934,
      "##😀": 6935,
      "##☃": 6936,
      "##湾": 6937,
      "##漁": 6938,
      "##師": 6939,
      "##網": 6940,
      "##頭": 6941,
      "##獲": 6942,
      "##ז": 6943,
      "##📝": 6944,
      "##ʒ": 6945,
      "##ꠅ": 6946,
      "##確": 6947,
      "##ʔ": 6948,
      "##鼠": 6949,
      "##處": 6950,
      "##員": 6951,
      "##登": 6952,
      "##備": 6953,
      "##ৰ": 6954,
      "##ক": 6955,
      "##ষ": 6956,
      "##ী": 6957,
      "##隊": 6958,
      "##囲": 6959,
      "##飲": 6960,
      "##催": 6961,
      "##界": 6962,
      "##健": 6963,
      "##þ": 6964,
      "##招": 6965,
      "##‍": 6966,
      "##비": 6967,
      "##진": 6968,
      "##았": 6969,
      "##让": 6970,
      "##们": 6971,
      "##连": 6972,
      "##馒": 6973,
      "##吃": 6974,
      "##ֳ": 6975,
      "##成": 6976,
      "##靴": 6977,
      "##ὰ": 6978,
      "##×": 6979,
      "##敷": 6980,
      "##坊": 6981,
      "##将": 6982,
      "##ნ": 6983,
      "##თ": 6984,
      "##მ": 6985,
      "##ე": 6986,
      "##ც": 6987,
      "##რ": 6988,
      "##ბ": 6989,
      "##銘": 6990,
      "##천": 6991,
      "##ฤ": 6992,
      "##ฐ": 6993,
      "##種": 6994,
      "##摂": 6995,
      "##氏": 6996,
      "##極": 6997,
      "##ސ": 6998,
      "##ް": 6999,
      "##림": 7000,
      "##처": 7001,
      "##럼": 7002,
      "##問": 7003,
      "##題": 7004,
      "##버": 7005,
      "##둬": 7006,
      "##応": 7007,
      "##榮": 7008,
      "##ḍ": 7009,
      "##峠": 7010,
      "##謎": 7011,
      "##帽": 7012,
      "##被": 7013,
      "##접": 7014,
      "##誌": 7015,
      "##냐": 7016,
      "##欢": 7017,
      "##也": 7018,
      "##되": 7019,
      "##險": 7020,
      "##樂": 7021,
      "##園": 7022,
      "##ũ": 7023,
      "##雉": 7024,
      "##倭": 7025,
      "##鬯": 7026,
      "##草": 7027,
      "##陽": 7028,
      "##教": 7029,
      "##授": 7030,
      "##紹": 7031,
      "##ờ": 7032,
      "##혼": 7033,
      "##曝": 7034,
      "##収": 7035,
      "##康": 7036,
      "##想": 7037,
      "##🚃": 7038,
      "##🍴": 7039,
      "##援": 7040,
      "##것": 7041,
      "##瑞": 7042,
      "##입": 7043,
      "##ᑦ": 7044,
      "##ᑐ": 7045,
      "##ᕋ": 7046,
      "##ᖅ": 7047,
      "##呈": 7048,
      "##ּ": 7049,
      "##산": 7050,
      "##暗": 7051,
      "##중": 7052,
      "##削": 7053,
      "##滴": 7054,
      "##踢": 7055,
      "##笔": 7056,
      "##·": 7057,
      "##抜": 7058,
      "##殻": 7059,
      "##ペ": 7060,
      "##街": 7061,
      "##🇱": 7062,
      "##춰": 7063,
      "##건": 7064,
      "##일": 7065,
      "##撒": 7066,
      "##廃": 7067,
      "##棄": 7068,
      "##危": 7069,
      "##険": 7070,
      "##隣": 7071,
      "##構": 7072,
      "##清": 7073,
      "##ぇ": 7074,
      "##였": 7075,
      "##র": 7076,
      "##চ": 7077,
      "##া": 7078,
      "##列": 7079,
      "##並": 7080,
      "##ธ": 7081,
      "##握": 7082,
      "##未": 7083,
      "##占": 7084,
      "##못": 7085,
      "##유": 7086,
      "##ǐ": 7087,
      "##달": 7088,
      "##含": 7089,
      "##ŏ": 7090,
      "##항": 7091,
      "##多": 7092,
      "##叩": 7093,
      "##𥤚": 7094,
      "##𥤟": 7095,
      "##잉": 7096,
      "##変": 7097,
      "##付": 7098,
      "##却": 7099,
      "##ถ": 7100,
      "##ษ": 7101,
      "##ุ": 7102,
      "##ฯ": 7103,
      "##晴": 7104,
      "##爸": 7105,
      "##型": 7106,
      "##焼": 7107,
      "##松": 7108,
      "##翻": 7109,
      "##为": 7110,
      "##气": 7111,
      "##실": 7112,
      "##ᕐ": 7113,
      "##ᓇ": 7114,
      "##ᐅ": 7115,
      "##ᑎ": 7116,
      "##ጅ": 7117,
      "##예": 7118,
      "##輝": 7119,
      "##像": 7120,
      "##過": 7121,
      "##労": 7122,
      "##寸": 7123,
      "##퀴": 7124,
      "##길": 7125,
      "##ワ": 7126,
      "##段": 7127,
      "##階": 7128,
      "##化": 7129,
      "##ै": 7130,
      "##근": 7131,
      "##ụ": 7132,
      "##피": 7133,
      "##몽": 7134,
      "##余": 7135,
      "##套": 7136,
      "##餐": 7137,
      "##钟": 7138,
      "##计": 7139,
      "##今": 7140,
      "##衡": 7141,
      "##층": 7142,
      "##¬": 7143,
      "##摩": 7144,
      "##☆": 7145,
      "##화": 7146,
      "##宏": 7147,
      "##☀": 7148,
      "##瀬": 7149,
      "##ო": 7150,
      "##ს": 7151,
      "##概": 7152,
      "##念": 7153,
      "##奴": 7154,
      "##句": 7155,
      "##佑": 7156,
      "##★": 7157,
      "##愛": 7158,
      "##振": 7159,
      "##🌊": 7160,
      "##ゾ": 7161,
      "##휘": 7162,
      "##棠": 7163,
      "##ヤ": 7164,
      "##先": 7165,
      "##敗": 7166,
      "##俱": 7167,
      "##傷": 7168,
      "##플": 7169,
      "##심": 7170,
      "##매": 7171,
      "##ề": 7172,
      "##¦": 7173,
      "##乗": 7174,
      "##⟨": 7175,
      "##⟩": 7176,
      "##±": 7177,
      "##ǎ": 7178,
      "##渠": 7179,
      "##론": 7180,
      "##ʎ": 7181,
      "##ぴ": 7182,
      "##ग": 7183,
      "##견": 7184,
      "##ɕ": 7185,
      "##ḏ": 7186,
      "##져": 7187,
      "##끌": 7188,
      "##끄": 7189,
      "##럽": 7190,
      "##봐": 7191,
      "##ŋ": 7192,
      "##ゴ": 7193,
      "##♀": 7194,
      "##古": 7195,
      "##赵": 7196,
      "##板": 7197,
      "##聞": 7198,
      "##ٔ": 7199,
      "##두": 7200,
      "##眺": 7201,
      "##남": 7202,
      "##জ": 7203,
      "##킬": 7204,
      "##": 7205,
      "##린": 7206,
      "##✓": 7207,
      "##昨": 7208,
      "##배": 7209,
      "##功": 7210,
      "##呢": 7211,
      "##縁": 7212,
      "##藤": 7213,
      "##빨": 7214,
      "##주": 7215,
      "##隻": 7216,
      "##華": 7217,
      "##©": 7218,
      "##€": 7219,
      "##制": 7220,
      "##ヨ": 7221,
      "##⇧": 7222,
      "##駆": 7223,
      "##逐": 7224,
      "##조": 7225,
      "##ὕ": 7226,
      "##😪": 7227,
      "##剑": 7228,
      "##奇": 7229,
      "##侠": 7230,
      "##传": 7231,
      "##루": 7232,
      "##🙄": 7233,
      "##째": 7234,
      "##純": 7235,
      "##風": 7236,
      "##😭": 7237,
      "##勢": 7238,
      "##熱": 7239,
      "##狂": 7240,
      "##모": 7241,
      "##國": 7242,
      "##골": 7243,
      "##単": 7244,
      "##石": 7245,
      "##例": 7246,
      "##冒": 7247,
      "##破": 7248,
      "##壊": 7249,
      "##憧": 7250,
      "##憬": 7251,
      "##滲": 7252,
      "##통": 7253,
      "##센": 7254,
      "##난": 7255,
      "##濱": 7256,
      "##區": 7257,
      "##여": 7258,
      "##嫌": 7259,
      "##就": 7260,
      "##ḷ": 7261,
      "##祝": 7262,
      "##祭": 7263,
      "##選": 7264,
      "##個": 7265,
      "##矢": 7266,
      "##彦": 7267,
      "##嶋": 7268,
      "##隆": 7269,
      "##込": 7270,
      "##訴": 7271,
      "##흥": 7272,
      "##委": 7273,
      "##習": 7274,
      "##妹": 7275,
      "##号": 7276,
      "##強": 7277,
      "##科": 7278,
      "##倾": 7279,
      "##키": 7280,
      "##嬉": 7281,
      "##或": 7282,
      "##八": 7283,
      "##缶": 7284,
      "##오": 7285,
      "##若": 7286,
      "##汚": 7287,
      "##染": 7288,
      "##ψ": 7289,
      "##録": 7290,
      "##佐": 7291,
      "##ї": 7292,
      "##↓": 7293,
      "##‪": 7294,
      "##ẹ": 7295,
      "##剰": 7296,
      "##帰": 7297,
      "##韻": 7298,
      "##날": 7299,
      "##յ": 7300,
      "##秘": 7301,
      "##兵": 7302,
      "##至": 7303,
      "##담": 7304,
      "##킨": 7305,
      "##ゲ": 7306,
      "##∷": 7307,
      "##": 7308,
      "##ṅ": 7309,
      "##紛": 7310,
      "##‏": 7311,
      "##워": 7312,
      "##醬": 7313,
      "##율": 7314,
      "##勞": 7315,
      "##抗": 7316,
      "##旱": 7317,
      "##邦": 7318,
      "##傑": 7319,
      "##국": 7320,
      "##큼": 7321,
      "##ư": 7322,
      "##湖": 7323,
      "##把": 7324,
      "##ۆ": 7325,
      "##痩": 7326,
      "##頑": 7327,
      "##势": 7328,
      "##整": 7329,
      "##🇪": 7330,
      "##군": 7331,
      "##散": 7332,
      "##歩": 7333,
      "##ি": 7334,
      "##হ": 7335,
      "##幻": 7336,
      "##捨": 7337,
      "##۰": 7338,
      "##름": 7339,
      "##母": 7340,
      "##ې": 7341,
      "##업": 7342,
      "##统": 7343,
      "##建": 7344,
      "##ộ": 7345,
      "##県": 7346,
      "##奈": 7347,
      "##市": 7348,
      "##당": 7349,
      "##살": 7350,
      "##臨": 7351,
      "##司": 7352,
      "##善": 7353,
      "##丈": 7354,
      "##賴": 7355,
      "##』": 7356,
      "##休": 7357,
      "##洋": 7358,
      "##ζ": 7359,
      "##ꦏ": 7360,
      "##祥": 7361,
      "##릴": 7362,
      "##같": 7363,
      "##뷰": 7364,
      "##🐕": 7365,
      "##式": 7366,
      "##會": 7367,
      "##医": 7368,
      "##】": 7369,
      "##逃": 7370,
      "##戦": 7371,
      "##態": 7372,
      "##陥": 7373,
      "##症": 7374,
      "##座": 7375,
      "##据": 7376,
      "##说": 7377,
      "##停": 7378,
      "##几": 7379,
      "##周": 7380,
      "##꾼": 7381,
      "##ユ": 7382,
      "##賦": 7383,
      "##百": 7384,
      "##遺": 7385,
      "##ᴀ": 7386,
      "##ʙ": 7387,
      "##ʏ": 7388,
      "##▌": 7389,
      "##畫": 7390,
      "##♣": 7391,
      "##青": 7392,
      "##↩": 7393,
      "##녀": 7394,
      "##絵": 7395,
      "##밥": 7396,
      "##逆": 7397,
      "##諸": 7398,
      "##防": 7399,
      "##築": 7400,
      "##城": 7401,
      "##犠": 7402,
      "##牲": 7403,
      "##衣": 7404,
      "##ŵ": 7405,
      "##밖": 7406,
      "##릅": 7407,
      "##敵": 7408,
      "##既": 7409,
      "##攻": 7410,
      "##随": 7411,
      "##転": 7412,
      "##更": 7413,
      "##ณ": 7414,
      "##ฑ": 7415,
      "##렁": 7416,
      "##𐩣": 7417,
      "##𐩬": 7418,
      "##吉": 7419,
      "##協": 7420,
      "##◊": 7421,
      "##♦": 7422,
      "##फ": 7423,
      "##ई": 7424,
      "##레": 7425,
      "##罪": 7426,
      "##即": 7427,
      "##씩": 7428,
      "##霧": 7429,
      "##著": 7430,
      "##覆": 7431,
      "##맞": 7432,
      "##閉": 7433,
      "##̯": 7434,
      "##布": 7435,
      "##ῶ": 7436,
      "##寧": 7437,
      "##広": 7438,
      "##ų": 7439,
      "##俗": 7440,
      "##彙": 7441,
      "##躍": 7442,
      "##📼": 7443,
      "##🍕": 7444,
      "##ե": 7445,
      "##գ": 7446,
      "##լ": 7447,
      "##豆": 7448,
      "##综": 7449,
      "##幅": 7450,
      "##泣": 7451,
      "##静": 7452,
      "##戟": 7453,
      "##놈": 7454,
      "##旗": 7455,
      "##운": 7456,
      "##些": 7457,
      "##龍": 7458,
      "##磁": 7459,
      "##頒": 7460,
      "##疑": 7461,
      "##天": 7462,
      "##ـ": 7463,
      "##룡": 7464,
      "##‰": 7465,
      "##ỏ": 7466,
      "##凄": 7467,
      "##迄": 7468,
      "##ể": 7469,
      "##助": 7470,
      "##航": 7471,
      "##規": 7472,
      "##映": 7473,
      "##監": 7474,
      "##솔": 7475,
      "##❮": 7476,
      "##⭐": 7477,
      "##═": 7478,
      "##╩": 7479,
      "##╝": 7480,
      "##星": 7481,
      "##번": 7482,
      "##快": 7483,
      "##복": 7484,
      "##析": 7485,
      "##杰": 7486,
      "##": 7487,
      "##將": 7488,
      "##王": 7489,
      "##범": 7490,
      "##절": 7491,
      "##협": 7492,
      "##枘": 7493,
      "##圆": 7494,
      "##凿": 7495,
      "##ᗜ": 7496,
      "##ˋ": 7497,
      "##쁘": 7498,
      "##ڌ": 7499,
      "##图": 7500,
      "##룰": 7501,
      "##避": 7502,
      "##ା": 7503,
      "##ୟ": 7504,
      "##般": 7505,
      "##参": 7506,
      "##": 7507,
      "##効": 7508,
      "##영": 7509,
      "##ῷ": 7510,
      "##̸": 7511,
      "##̢": 7512,
      "##̨": 7513,
      "##̀": 7514,
      "##̴": 7515,
      "##̕": 7516,
      "##̵": 7517,
      "##검": 7518,
      "##증": 7519,
      "##沈": 7520,
      "##庄": 7521,
      "##村": 7522,
      "##簾": 7523,
      "##聽": 7524,
      "##ủ": 7525,
      "##ና": 7526,
      "##ት": 7527,
      "##ぱ": 7528,
      "##暑": 7529,
      "##ন": 7530,
      "##平": 7531,
      "##위": 7532,
      "##⇓": 7533,
      "##乱": 7534,
      "##闘": 7535,
      "##編": 7536,
      "##赛": 7537,
      "##廣": 7538,
      "##포": 7539,
      "##츠": 7540,
      "##닷": 7541,
      "##갓": 7542,
      "##집": 7543,
      "##優": 7544,
      "##図": 7545,
      "##屈": 7546,
      "##途": 7547,
      "##께": 7548,
      "##ὼ": 7549,
      "##ः": 7550,
      "##뉴": 7551,
      "##軽": 7552,
      "##별": 7553,
      "##팅": 7554,
      "##엔": 7555,
      "##많": 7556,
      "##校": 7557,
      "##ế": 7558,
      "##ƨ": 7559,
      "##̷": 7560,
      "##련": 7561,
      "##警": 7562,
      "##麗": 7563,
      "##瓊": 7564,
      "##読": 7565,
      "##半": 7566,
      "##ۇ": 7567,
      "##≤": 7568,
      "##ọ": 7569,
      "##ƒ": 7570,
      "##♥": 7571,
      "##효": 7572,
      "##ẓ": 7573,
      "##🙏": 7574,
      "##ꦧ": 7575,
      "##ꦼ": 7576,
      "##ꦸ": 7577,
      "##ꦮ": 7578,
      "##ꦺ": 7579,
      "##ꦴ": 7580,
      "##ꦁ": 7581,
      "##ꦭ": 7582,
      "##ꦲ": 7583,
      "##ꦶ": 7584,
      "##ꦫ": 7585,
      "##ꦟ": 7586,
      "##ꦛ": 7587,
      "##ꦩ": 7588,
      "##ꦢ": 7589,
      "##ꦂ": 7590,
      "##ꦠ": 7591,
      "##ꦥ": 7592,
      "##ꦝ": 7593,
      "##害": 7594,
      "##감": 7595,
      "##撮": 7596,
      "##材": 7597,
      "##ʇ": 7598,
      "##誇": 7599,
      "##智": 7600,
      "##禮": 7601,
      "##抵": 7602,
      "##ხ": 7603,
      "##햇": 7604,
      "##ἱ": 7605,
      "##ヽ": 7606,
      "##🇨": 7607,
      "##🇳": 7608,
      "##世": 7609,
      "##牛": 7610,
      "##扱": 7611,
      "##ए": 7612,
      "##철": 7613,
      "##紀": 7614,
      "##賑": 7615,
      "##揺": 7616,
      "##ᴥ": 7617,
      "##ᴖ": 7618,
      "##泳": 7619,
      "##屿": 7620,
      "##己": 7621,
      "##義": 7622,
      "##固": 7623,
      "##其": 7624,
      "##龃": 7625,
      "##龉": 7626,
      "##而": 7627,
      "##难": 7628,
      "##": 7629,
      "##ू": 7630,
      "##ヲ": 7631,
      "##系": 7632,
      "##羊": 7633,
      "##벽": 7634,
      "##좆": 7635,
      "##ゼ": 7636,
      "##昔": 7637,
      "##ະ": 7638,
      "##ຊ": 7639,
      "##າ": 7640,
      "##ົ": 7641,
      "##ນ": 7642,
      "##筆": 7643,
      "##뽀": 7644,
      "##̍": 7645,
      "##잠": 7646,
      "##바": 7647,
      "##짓": 7648,
      "##말": 7649,
      "##능": 7650,
      "##¢": 7651,
      "##华": 7652,
      "##ấ": 7653,
      "##强": 7654,
      "##ơ": 7655,
      "##": 7656,
      "##ḡ": 7657,
      "##세": 7658,
      "##": 7659,
      "##ญ": 7660,
      "##웁": 7661,
      "##姓": 7662,
      "##缩": 7663,
      "##态": 7664,
      "##💥": 7665,
      "##福": 7666,
      "##府": 7667,
      "##ా": 7668,
      "##వ": 7669,
      "##ో": 7670,
      "##స": 7671,
      "##్": 7672,
      "##黒": 7673,
      "##亜": 7674,
      "##ợ": 7675,
      "##頁": 7676,
      "##承": 7677,
      "##恩": 7678,
      "##ி": 7679,
      "##ர": 7680,
      "##ு": 7681,
      "##க": 7682,
      "##ற": 7683,
      "##ள": 7684,
      "##챔": 7685,
      "##ῆ": 7686,
      "##ਦ": 7687,
      "##ਨ": 7688,
      "##碼": 7689,
      "##ὶ": 7690,
      "##喜": 7691,
      "##伤": 7692,
      "##跑": 7693,
      "##呂": 7694,
      "##떠": 7695,
      "##練": 7696,
      "##╯": 7697,
      "##注": 7698,
      "##控": 7699,
      "##ფ": 7700,
      "##უ": 7701,
      "##ლ": 7702,
      "##콧": 7703,
      "##ġ": 7704,
      "##江": 7705,
      "##釣": 7706,
      "##叟": 7707,
      "##済": 7708,
      "##燃": 7709,
      "##ớ": 7710,
      "##훼": 7711,
      "##손": 7712,
      "##ȋ": 7713,
      "##刺": 7714,
      "##儀": 7715,
      "##蛇": 7716,
      "##⚙": 7717,
      "##": 7718,
      "##녔": 7719,
      "##容": 7720,
      "##˥": 7721,
      "##셧": 7722,
      "##권": 7723,
      "##줄": 7724,
      "##글": 7725,
      "##방": 7726,
      "##랬": 7727,
      "##┕": 7728,
      "##▶": 7729,
      "##놓": 7730,
      "##末": 7731,
      "##秀": 7732,
      "##티": 7733,
      "##杯": 7734,
      "##德": 7735,
      "##均": 7736,
      "##ܐ": 7737,
      "##ܪ": 7738,
      "##ܓ": 7739,
      "##ܥ": 7740,
      "##ܢ": 7741,
      "##숙": 7742,
      "##잡": 7743,
      "##힌": 7744,
      "##菊": 7745,
      "##土": 7746,
      "##侵": 7747,
      "##襲": 7748,
      "##殺": 7749,
      "##憶": 7750,
      "##測": 7751,
      "##枝": 7752,
      "##芳": 7753,
      "##越": 7754,
      "##殊": 7755,
      "##召": 7756,
      "##喚": 7757,
      "##ļ": 7758,
      "##働": 7759,
      "##峡": 7760,
      "##품": 7761,
      "##총": 7762,
      "##락": 7763,
      "##✋": 7764,
      "##訳": 7765,
      "##永": 7766,
      "##烈": 7767,
      "##渡": 7768,
      "##評": 7769,
      "##ສ": 7770,
      "##ດ": 7771,
      "##霊": 7772,
      "##폐": 7773,
      "##桃": 7774,
      "##̩": 7775,
      "##換": 7776,
      "##ṯ": 7777,
      "##⌘": 7778,
      "##週": 7779,
      "##열": 7780,
      "##‡": 7781,
      "##怪": 7782,
      "##戻": 7783,
      "##孝": 7784,
      "##顺": 7785,
      "##қ": 7786,
      "##‬": 7787,
      "##ᅲ": 7788,
      "##視": 7789,
      "##ো": 7790,
      "##ঠ": 7791,
      "##晶": 7792,
      "##挙": 7793,
      "##么": 7794,
      "##你": 7795,
      "##决": 7796,
      "##ⵄ": 7797,
      "##ⵟ": 7798,
      "##ⵓ": 7799,
      "##ⴱ": 7800,
      "##̂": 7801,
      "##財": 7802,
      "##嫁": 7803,
      "##丘": 7804,
      "##消": 7805,
      "##づ": 7806,
      "##옥": 7807,
      "##ʜ": 7808,
      "##ᴏ": 7809,
      "##ᴛ": 7810,
      "##थ": 7811,
      "##ÿ": 7812,
      "##ħ": 7813,
      "##똑": 7814,
      "##酸": 7815,
      "##謝": 7816,
      "##슈": 7817,
      "##🇰": 7818,
      "##급": 7819,
      "##ŭ": 7820,
      "##吟": 7821,
      "##료": 7822,
      "##鳥": 7823,
      "##ǒ": 7824,
      "##먹": 7825,
      "##焚": 7826,
      "##청": 7827,
      "##͜": 7828,
      "##篤": 7829,
      "##病": 7830,
      "##勉": 7831,
      "##◕": 7832,
      "##燕": 7833,
      "##琼": 7834,
      "##党": 7835,
      "##史": 7836,
      "##점": 7837,
      "##吐": 7838,
      "##ེ": 7839,
      "##ན": 7840,
      "##ማ": 7841,
      "##ር": 7842,
      "##ኛ": 7843,
      "##є": 7844,
      "##ੈ": 7845,
      "##ਗ": 7846,
      "##ੋ": 7847,
      "##ਲ": 7848,
      "##ਸ": 7849,
      "##렇": 7850,
      "##条": 7851,
      "##罵": 7852,
      "##戏": 7853,
      "##ѽ": 7854,
      "##ֶ": 7855,
      "##ძ": 7856,
      "##옹": 7857,
      "##낸": 7858,
      "##닌": 7859,
      "##⚔": 7860,
      "##守": 7861,
      "##ଣ": 7862,
      "##√": 7863,
      "##场": 7864,
      "##ǜ": 7865,
      "##볼": 7866,
      "##ɯ": 7867,
      "##⃣": 7868,
      "##ԛ": 7869,
      "##▼": 7870,
      "##션": 7871,
      "##庭": 7872,
      "##源": 7873,
      "##ặ": 7874,
      "##ˀ": 7875,
      "##ỉ": 7876,
      "##林": 7877,
      "##麓": 7878,
      "##监": 7879,
      "##😳": 7880,
      "##😲": 7881,
      "##😡": 7882,
      "##😱": 7883,
      "##⋕": 7884,
      "##簡": 7885,
      "##문": 7886,
      "##벤": 7887,
      "##승": 7888,
      "##텔": 7889,
      "##顯": 7890,
      "##艦": 7891,
      "##늘": 7892,
      "##略": 7893,
      "##衝": 7894,
      "##匹": 7895,
      "##微": 7896,
      "##湛": 7897,
      "##担": 7898,
      "##ꦔ": 7899,
      "##ฉ": 7900,
      "##舆": 7901,
      "##ᅳ": 7902,
      "##灘": 7903,
      "##庫": 7904,
      "##壩": 7905,
      "##ὴ": 7906,
      "##號": 7907,
      "##尾": 7908,
      "##背": 7909,
      "##添": 7910,
      "##妻": 7911,
      "##房": 7912,
      "##♡": 7913,
      "##技": 7914,
      "##吸": 7915,
      "##速": 7916,
      "##换": 7917,
      "##脚": 7918,
      "##窝": 7919,
      "##迂": 7920,
      "##东": 7921,
      "##劝": 7922,
      "##架": 7923,
      "##줘": 7924,
      "##್": 7925,
      "##ಯ": 7926,
      "##ქ": 7927,
      "##충": 7928,
      "##經": 7929,
      "##莉": 7930,
      "##추": 7931,
      "##亿": 7932,
      "##̘": 7933,
      "##̮": 7934,
      "##͎": 7935,
      "##̜": 7936,
      "##̦": 7937,
      "##͇": 7938,
      "##̱": 7939,
      "##̼": 7940,
      "##͙": 7941,
      "##͈": 7942,
      "##̻": 7943,
      "##拠": 7944,
      "##詳": 7945,
      "##細": 7946,
      "##長": 7947,
      "##晒": 7948,
      "##得": 7949,
      "##쉬": 7950,
      "##학": 7951,
      "##企": 7952,
      "##⁊": 7953,
      "##ˌ": 7954,
      "##侍": 7955,
      "##ὐ": 7956,
      "##ہ": 7957,
      "##居": 7958,
      "##候": 7959,
      "##潜": 7960,
      "##翼": 7961,
      "##夷": 7962,
      "##迤": 7963,
      "##외": 7964,
      "##汽": 7965,
      "##运": 7966,
      "##站": 7967,
      "##執": 7968,
      "##ᴉ": 7969,
      "##离": 7970,
      "##则": 7971,
      "##时": 7972,
      "##압": 7973,
      "##皆": 7974,
      "##帶": 7975,
      "##萬": 7976,
      "##餘": 7977,
      "##稽": 7978,
      "##蛛": 7979,
      "##￼": 7980,
      "##श": 7981,
      "##描": 7982,
      "##랙": 7983,
      "##넛": 7984,
      "##儒": 7985,
      "##좋": 7986,
      "##斯": 7987,
      "##匣": 7988,
      "##話": 7989,
      "##ک": 7990,
      "##飞": 7991,
      "##炮": 7992,
      "##판": 7993,
      "##": 7994,
      "##浜": 7995,
      "##腚": 7996,
      "##끝": 7997,
      "##指": 7998,
      "##崎": 7999,
      "##遂": 8000,
      "##七": 8001,
      "##კ": 8002,
      "##ვ": 8003,
      "##그": 8004,
      "##∂": 8005,
      "##ๆ": 8006,
      "##゚": 8007,
      "##냥": 8008,
      "##ⲁ": 8009,
      "##ⲩ": 8010,
      "##ⲧ": 8011,
      "##帆": 8012,
      "##닐": 8013,
      "##乾": 8014,
      "##坤": 8015,
      "##箱": 8016,
      "##毎": 8017,
      "##🐸": 8018,
      "##ທ": 8019,
      "##ລ": 8020,
      "##ັ": 8021,
      "##臺": 8022,
      "##升": 8023,
      "##ű": 8024,
      "##止": 8025,
      "##払": 8026,
      "##ố": 8027,
      "##誕": 8028,
      "##ў": 8029,
      "##ම": 8030,
      "##්": 8031,
      "##ප": 8032,
      "##ා": 8033,
      "##私": 8034,
      "##憤": 8035,
      "##렬": 8036,
      "##ň": 8037,
      "##壮": 8038,
      "##津": 8039,
      "##旅": 8040,
      "##쨍": 8041,
      "##歲": 8042,
      "##墓": 8043,
      "##ⲛ": 8044,
      "##ⲓ": 8045,
      "##ⲥ": 8046,
      "##ⲙ": 8047,
      "##利": 8048,
      "##계": 8049,
      "##豪": 8050,
      "##締": 8051,
      "##粉": 8052,
      "##丝": 8053,
      "##票": 8054,
      "##議": 8055,
      "##妙": 8056,
      "##旧": 8057,
      "##춘": 8058,
      "##肋": 8059,
      "##損": 8060,
      "##鑑": 8061,
      "##ꜥ": 8062,
      "##种": 8063,
      "##児": 8064,
      "##童": 8065,
      "##노": 8066,
      "##継": 8067,
      "##빵": 8068,
      "##项": 8069,
      "##ồ": 8070,
      "##尔": 8071,
      "##沙": 8072,
      "##誰": 8073,
      "##箇": 8074,
      "##따": 8075,
      "##裳": 8076,
      "##🔃": 8077,
      "##ằ": 8078,
      "##皮": 8079,
      "##🚝": 8080,
      "##ᒋ": 8081,
      "##ᓴ": 8082,
      "##廊": 8083,
      "##呼": 8084,
      "##ෙ": 8085,
      "##ග": 8086,
      "##ෝ": 8087,
      "##ල": 8088,
      "##ස": 8089,
      "##孩": 8090,
      "##偷": 8091,
      "##ǃ": 8092,
      "##蠛": 8093,
      "##蝶": 8094,
      "##ซ": 8095,
      "##링": 8096,
      "##좀": 8097,
      "##떻": 8098,
      "##黑": 8099,
      "##齒": 8100,
      "##〇": 8101,
      "##又": 8102,
      "##恠": 8103,
      "##郎": 8104,
      "##렸": 8105,
      "##험": 8106,
      "##ҷ": 8107,
      "##ӣ": 8108,
      "##印": 8109,
      "##扉": 8110,
      "##章": 8111,
      "##講": 8112,
      "##ವ": 8113,
      "##ೋ": 8114,
      "##ಸ": 8115,
      "##巨": 8116,
      "##伟": 8117,
      "##𐑱": 8118,
      "##𐑝": 8119,
      "##𐑾": 8120,
      "##𐑯": 8121,
      "##非": 8122,
      "##욕": 8123,
      "##设": 8124,
      "##页": 8125,
      "##义": 8126,
      "##ꮎ": 8127,
      "##ꮟ": 8128,
      "##于": 8129,
      "##車": 8130,
      "##涛": 8131,
      "##六": 8132,
      "##符": 8133,
      "##類": 8134,
      "##鉄": 8135,
      "##宵": 8136,
      "##𐑹": 8137,
      "##𐑰": 8138,
      "##ે": 8139,
      "##ગ": 8140,
      "##લ": 8141,
      "##ો": 8142,
      "##સ": 8143,
      "##貧": 8144,
      "##困": 8145,
      "##頃": 8146,
      "##署": 8147,
      "##밍": 8148,
      "##联": 8149,
      "##휭": 8150,
      "##팀": 8151,
      "##嘩": 8152,
      "##履": 8153,
      "##計": 8154,
      "##導": 8155,
      "##🇹": 8156,
      "##ր": 8157,
      "##ց": 8158,
      "##խ": 8159,
      "##ং": 8160,
      "##ল": 8161,
      "##蟹": 8162,
      "##封": 8163,
      "##🚨": 8164,
      "##龙": 8165,
      "##绥": 8166,
      "##롯": 8167,
      "##◔": 8168,
      "##◡": 8169,
      "##✿": 8170,
      "##꾸": 8171,
      "##👶": 8172,
      "##혐": 8173,
      "##內": 8174,
      "##ј": 8175,
      "##礎": 8176,
      "##算": 8177,
      "##ි": 8178,
      "##ං": 8179,
      "##හ": 8180,
      "##গ": 8181,
      "##স": 8182,
      "##實": 8183,
      "##辭": 8184,
      "##¥": 8185,
      "##ฏ": 8186,
      "##교": 8187,
      "##濺": 8188,
      "##弁": 8189,
      "##ɒ": 8190,
      "##幾": 8191,
      "##¡": 8192,
      "##ٹ": 8193,
      "##巴": 8194,
      "##培": 8195,
      "##쯧": 8196,
      "##🌟": 8197,
      "##🌍": 8198,
      "##🚀": 8199,
      "##쳐": 8200,
      "##琴": 8201,
      "##血": 8202,
      "##硬": 8203,
      "##比": 8204,
      "##較": 8205,
      "##絆": 8206,
      "##ಡ": 8207,
      "##": 8208,
      "##鸡": 8209,
      "##알": 8210,
      "##쉽": 8211,
      "##級": 8212,
      "##才": 8213,
      "##緑": 8214,
      "##椅": 8215,
      "##혜": 8216,
      "##貼": 8217,
      "##捉": 8218,
      "##賊": 8219,
      "##騒": 8220,
      "##聯": 8221,
      "##꿔": 8222,
      "##ტ": 8223,
      "##შ": 8224,
      "##涵": 8225,
      "##盖": 8226,
      "##阶": 8227,
      "##层": 8228,
      "##幹": 8229,
      "##돌": 8230,
      "##ἰ": 8231,
      "##核": 8232,
      "##ꜣ": 8233,
      "##메": 8234,
      "##李": 8235,
      "##毛": 8236,
      "##士": 8237,
      "##ƕ": 8238,
      "##ȓ": 8239,
      "##ቋ": 8240,
      "##ን": 8241,
      "##尻": 8242,
      "##ख": 8243,
      "##氷": 8244,
      "##株": 8245,
      "##丁": 8246,
      "##막": 8247,
      "##掛": 8248,
      "##ӧ": 8249,
      "##ʖ": 8250,
      "##먼": 8251,
      "##ृ": 8252,
      "##끈": 8253,
      "##ֿ": 8254,
      "##پ": 8255,
      "##首": 8256,
      "##类": 8257,
      "##亮": 8258,
      "##门": 8259,
      "##육": 8260,
      "##障": 8261,
      "##箝": 8262,
      "##ᒪ": 8263,
      "##俳": 8264,
      "##←": 8265,
      "##🦆": 8266,
      "##巾": 8267,
      "##體": 8268,
      "##ɂ": 8269,
      "##维": 8270,
      "##ড": 8271,
      "##ও": 8272,
      "##騎": 8273,
      "##室": 8274,
      "##џ": 8275,
      "##鏡": 8276,
      "##魅": 8277,
      "##च": 8278,
      "##ሐ": 8279,
      "##መ": 8280,
      "##ድ": 8281,
      "##崽": 8282,
      "##◆": 8283,
      "##錨": 8284,
      "##괴": 8285,
      "##╦": 8286,
      "##╗": 8287,
      "##堂": 8288,
      "##🤔": 8289,
      "##曜": 8290,
      "##ĝ": 8291,
      "##봣": 8292,
      "##詰": 8293,
      "##禧": 8294,
      "##后": 8295,
      "##ུ": 8296,
      "##ས": 8297,
      "##🍺": 8298,
      "##울": 8299,
      "##额": 8300,
      "##픈": 8301,
      "##談": 8302,
      "##∞": 8303,
      "##关": 8304,
      "##谴": 8305,
      "##责": 8306,
      "##对": 8307,
      "##救": 8308,
      "##护": 8309,
      "##众": 8310,
      "##껄": 8311,
      "##썩": 8312,
      "##愚": 8313,
      "##불": 8314,
      "##髢": 8315,
      "##ử": 8316,
      "##ᓄ": 8317,
      "##ᒃ": 8318,
      "##룩": 8319,
      "##改": 8320,
      "##励": 8321,
      "##湿": 8322,
      "##ொ": 8323,
      "##ழ": 8324,
      "##ய": 8325,
      "##ல": 8326,
      "##텐": 8327,
      "##伸": 8328,
      "##両": 8329,
      "##ර": 8330,
      "##머": 8331,
      "##御": 8332,
      "##益": 8333,
      "##驼": 8334,
      "##勇": 8335,
      "##կ": 8336,
      "##👩": 8337,
      "##怕": 8338,
      "##任": 8339,
      "##皇": 8340,
      "##冷": 8341,
      "##漠": 8342,
      "##这": 8343,
      "##ậ": 8344,
      "##弾": 8345,
      "##范": 8346,
      "##围": 8347,
      "##已": 8348,
      "##经": 8349,
      "##答": 8350,
      "##问": 8351,
      "##题": 8352,
      "##弘": 8353,
      "##垃": 8354,
      "##圾": 8355,
      "##发": 8356,
      "##貞": 8357,
      "##슴": 8358,
      "##령": 8359,
      "##冻": 8360,
      "##ৌ": 8361,
      "##দ": 8362,
      "##": 8363,
      "##违": 8364,
      "##纪": 8365,
      "##悪": 8366,
      "##®": 8367,
      "##巧": 8368,
      "##披": 8369,
      "##陳": 8370,
      "##唯": 8371,
      "##央": 8372,
      "##켰": 8373,
      "##爵": 8374,
      "##ღ": 8375,
      "##ྐ": 8376,
      "##브": 8377,
      "##贴": 8378,
      "##九": 8379,
      "##妖": 8380,
      "##滩": 8381,
      "##库": 8382,
      "##坝": 8383,
      "##꼼": 8384,
      "##朗": 8385,
      "##膏": 8386,
      "##訟": 8387,
      "##🌞": 8388,
      "##๊": 8389,
      "##ḵ": 8390,
      "##∑": 8391,
      "##ⴻ": 8392,
      "##ⵜ": 8393,
      "##爾": 8394,
      "##慈": 8395,
      "##満": 8396,
      "##컬": 8397,
      "##🧐": 8398,
      "##😒": 8399,
      "##帯": 8400,
      "##傾": 8401,
      "##斌": 8402,
      "##틀": 8403,
      "##鴉": 8404,
      "##宴": 8405,
      "##🔎": 8406,
      "##猫": 8407,
      "##术": 8408,
      "##馆": 8409,
      "##딨": 8410,
      "##復": 8411,
      "##될": 8412,
      "##索": 8413,
      "##絡": 8414,
      "##ῧ": 8415,
      "##膳": 8416,
      "##🌹": 8417,
      "##🖤": 8418,
      "##😂": 8419,
      "##嚢": 8420,
      "##胞": 8421,
      "##軒": 8422,
      "##臣": 8423,
      "##朝": 8424,
      "##싼": 8425,
      "##識": 8426,
      "##갔": 8427,
      "##،": 8428,
      "##ヌ": 8429,
      "##博": 8430,
      "##힐": 8431,
      "##額": 8432,
      "##佗": 8433,
      "##磨": 8434,
      "##辰": 8435,
      "##님": 8436,
      "##즘": 8437,
      "##唇": 8438,
      "##噛": 8439,
      "##粋": 8440,
      "##閻": 8441,
      "##猿": 8442,
      "##实": 8443,
      "##𓏥": 8444,
      "##𓋴": 8445,
      "##𓃀": 8446,
      "##𓅃": 8447,
      "##𓇼": 8448,
      "##𓇳": 8449,
      "##𓆑": 8450,
      "##ⲟ": 8451,
      "##ռ": 8452,
      "##ն": 8453,
      "##ի": 8454,
      "##염": 8455,
      "##": 8456,
      "##跋": 8457,
      "##揍": 8458,
      "##𥢄": 8459,
      "##ʀ": 8460,
      "##打": 8461,
      "##渾": 8462,
      "##具": 8463,
      "##𓊀": 8464,
      "##웠": 8465,
      "##歪": 8466,
      "##돈": 8467,
      "##녕": 8468,
      "##ਂ": 8469,
      "##ਰ": 8470,
      "##壇": 8471,
      "##ິ": 8472,
      "##ປ": 8473,
      "##ໄ": 8474,
      "##ຕ": 8475,
      "##֫": 8476,
      "##很": 8477,
      "##ເ": 8478,
      "##寶": 8479,
      "##眠": 8480,
      "##մ": 8481,
      "##征": 8482,
      "##農": 8483,
      "##片": 8484,
      "##覚": 8485,
      "##럭": 8486,
      "##ۈ": 8487,
      "##鮑": 8488,
      "##魚": 8489,
      "##ಥ": 8490,
      "##익": 8491,
      "##雞": 8492,
      "##鸞": 8493,
      "##殿": 8494,
      "##액": 8495,
      "##綱": 8496,
      "##ὁ": 8497,
      "##ắ": 8498,
      "##칙": 8499,
      "##聖": 8500,
      "##鸦": 8501,
      "##ῇ": 8502,
      "##🇲": 8503,
      "##🇧": 8504,
      "##閣": 8505,
      "##樓": 8506,
      "##뻣": 8507,
      "##脈": 8508,
      "##興": 8509,
      "##伽": 8510,
      "##紙": 8511,
      "##垦": 8512,
      "##总": 8513,
      "##港": 8514,
      "##务": 8515,
      "##ꦱ": 8516,
      "##帝": 8517,
      "##弥": 8518,
      "##嬪": 8519,
      "##錄": 8520,
      "##ᖏ": 8521,
      "##ᒻ": 8522,
      "##還": 8523,
      "##根": 8524,
      "##‛": 8525,
      "##ె": 8526,
      "##గ": 8527,
      "##ల": 8528,
      "##ښ": 8529,
      "##則": 8530,
      "##ở": 8531,
      "##徒": 8532,
      "##请": 8533,
      "##戳": 8534,
      "##优": 8535,
      "##琊": 8536,
      "##榜": 8537,
      "##✕": 8538,
      "##✪": 8539,
      "##宮": 8540,
      "##백": 8541,
      "##玩": 8542,
      "##泥": 8543,
      "##瀚": 8544,
      "##僚": 8545,
      "##覧": 8546,
      "##牌": 8547,
      "##劈": 8548,
      "##柴": 8549,
      "##胡": 8550,
      "##≠": 8551,
      "##🇷": 8552,
      "##램": 8553,
      "##ད": 8554,
      "##池": 8555,
      "##突": 8556,
      "##疾": 8557,
      "##患": 8558,
      "##误": 8559,
      "##导": 8560,
      "##无": 8561,
      "##廠": 8562,
      "##쳤": 8563,
      "##써": 8564,
      "##竜": 8565,
      "##갈": 8566,
      "##薇": 8567,
      "##🏈": 8568,
      "##🔥": 8569,
      "##丛": 8570,
      "##压": 8571,
      "##抑": 8572,
      "##久": 8573,
      "##宅": 8574,
      "##◎": 8575,
      "##ṁ": 8576,
      "##愕": 8577,
      "##溢": 8578,
      "##♠": 8579,
      "##য": 8580,
      "##噴": 8581,
      "##베": 8582,
      "##寄": 8583,
      "##妃": 8584,
      "##纏": 8585,
      "##ম": 8586,
      "##ু": 8587,
      "##羽": 8588,
      "##蔵": 8589,
      "##ូ": 8590,
      "##ី": 8591,
      "##ⲱ": 8592,
      "##팬": 8593,
      "##싸": 8594,
      "##收": 8595,
      "##税": 8596,
      "##挑": 8597,
      "##敬": 8598,
      "##ự": 8599,
      "##봉": 8600,
      "##恥": 8601,
      "##迦": 8602,
      "##雑": 8603,
      "##商": 8604,
      "##旋": 8605,
      "##律": 8606,
      "##膝": 8607,
      "##如": 8608,
      "##给": 8609,
      "##红": 8610,
      "##械": 8611,
      "##达": 8612,
      "##按": 8613,
      "##弹": 8614,
      "##킹": 8615,
      "##ச": 8616,
      "##買": 8617,
      "##袋": 8618,
      "##壁": 8619,
      "##洗": 8620,
      "##輩": 8621,
      "##ḱ": 8622,
      "##鄉": 8623,
      "##濟": 8624,
      "##搶": 8625,
      "##択": 8626,
      "##🚴": 8627,
      "##犬": 8628,
      "##涯": 8629,
      "##ൂ": 8630,
      "##പ": 8631,
      "##ട": 8632,
      "##ം": 8633,
      "##𐑨": 8634,
      "##𐑟": 8635,
      "##寒": 8636,
      "##鈡": 8637,
      "##경": 8638,
      "##齋": 8639,
      "##짝": 8640,
      "##饗": 8641,
      "##✱": 8642,
      "##霸": 8643,
      "##쁜": 8644,
      "##排": 8645,
      "##她": 8646,
      "##别": 8647,
      "##敢": 8648,
      "##抢": 8649,
      "##💚": 8650,
      "##💙": 8651,
      "##💜": 8652,
      "##邊": 8653,
      "##唱": 8654,
      "##貓": 8655,
      "##ᙠ": 8656,
      "##佇": 8657,
      "##ʹ": 8658,
      "##왕": 8659,
      "##淦": 8660,
      "##ӡ": 8661,
      "##咖": 8662,
      "##啡": 8663,
      "##∆": 8664,
      "##桥": 8665,
      "##邸": 8666,
      "##減": 8667,
      "##박": 8668,
      "##聋": 8669,
      "##髪": 8670,
      "##়": 8671,
      "##責": 8672,
      "##隠": 8673,
      "##蓝": 8674,
      "##牙": 8675,
      "##柄": 8676,
      "##庁": 8677,
      "##擁": 8678,
      "##範": 8679,
      "##圍": 8680,
      "##宛": 8681,
      "##狒": 8682,
      "##차": 8683,
      "##鳩": 8684,
      "##🤫": 8685,
      "##ƣ": 8686,
      "##짐": 8687,
      "##欽": 8688,
      "##껀": 8689,
      "##怀": 8690,
      "##阳": 8691,
      "##县": 8692,
      "##埋": 8693,
      "##尽": 8694,
      "##吾": 8695,
      "##矣": 8696,
      "##拭": 8697,
      "##裡": 8698,
      "##蓋": 8699,
      "##幼": 8700,
      "##ĵ": 8701,
      "##记": 8702,
      "##僕": 8703,
      "##ჭ": 8704,
      "##겼": 8705,
      "##爬": 8706,
      "##慰": 8707,
      "##碑": 8708,
      "##✈": 8709,
      "##⇒": 8710,
      "##籍": 8711,
      "##ব": 8712,
      "##易": 8713,
      "##轨": 8714,
      "##魔": 8715,
      "##⠀": 8716,
      "##还": 8717,
      "##ぢ": 8718,
      "##齢": 8719,
      "##胎": 8720,
      "##慮": 8721,
      "##混": 8722,
      "##马": 8723,
      "##奖": 8724,
      "##╳": 8725,
      "##敌": 8726,
      "##쿵": 8727,
      "##費": 8728,
      "##ṳ": 8729,
      "##賀": 8730,
      "##篝": 8731,
      "##ಜ": 8732,
      "##ಞ": 8733,
      "##덴": 8734,
      "##徐": 8735,
      "##吳": 8736,
      "##庶": 8737,
      "##泉": 8738,
      "##ꠦ": 8739,
      "##奋": 8740,
      "##斗": 8741,
      "##宇": 8742,
      "##宙": 8743,
      "##땐": 8744,
      "##ฝ": 8745,
      "##钧": 8746,
      "##∈": 8747,
      "##": 8748,
      "##充": 8749,
      "##锋": 8750,
      "##搞": 8751,
      "##ʍ": 8752,
      "##涧": 8753,
      "##繋": 8754,
      "##ᴠ": 8755,
      "##ᴇ": 8756,
      "##ֻ": 8757,
      "##엄": 8758,
      "##딸": 8759,
      "##证": 8760,
      "##琪": 8761,
      "##龄": 8762,
      "##ῃ": 8763,
      "##욱": 8764,
      "##😄": 8765,
      "##环": 8766,
      "##似": 8767,
      "##併": 8768,
      "##토": 8769,
      "##胸": 8770,
      "##쌍": 8771,
      "##鲸": 8772,
      "##灣": 8773,
      "##鈍": 8774,
      "##ɟ": 8775,
      "##ʝ": 8776,
      "##戈": 8777,
      "##낀": 8778,
      "##ە": 8779,
      "##딘": 8780,
      "##봤": 8781,
      "##增": 8782,
      "##插": 8783,
      "##適": 8784,
      "##채": 8785,
      "##☁": 8786,
      "##撾": 8787,
      "##臓": 8788,
      "##鼓": 8789,
      "##꾀": 8790,
      "##۵": 8791,
      "##렀": 8792,
      "##哥": 8793,
      "##纯": 8794,
      "##爷": 8795,
      "##🍗": 8796,
      "##🥫": 8797,
      "##🥗": 8798,
      "##𥤪": 8799,
      "##긋": 8800,
      "##亭": 8801,
      "##茵": 8802,
      "##😃": 8803,
      "##😁": 8804,
      "##😅": 8805,
      "##錯": 8806,
      "##●": 8807,
      "##施": 8808,
      "##訪": 8809,
      "##െ": 8810,
      "##ഗ": 8811,
      "##ല": 8812,
      "##『": 8813,
      "##ೆ": 8814,
      "##ಗ": 8815,
      "##ೊ": 8816,
      "##ಲ": 8817,
      "##爲": 8818,
      "##邑": 8819,
      "##舊": 8820,
      "##矛": 8821,
      "##盾": 8822,
      "##텀": 8823,
      "##頼": 8824,
      "##肠": 8825,
      "##ぬ": 8826,
      "##►": 8827,
      "##嘴": 8828,
      "##團": 8829,
      "##副": 8830,
      "##哲": 8831,
      "##駅": 8832,
      "##属": 8833,
      "##亚": 8834,
      "##겁": 8835,
      "##앨": 8836,
      "##淑": 8837,
      "##淨": 8838,
      "##̪": 8839,
      "##畜": 8840,
      "##腕": 8841,
      "##闲": 8842,
      "##십": 8843,
      "##△": 8844,
      "##📽": 8845,
      "##茶": 8846,
      "##褐": 8847,
      "##贵": 8848,
      "##电": 8849,
      "##废": 8850,
      "##污": 8851,
      "##∗": 8852,
      "##⌐": 8853,
      "##콜": 8854,
      "##🙂": 8855,
      "##墮": 8856,
      "##髻": 8857,
      "##줌": 8858,
      "##냈": 8859,
      "##✮": 8860,
      "##ổ": 8861,
      "##곡": 8862,
      "##婦": 8863,
      "##费": 8864,
      "##稍": 8865,
      "##惡": 8866,
      "##肌": 8867,
      "##塗": 8868,
      "##徵": 8869,
      "##狭": 8870,
      "##辛": 8871,
      "##": 8872,
      "##岳": 8873,
      "##焦": 8874,
      "##詐": 8875,
      "##欺": 8876,
      "##項": 8877,
      "##삐": 8878,
      "##帮": 8879,
      "##須": 8880,
      "##ौ": 8881,
      "##ಠ": 8882,
      "##审": 8883,
      "##∮": 8884,
      "##❯": 8885,
      "##∧": 8886,
      "##젝": 8887,
      "##⎇": 8888,
      "##ြ": 8889,
      "##န": 8890,
      "##်": 8891,
      "##မ": 8892,
      "##ာ": 8893,
      "##ဘ": 8894,
      "##သ": 8895,
      "##砂": 8896,
      "##ỳ": 8897,
      "##亲": 8898,
      "##憾": 8899,
      "##": 8900,
      "##现": 8901,
      "##举": 8902,
      "##办": 8903,
      "##ף": 8904,
      "##浪": 8905,
      "##푸": 8906,
      "##蝦": 8907,
      "##凌": 8908,
      "##̡": 8909,
      "##͚": 8910,
      "##̫": 8911,
      "##̟": 8912,
      "##̭": 8913,
      "##̰": 8914,
      "##͕": 8915,
      "##̠": 8916,
      "##͓": 8917,
      "##̳": 8918,
      "##͘": 8919,
      "##̬": 8920,
      "##̗": 8921,
      "##̖": 8922,
      "##͍": 8923,
      "##̹": 8924,
      "##͞": 8925,
      "##͔": 8926,
      "##͖": 8927,
      "##͝": 8928,
      "##促": 8929,
      "##処": 8930,
      "##羅": 8931,
      "##於": 8932,
      "##ĉ": 8933,
      "##랍": 8934,
      "##✨": 8935,
      "##鏞": 8936,
      "##젤": 8937,
      "##ꠃ": 8938,
      "##ǣ": 8939,
      "##顶": 8940,
      "##订": 8941,
      "##़": 8942,
      "##鉅": 8943,
      "##屬": 8944,
      "##批": 8945,
      "##싶": 8946,
      "##투": 8947,
      "##ṉ": 8948,
      "##른": 8949,
      "##叭": 8950,
      "##▬": 8951,
      "##뜨": 8952,
      "##浬": 8953,
      "##ⵡ": 8954,
      "##ⵏ": 8955,
      "##ⴰ": 8956,
      "##ⵙ": 8957,
      "##揃": 8958,
      "##🇦": 8959,
      "##콩": 8960,
      "##ષ": 8961,
      "##兮": 8962,
      "##누": 8963,
      "##꺼": 8964,
      "##풀": 8965,
      "##🙈": 8966,
      "##🙉": 8967,
      "##🙊": 8968,
      "##ɥ": 8969,
      "##皃": 8970,
      "##遭": 8971,
      "##遇": 8972,
      "##异": 8973,
      "##ި": 8974,
      "##ެ": 8975,
      "##ބ": 8976,
      "##鼻": 8977,
      "##淳": 8978,
      "##零": 8979,
      "##֛": 8980,
      "##코": 8981,
      "##鹿": 8982,
      "##ә": 8983,
      "##맙": 8984,
      "##‹": 8985,
      "##결": 8986,
      "##ầ": 8987,
      "##【": 8988,
      "##砲": 8989,
      "##╮": 8990,
      "##腰": 8991,
      "##稲": 8992,
      "##雅": 8993,
      "##袖": 8994,
      "##ŷ": 8995,
      "##罗": 8996,
      "##創": 8997,
      "##欲": 8998,
      "##祓": 8999,
      "##뜻": 9000,
      "##瞬": 9001,
      "##涼": 9002,
      "##🕊": 9003,
      "##靠": 9004,
      "##脳": 9005,
      "##裏": 9006,
      "##條": 9007,
      "##摘": 9008,
      "##蒜": 9009,
      "##老": 9010,
      "##儿": 9011,
      "##ἵ": 9012,
      "##釗": 9013,
      "##燮": 9014,
      "##इ": 9015,
      "##殖": 9016,
      "##浦": 9017,
      "##頬": 9018,
      "##緩": 9019,
      "##甸": 9020,
      "##疆": 9021,
      "##ೀ": 9022,
      "##듯": 9023,
      "##찾": 9024,
      "##漢": 9025,
      "##譯": 9026,
      "##ਤ": 9027,
      "##宗": 9028,
      "##ꠖ": 9029,
      "##ঞ": 9030,
      "##災": 9031,
      "##덤": 9032,
      "##ଂ": 9033,
      "##କ": 9034,
      "##୍": 9035,
      "##ର": 9036,
      "##ନ": 9037,
      "##ତ": 9038,
      "##ି": 9039,
      "##빛": 9040,
      "##粒": 9041,
      "##累": 9042,
      "##찍": 9043,
      "##떤": 9044,
      "##稼": 9045,
      "##😔": 9046,
      "##ލ": 9047,
      "##މ": 9048,
      "##ު": 9049,
      "##ᓯ": 9050,
      "##ᓂ": 9051,
      "##ᕈ": 9052,
      "##酉": 9053,
      "##變": 9054,
      "##广": 9055,
      "##ḳ": 9056,
      "##团": 9057,
      "##结": 9058,
      "##😺": 9059,
      "##😸": 9060,
      "##😹": 9061,
      "##😽": 9062,
      "##😻": 9063,
      "##😿": 9064,
      "##😾": 9065,
      "##😼": 9066,
      "##🙀": 9067,
      "##ँ": 9068,
      "##ľ": 9069,
      "##线": 9070,
      "##阅": 9071,
      "##读": 9072,
      "##錫": 9073,
      "##謨": 9074,
      "##ཇ": 9075,
      "##འ": 9076,
      "##誤": 9077,
      "##𥢊": 9078,
      "##焉": 9079,
      "##终": 9080,
      "##柱": 9081,
      "##१": 9082,
      "##蚕": 9083,
      "##各": 9084,
      "##仆": 9085,
      "##击": 9086,
      "##查": 9087,
      "##澤": 9088,
      "##丟": 9089,
      "##沒": 9090,
      "##錢": 9091,
      "##拿": 9092,
      "##转": 9093,
      "##ާ": 9094,
      "##އ": 9095,
      "##ޯ": 9096,
      "##滅": 9097,
      "##❍": 9098,
      "##總": 9099,
      "##點": 9100,
      "##懲": 9101,
      "##戒": 9102,
      "##疲": 9103,
      "##喪": 9104,
      "##ⲏ": 9105,
      "##陷": 9106,
      "##阱": 9107,
      "##抓": 9108,
      "##傻": 9109,
      "##瓶": 9110,
      "##綺": 9111,
      "##掩": 9112,
      "##끔": 9113,
      "##卫": 9114,
      "##應": 9115,
      "##ՠ": 9116,
      "##禁": 9117,
      "##∀": 9118,
      "##侯": 9119,
      "##곽": 9120,
      "##韓": 9121,
      "##붙": 9122,
      "##ӕ": 9123,
      "##๙": 9124,
      "##复": 9125,
      "##٪": 9126,
      "##曼": 9127,
      "##ὺ": 9128,
      "##該": 9129,
      "##從": 9130,
      "##此": 9131,
      "##耐": 9132,
      "##ฟ": 9133,
      "##씸": 9134,
      "##討": 9135,
      "##絞": 9136,
      "##順": 9137,
      "##ओ": 9138,
      "##総": 9139,
      "##欠": 9140,
      "##ੇ": 9141,
      "##赤": 9142,
      "##규": 9143,
      "##魂": 9144,
      "##踊": 9145,
      "##阻": 9146,
      "##𥢈": 9147,
      "##垢": 9148,
      "##ἶ": 9149,
      "##🐺": 9150,
      "##仁": 9151,
      "##ക": 9152,
      "##ന": 9153,
      "##ു": 9154,
      "##ڃ": 9155,
      "##🎉": 9156,
      "##單": 9157,
      "##ʽ": 9158,
      "##妈": 9159,
      "##✍": 9160,
      "##織": 9161,
      "##远": 9162,
      "##銀": 9163,
      "##际": 9164,
      "##靈": 9165,
      "##游": 9166,
      "##蔡": 9167,
      "##쿨": 9168,
      "##ெ": 9169,
      "##새": 9170,
      "##ڑ": 9171,
      "##👍": 9172,
      "##ϊ": 9173,
      "##착": 9174,
      "##ூ": 9175,
      "##ை": 9176,
      "##ᄋ": 9177,
      "##ப": 9178,
      "##ட": 9179,
      "##ἴ": 9180,
      "##伊": 9181,
      "##歯": 9182,
      "##弟": 9183,
      "##徳": 9184,
      "##섭": 9185,
      "##뛰": 9186,
      "##탑": 9187,
      "##ǚ": 9188,
      "##井": 9189,
      "##哉": 9190,
      "##̺": 9191,
      "##錬": 9192,
      "##윤": 9193,
      "##ʂ": 9194,
      "##ṓ": 9195,
      "##초": 9196,
      "##등": 9197,
      "##飽": 9198,
      "##许": 9199,
      "##🏿": 9200,
      "##樹": 9201,
      "##ɖ": 9202,
      "##ɽ": 9203,
      "##최": 9204,
      "##강": 9205,
      "##卿": 9206,
      "##ᛁ": 9207,
      "##ᛟ": 9208,
      "##ᛚ": 9209,
      "##ᚾ": 9210,
      "##ᚱ": 9211,
      "##∫": 9212,
      "##났": 9213,
      "##향": 9214,
      "##👻": 9215,
      "##姐": 9216,
      "##혔": 9217,
      "##眼": 9218,
      "##몬": 9219,
      "##富": 9220,
      "##栄": 9221,
      "##യ": 9222,
      "##ള": 9223,
      "##录": 9224,
      "##禕": 9225,
      "##დ": 9226,
      "##ĭ": 9227,
      "##ť": 9228,
      "##튼": 9229,
      "##ɓ": 9230,
      "##泰": 9231,
      "##姑": 9232,
      "##风": 9233,
      "##秦": 9234,
      "##猴": 9235,
      "##斑": 9236,
      "##萄": 9237,
      "##业": 9238,
      "##试": 9239,
      "##ǰ": 9240,
      "##祐": 9241,
      "##₹": 9242,
      "##眾": 9243,
      "##託": 9244,
      "##ວ": 9245,
      "##歉": 9246,
      "##触": 9247,
      "##ķ": 9248,
      "##遲": 9249,
      "##╹": 9250,
      "##ぁ": 9251,
      "##炎": 9252,
      "##蜘": 9253,
      "##릉": 9254,
      "##運": 9255,
      "##": 9256,
      "##떳": 9257,
      "##郊": 9258,
      "##販": 9259,
      "##ჩ": 9260,
      "##ჰ": 9261,
      "##빌": 9262,
      "##勃": 9263,
      "##˨": 9264,
      "##陰": 9265,
      "##濃": 9266,
      "##亀": 9267,
      "##扁": 9268,
      "##": 9269,
      "##员": 9270,
      "##角": 9271,
      "##幕": 9272,
      "##ք": 9273,
      "##ւ": 9274,
      "##թ": 9275,
      "##轩": 9276,
      "##줬": 9277,
      "##━": 9278,
      "##┻": 9279,
      "##ਿ": 9280,
      "##ਖ": 9281,
      "##ਈ": 9282,
      "##삼": 9283,
      "##酒": 9284,
      "##❎": 9285,
      "##ም": 9286,
      "##蟠": 9287,
      "##睿": 9288,
      "##雷": 9289,
      "##ণ": 9290,
      "##ধ": 9291,
      "##独": 9292,
      "##亞": 9293,
      "##便": 9294,
      "##届": 9295,
      "##๋": 9296,
      "##〜": 9297,
      "##👬": 9298,
      "##❋": 9299,
      "##裕": 9300,
      "##邪": 9301,
      "##宜": 9302,
      "##칠": 9303,
      "##竹": 9304,
      "##ன": 9305,
      "##륭": 9306,
      "##噺": 9307,
      "##๕": 9308,
      "##缽": 9309,
      "##开": 9310,
      "##价": 9311,
      "##ỵ": 9312,
      "##蔑": 9313,
      "##망": 9314,
      "##բ": 9315,
      "##ղ": 9316,
      "##ᖄ": 9317,
      "##ᓕ": 9318,
      "##ᕆ": 9319,
      "##瞑": 9320,
      "##😩": 9321,
      "##覺": 9322,
      "##墟": 9323,
      "##ᔵ": 9324,
      "##ᔺ": 9325,
      "##ᔊ": 9326,
      "##偶": 9327,
      "##틴": 9328,
      "##複": 9329,
      "##丰": 9330,
      "##匿": 9331,
      "##ҡ": 9332,
      "##ᄀ": 9333,
      "##ᄅ": 9334,
      "##需": 9335,
      "##菲": 9336,
      "##▓": 9337,
      "##̞": 9338,
      "##🤗": 9339,
      "##钉": 9340,
      "##玄": 9341,
      "##蠻": 9342,
      "##翌": 9343,
      "##🙌": 9344,
      "##략": 9345,
      "##녹": 9346,
      "##🔴": 9347,
      "##鈴": 9348,
      "##借": 9349,
      "##ɜ": 9350,
      "##케": 9351,
      "##հ": 9352,
      "##宿": 9353,
      "##璐": 9354,
      "##꿀": 9355,
      "##완": 9356,
      "##됨": 9357,
      "##ө": 9358,
      "##ү": 9359,
      "##唐": 9360,
      "##ৱ": 9361,
      "##呟": 9362,
      "##ẩ": 9363,
      "##羞": 9364,
      "##歴": 9365,
      "##单": 9366,
      "##嶽": 9367,
      "##購": 9368,
      "##̛": 9369,
      "##墙": 9370,
      "##匠": 9371,
      "##驪": 9372,
      "##깐": 9373,
      "##瑋": 9374,
      "##템": 9375,
      "##乙": 9376,
      "##ʟ": 9377,
      "##ɢ": 9378,
      "##慧": 9379,
      "##耕": 9380,
      "##슬": 9381,
      "##旬": 9382,
      "##渦": 9383,
      "##黙": 9384,
      "##랄": 9385,
      "##卡": 9386,
      "##웟": 9387,
      "##֤": 9388,
      "##选": 9389,
      "##𥤦": 9390,
      "##𥢎": 9391,
      "##紫": 9392,
      "##": 9393,
      "##嘗": 9394,
      "##鮮": 9395,
      "##詞": 9396,
      "##ⵉ": 9397,
      "##류": 9398,
      "##植": 9399,
      "##ണ": 9400,
      "##𥤐": 9401,
      "##থ": 9402,
      "##ⲑ": 9403,
      "##ጎ": 9404,
      "##ላ": 9405,
      "##ስ": 9406,
      "##船": 9407,
      "##麺": 9408,
      "##耀": 9409,
      "##콸": 9410,
      "##댁": 9411,
      "##沿": 9412,
      "##⁠": 9413,
      "##∥": 9414,
      "##憂": 9415,
      "##셨": 9416,
      "##巡": 9417,
      "##゙": 9418,
      "##躊": 9419,
      "##躇": 9420,
      "##凯": 9421,
      "##뎌": 9422,
      "##⎠": 9423,
      "##ۅ": 9424,
      "##ഷ": 9425,
      "##菜": 9426,
      "##肇": 9427,
      "##双": 9428,
      "##镇": 9429,
      "##洱": 9430,
      "##脩": 9431,
      "##藏": 9432,
      "##빈": 9433,
      "##苟": 9434,
      "##🐘": 9435,
      "##🐒": 9436,
      "##🦁": 9437,
      "##暮": 9438,
      "##☼": 9439,
      "##🕇": 9440,
      "##鎖": 9441,
      "##笛": 9442,
      "##ٴ": 9443,
      "##ۋ": 9444,
      "##╬": 9445,
      "##╣": 9446,
      "##짜": 9447,
      "##🎷": 9448,
      "##🎺": 9449,
      "##🥁": 9450,
      "##💃": 9451,
      "##🕺": 9452,
      "##◄": 9453,
      "##俯": 9454,
      "##瞰": 9455,
      "##ฆ": 9456,
      "##斉": 9457,
      "##ᴘ": 9458,
      "##ɴ": 9459,
      "##ƀ": 9460,
      "##挝": 9461,
      "##ठ": 9462,
      "##葬": 9463,
      "##ɚ": 9464,
      "##ଧ": 9465,
      "##ଥ": 9466,
      "##猛": 9467,
      "##평": 9468,
      "##깨": 9469,
      "##𥢃": 9470,
      "##씬": 9471,
      "##奕": 9472,
      "##🇴": 9473,
      "##℗": 9474,
      "##齡": 9475,
      "##ಧ": 9476,
      "##ೇ": 9477,
      "##킴": 9478,
      "##ۓ": 9479,
      "th": 9480,
      "##er": 9481,
      "the": 9482,
      "##in": 9483,
      "##on": 9484,
      "##at": 9485,
      "##en": 9486,
      "##es": 9487,
      "##or": 9488,
      "##ed": 9489,
      "##nd": 9490,
      "##ing": 9491,
      "##ar": 9492,
      "##an": 9493,
      "##ou": 9494,
      "to": 9495,
      "in": 9496,
      "##it": 9497,
      "##al": 9498,
      "of": 9499,
      "##is": 9500,
      "and": 9501,
      "##as": 9502,
      "##ic": 9503,
      "##re": 9504,
      "##om": 9505,
      "##ion": 9506,
      "##le": 9507,
      "##ent": 9508,
      "##il": 9509,
      "##el": 9510,
      "re": 9511,
      "##st": 9512,
      "be": 9513,
      "##ot": 9514,
      "wh": 9515,
      "##id": 9516,
      "on": 9517,
      "##ac": 9518,
      "##ut": 9519,
      "that": 9520,
      "##et": 9521,
      "##ly": 9522,
      "is": 9523,
      "##ow": 9524,
      "st": 9525,
      "for": 9526,
      "##ve": 9527,
      "##ay": 9528,
      "it": 9529,
      "##ur": 9530,
      "##am": 9531,
      "##ol": 9532,
      "##ad": 9533,
      "pr": 9534,
      "##ig": 9535,
      "##ec": 9536,
      "##ers": 9537,
      "##im": 9538,
      "##ir": 9539,
      "as": 9540,
      "##ith": 9541,
      "##se": 9542,
      "al": 9543,
      "an": 9544,
      "##ation": 9545,
      "##ver": 9546,
      "with": 9547,
      "##ter": 9548,
      "##ch": 9549,
      "##th": 9550,
      "you": 9551,
      "##ce": 9552,
      "he": 9553,
      "con": 9554,
      "##ere": 9555,
      "##op": 9556,
      "was": 9557,
      "##ill": 9558,
      "sh": 9559,
      "##ld": 9560,
      "ha": 9561,
      "##ul": 9562,
      "com": 9563,
      "fr": 9564,
      "at": 9565,
      "##est": 9566,
      "ch": 9567,
      "##em": 9568,
      "##ess": 9569,
      "we": 9570,
      "ne": 9571,
      "##ct": 9572,
      "##od": 9573,
      "##ag": 9574,
      "su": 9575,
      "##ak": 9576,
      "##os": 9577,
      "are": 9578,
      "this": 9579,
      "tr": 9580,
      "##igh": 9581,
      "##ist": 9582,
      "##pp": 9583,
      "ex": 9584,
      "or": 9585,
      "##ain": 9586,
      "##ate": 9587,
      "##iv": 9588,
      "de": 9589,
      "not": 9590,
      "##us": 9591,
      "se": 9592,
      "##oc": 9593,
      "##um": 9594,
      "by": 9595,
      "##ore": 9596,
      "##ab": 9597,
      "have": 9598,
      "##ity": 9599,
      "##ould": 9600,
      "##un": 9601,
      "##if": 9602,
      "from": 9603,
      "but": 9604,
      "##ort": 9605,
      "##and": 9606,
      "##ant": 9607,
      "le": 9608,
      "##art": 9609,
      "##ment": 9610,
      "##ies": 9611,
      "ab": 9612,
      "##ive": 9613,
      "sp": 9614,
      "go": 9615,
      "sa": 9616,
      "pl": 9617,
      "##ight": 9618,
      "##ect": 9619,
      "##ust": 9620,
      "they": 9621,
      "un": 9622,
      "##ap": 9623,
      "##ear": 9624,
      "his": 9625,
      "wor": 9626,
      "##ack": 9627,
      "has": 9628,
      "##all": 9629,
      "##ally": 9630,
      "##out": 9631,
      "pro": 9632,
      "can": 9633,
      "en": 9634,
      "20": 9635,
      "##gh": 9636,
      "ar": 9637,
      "##ard": 9638,
      "##ost": 9639,
      "do": 9640,
      "##ome": 9641,
      "all": 9642,
      "##ast": 9643,
      "##our": 9644,
      "##ok": 9645,
      "##ik": 9646,
      "will": 9647,
      "##ud": 9648,
      "##ell": 9649,
      "##end": 9650,
      "ad": 9651,
      "##ie": 9652,
      "##ich": 9653,
      "##ib": 9654,
      "said": 9655,
      "cl": 9656,
      "us": 9657,
      "who": 9658,
      "##ial": 9659,
      "so": 9660,
      "up": 9661,
      "out": 9662,
      "##ge": 9663,
      "##ough": 9664,
      "br": 9665,
      "##ip": 9666,
      "their": 9667,
      "more": 9668,
      "one": 9669,
      "##tr": 9670,
      "me": 9671,
      "##ame": 9672,
      "##ans": 9673,
      "gr": 9674,
      "new": 9675,
      "im": 9676,
      "##act": 9677,
      "##ound": 9678,
      "##her": 9679,
      "comp": 9680,
      "##ice": 9681,
      "res": 9682,
      "##ous": 9683,
      "##ions": 9684,
      "there": 9685,
      "##ue": 9686,
      "ac": 9687,
      "##one": 9688,
      "##oun": 9689,
      "##ia": 9690,
      "##ff": 9691,
      "##ure": 9692,
      "about": 9693,
      "am": 9694,
      "##ong": 9695,
      "man": 9696,
      "if": 9697,
      "ag": 9698,
      "##ine": 9699,
      "tim": 9700,
      "##age": 9701,
      "year": 9702,
      "off": 9703,
      "##ated": 9704,
      "##og": 9705,
      "cr": 9706,
      "which": 9707,
      "int": 9708,
      "had": 9709,
      "##pt": 9710,
      "exp": 9711,
      "ev": 9712,
      "lik": 9713,
      "rep": 9714,
      "##iz": 9715,
      "were": 9716,
      "would": 9717,
      "##ake": 9718,
      "##ence": 9719,
      "no": 9720,
      "what": 9721,
      "pe": 9722,
      "##ide": 9723,
      "when": 9724,
      "##ub": 9725,
      "##ind": 9726,
      "##ther": 9727,
      "##ely": 9728,
      "inc": 9729,
      "per": 9730,
      "been": 9731,
      "sc": 9732,
      "some": 9733,
      "##ary": 9734,
      "##au": 9735,
      "##qu": 9736,
      "##ook": 9737,
      "dr": 9738,
      "##ach": 9739,
      "##ber": 9740,
      "##own": 9741,
      "af": 9742,
      "app": 9743,
      "##av": 9744,
      "##ign": 9745,
      "dis": 9746,
      "##so": 9747,
      "##ace": 9748,
      "tw": 9749,
      "part": 9750,
      "##ays": 9751,
      "201": 9752,
      "fe": 9753,
      "bec": 9754,
      "just": 9755,
      "##ose": 9756,
      "##able": 9757,
      "like": 9758,
      "than": 9759,
      "how": 9760,
      "##ail": 9761,
      "its": 9762,
      "her": 9763,
      "##ile": 9764,
      "my": 9765,
      "pol": 9766,
      "##ish": 9767,
      "also": 9768,
      "##ass": 9769,
      "over": 9770,
      "##00": 9771,
      "qu": 9772,
      "##ire": 9773,
      "peop": 9774,
      "bl": 9775,
      "your": 9776,
      "people": 9777,
      "work": 9778,
      "##ord": 9779,
      "##ite": 9780,
      "te": 9781,
      "##ult": 9782,
      "##ations": 9783,
      "##ian": 9784,
      "time": 9785,
      "str": 9786,
      "##ical": 9787,
      "inter": 9788,
      "get": 9789,
      "fir": 9790,
      "kn": 9791,
      "them": 9792,
      "any": 9793,
      "mar": 9794,
      "she": 9795,
      "comm": 9796,
      "other": 9797,
      "rec": 9798,
      "##ens": 9799,
      "##int": 9800,
      "##ick": 9801,
      "after": 9802,
      "##ond": 9803,
      "act": 9804,
      "##orm": 9805,
      "##ents": 9806,
      "##ase": 9807,
      "##are": 9808,
      "##lic": 9809,
      "19": 9810,
      "co": 9811,
      "our": 9812,
      "##ance": 9813,
      "##aw": 9814,
      "acc": 9815,
      "imp": 9816,
      "pre": 9817,
      "##uc": 9818,
      "ind": 9819,
      "##reat": 9820,
      "##gr": 9821,
      "##ree": 9822,
      "into": 9823,
      "play": 9824,
      "##ink": 9825,
      "ever": 9826,
      ".”": 9827,
      "##oll": 9828,
      "##ob": 9829,
      "first": 9830,
      "##ings": 9831,
      "ser": 9832,
      "##ov": 9833,
      "##ory": 9834,
      "##ep": 9835,
      "dec": 9836,
      "em": 9837,
      "##amp": 9838,
      "ph": 9839,
      "##ition": 9840,
      "##ang": 9841,
      "##oss": 9842,
      "##fer": 9843,
      "##ors": 9844,
      "cont": 9845,
      "##ause": 9846,
      "##itt": 9847,
      "##uct": 9848,
      "##ade": 9849,
      "##ates": 9850,
      "coun": 9851,
      "two": 9852,
      "only": 9853,
      "could": 9854,
      "now": 9855,
      "und": 9856,
      "##ks": 9857,
      "sec": 9858,
      "him": 9859,
      "##vel": 9860,
      "des": 9861,
      "##ious": 9862,
      "most": 9863,
      "back": 9864,
      ",”": 9865,
      "may": 9866,
      "##lect": 9867,
      "pres": 9868,
      "##ild": 9869,
      "##ied": 9870,
      "cons": 9871,
      "##ict": 9872,
      "fl": 9873,
      "po": 9874,
      "##ove": 9875,
      "even": 9876,
      "bet": 9877,
      "sy": 9878,
      "don": 9879,
      "##hing": 9880,
      "these": 9881,
      "op": 9882,
      "##oy": 9883,
      "##ery": 9884,
      "att": 9885,
      "##enc": 9886,
      "thr": 9887,
      "##ert": 9888,
      "##form": 9889,
      "because": 9890,
      "##ock": 9891,
      "did": 9892,
      "##ning": 9893,
      "see": 9894,
      ".\"": 9895,
      "under": 9896,
      "##ft": 9897,
      "again": 9898,
      "every": 9899,
      "add": 9900,
      "wr": 9901,
      "inv": 9902,
      "ob": 9903,
      "col": 9904,
      "bu": 9905,
      "##day": 9906,
      "##ry": 9907,
      "##ater": 9908,
      "##ons": 9909,
      "want": 9910,
      "##ey": 9911,
      "right": 9912,
      "then": 9913,
      "know": 9914,
      "years": 9915,
      "car": 9916,
      "need": 9917,
      "##wn": 9918,
      "ass": 9919,
      "##ual": 9920,
      "mu": 9921,
      "##ood": 9922,
      "rel": 9923,
      "high": 9924,
      "##lud": 9925,
      "supp": 9926,
      "##ublic": 9927,
      "mon": 9928,
      "min": 9929,
      "##iss": 9930,
      "def": 9931,
      "where": 9932,
      "many": 9933,
      "##old": 9934,
      "make": 9935,
      "ro": 9936,
      "ed": 9937,
      "##..": 9938,
      "look": 9939,
      "##ident": 9940,
      "hel": 9941,
      "contr": 9942,
      "##erm": 9943,
      "call": 9944,
      "reg": 9945,
      "##urn": 9946,
      "##pl": 9947,
      "sm": 9948,
      "##ath": 9949,
      "while": 9950,
      "rem": 9951,
      "par": 9952,
      "##we": 9953,
      "gen": 9954,
      "world": 9955,
      "##oth": 9956,
      "##elf": 9957,
      "well": 9958,
      "last": 9959,
      "way": 9960,
      ",\"": 9961,
      "gu": 9962,
      "##fore": 9963,
      "think": 9964,
      "##anc": 9965,
      "##ra": 9966,
      "##les": 9967,
      "fin": 9968,
      "down": 9969,
      "being": 9970,
      "ve": 9971,
      "bel": 9972,
      "##ational": 9973,
      "##vern": 9974,
      "those": 9975,
      "##ject": 9976,
      "includ": 9977,
      "##ful": 9978,
      "sch": 9979,
      "govern": 9980,
      "inst": 9981,
      "##eric": 9982,
      "dif": 9983,
      "show": 9984,
      "##ating": 9985,
      "through": 9986,
      "ear": 9987,
      "end": 9988,
      "##other": 9989,
      "id": 9990,
      "say": 9991,
      "##oup": 9992,
      "very": 9993,
      "should": 9994,
      "form": 9995,
      "##ump": 9996,
      "report": 9997,
      "##xt": 9998,
      "war": 9999,
      "##ason": 10000,
      "##ased": 10001,
      "much": 10002,
      "10": 10003,
      "200": 10004,
      "##iew": 10005,
      "##ug": 10006,
      "long": 10007,
      "americ": 10008,
      "before": 10009,
      "state": 10010,
      "##ise": 10011,
      "##aking": 10012,
      "##ower": 10013,
      "##hn": 10014,
      "med": 10015,
      "##ited": 10016,
      "own": 10017,
      "does": 10018,
      "char": 10019,
      "##atch": 10020,
      "##sp": 10021,
      "##ting": 10022,
      "##ro": 10023,
      "use": 10024,
      "##uring": 10025,
      "##ities": 10026,
      "##ics": 10027,
      "team": 10028,
      "##cc": 10029,
      "cent": 10030,
      "start": 10031,
      "dem": 10032,
      "##ible": 10033,
      "game": 10034,
      "good": 10035,
      "##ty": 10036,
      "sub": 10037,
      "stud": 10038,
      "##urr": 10039,
      "##ts": 10040,
      "sim": 10041,
      "##ific": 10042,
      "##ward": 10043,
      "such": 10044,
      "here": 10045,
      "set": 10046,
      "##als": 10047,
      "government": 10048,
      "cour": 10049,
      "##omet": 10050,
      "##get": 10051,
      "made": 10052,
      ").": 10053,
      "law": 10054,
      "ma": 10055,
      "wee": 10056,
      "pers": 10057,
      "##ix": 10058,
      "dep": 10059,
      "##ince": 10060,
      "prov": 10061,
      "##ues": 10062,
      "jo": 10063,
      "point": 10064,
      "##olog": 10065,
      "##ble": 10066,
      "going": 10067,
      "eff": 10068,
      "##ife": 10069,
      "prod": 10070,
      "still": 10071,
      "cap": 10072,
      "lead": 10073,
      "##ily": 10074,
      "##ange": 10075,
      "...": 10076,
      "##ism": 10077,
      "though": 10078,
      "##ier": 10079,
      "day": 10080,
      "trans": 10081,
      "##ually": 10082,
      "##ular": 10083,
      "##ement": 10084,
      "##ress": 10085,
      "against": 10086,
      "##orn": 10087,
      "##eral": 10088,
      "offic": 10089,
      "bo": 10090,
      "##ists": 10091,
      "sl": 10092,
      "##its": 10093,
      "mod": 10094,
      "##ull": 10095,
      "disc": 10096,
      "take": 10097,
      "##ility": 10098,
      "found": 10099,
      "read": 10100,
      "##ative": 10101,
      "##let": 10102,
      "),": 10103,
      "help": 10104,
      "##az": 10105,
      "support": 10106,
      "sign": 10107,
      "mem": 10108,
      "##alk": 10109,
      "##stem": 10110,
      "somet": 10111,
      "sur": 10112,
      "resp": 10113,
      "spec": 10114,
      "##man": 10115,
      "real": 10116,
      "##gan": 10117,
      "el": 10118,
      "##ivers": 10119,
      "##ently": 10120,
      "##air": 10121,
      "differ": 10122,
      "serv": 10123,
      "ke": 10124,
      "num": 10125,
      "president": 10126,
      "run": 10127,
      "says": 10128,
      "##und": 10129,
      "aut": 10130,
      "##ope": 10131,
      "three": 10132,
      "##ween": 10133,
      "##uss": 10134,
      "##illion": 10135,
      "##io": 10136,
      "great": 10137,
      "group": 10138,
      "between": 10139,
      "system": 10140,
      "public": 10141,
      "same": 10142,
      "det": 10143,
      "hand": 10144,
      "both": 10145,
      "##irect": 10146,
      "##ments": 10147,
      "since": 10148,
      "during": 10149,
      "##ank": 10150,
      "soc": 10151,
      "##yp": 10152,
      "##ives": 10153,
      "##ures": 10154,
      "countr": 10155,
      "##ution": 10156,
      "##ah": 10157,
      "##ollow": 10158,
      "around": 10159,
      "compan": 10160,
      "fam": 10161,
      "##way": 10162,
      "##read": 10163,
      "big": 10164,
      "##land": 10165,
      "leg": 10166,
      "##ph": 10167,
      "follow": 10168,
      "##ork": 10169,
      "##ys": 10170,
      "ret": 10171,
      "##der": 10172,
      "let": 10173,
      "mark": 10174,
      "##ames": 10175,
      "bus": 10176,
      "gl": 10177,
      "wom": 10178,
      "##ather": 10179,
      "prot": 10180,
      "##ool": 10181,
      "direct": 10182,
      "##ern": 10183,
      "really": 10184,
      "post": 10185,
      "##velop": 10186,
      "used": 10187,
      "prop": 10188,
      "##led": 10189,
      "red": 10190,
      "##hip": 10191,
      "met": 10192,
      "##up": 10193,
      "cle": 10194,
      "lar": 10195,
      "##pr": 10196,
      "sen": 10197,
      "##con": 10198,
      "elect": 10199,
      "fact": 10200,
      "conf": 10201,
      "trump": 10202,
      "ins": 10203,
      "##ouse": 10204,
      "develop": 10205,
      "##ton": 10206,
      "happ": 10207,
      "cre": 10208,
      "##ever": 10209,
      "art": 10210,
      "old": 10211,
      "##ash": 10212,
      "find": 10213,
      "000": 10214,
      ".[": 10215,
      "polit": 10216,
      "far": 10217,
      "person": 10218,
      "month": 10219,
      "another": 10220,
      "week": 10221,
      "##ient": 10222,
      "##cr": 10223,
      "##iel": 10224,
      "progr": 10225,
      "##cept": 10226,
      "##cent": 10227,
      "##ale": 10228,
      "##ene": 10229,
      "##istr": 10230,
      "fil": 10231,
      "##ying": 10232,
      "rev": 10233,
      "commun": 10234,
      "power": 10235,
      "cor": 10236,
      "av": 10237,
      "put": 10238,
      "city": 10239,
      "##ax": 10240,
      "iss": 10241,
      "spe": 10242,
      "plan": 10243,
      "life": 10244,
      "contin": 10245,
      "##ience": 10246,
      "adv": 10247,
      "##alth": 10248,
      "loc": 10249,
      "##iet": 10250,
      "##ines": 10251,
      "##ave": 10252,
      "##ote": 10253,
      "open": 10254,
      "##ins": 10255,
      "nor": 10256,
      "camp": 10257,
      "##ices": 10258,
      "##per": 10259,
      "##att": 10260,
      "inf": 10261,
      "lot": 10262,
      "stat": 10263,
      "##ount": 10264,
      "sk": 10265,
      "told": 10266,
      "invest": 10267,
      "second": 10268,
      "head": 10269,
      "##--": 10270,
      "few": 10271,
      "##ision": 10272,
      "too": 10273,
      "hum": 10274,
      "##oot": 10275,
      "12": 10276,
      "requ": 10277,
      "police": 10278,
      "each": 10279,
      "bar": 10280,
      "bre": 10281,
      "best": 10282,
      "##ages": 10283,
      "##erg": 10284,
      "##akes": 10285,
      "##ically": 10286,
      "never": 10287,
      "belie": 10288,
      "opp": 10289,
      "val": 10290,
      "something": 10291,
      "next": 10292,
      "##ime": 10293,
      "pass": 10294,
      "##ording": 10295,
      "news": 10296,
      "conc": 10297,
      "intern": 10298,
      "##gest": 10299,
      "things": 10300,
      "ask": 10301,
      "eng": 10302,
      "##lish": 10303,
      "##ider": 10304,
      "ll": 10305,
      "##erv": 10306,
      "##ize": 10307,
      "ann": 10308,
      "home": 10309,
      "rele": 10310,
      "dat": 10311,
      "##ger": 10312,
      "expl": 10313,
      "mil": 10314,
      "##bers": 10315,
      "child": 10316,
      "tec": 10317,
      "top": 10318,
      "##ms": 10319,
      "##ets": 10320,
      "##ri": 10321,
      "why": 10322,
      "school": 10323,
      "##str": 10324,
      "quest": 10325,
      "##ized": 10326,
      "##ont": 10327,
      "##ially": 10328,
      "##ead": 10329,
      "##ention": 10330,
      "##br": 10331,
      "poss": 10332,
      "15": 10333,
      "win": 10334,
      "11": 10335,
      "##ee": 10336,
      "proc": 10337,
      "four": 10338,
      "come": 10339,
      "##ving": 10340,
      "however": 10341,
      "got": 10342,
      "stand": 10343,
      "##ency": 10344,
      "air": 10345,
      "hard": 10346,
      "##ner": 10347,
      "##iving": 10348,
      "curr": 10349,
      "might": 10350,
      "national": 10351,
      "##ior": 10352,
      "different": 10353,
      "##thing": 10354,
      "according": 10355,
      "states": 10356,
      "build": 10357,
      "without": 10358,
      "sw": 10359,
      "inform": 10360,
      "##err": 10361,
      "##tern": 10362,
      "##ody": 10363,
      "house": 10364,
      "care": 10365,
      "univers": 10366,
      "allow": 10367,
      "feel": 10368,
      "##iness": 10369,
      "18": 10370,
      "exper": 10371,
      "season": 10372,
      "##res": 10373,
      "prof": 10374,
      "##ants": 10375,
      "pat": 10376,
      "mus": 10377,
      "##ling": 10378,
      "##ret": 10379,
      "pop": 10380,
      "including": 10381,
      "incre": 10382,
      "called": 10383,
      "##ten": 10384,
      "##med": 10385,
      "##son": 10386,
      "turn": 10387,
      "seem": 10388,
      "percent": 10389,
      "mov": 10390,
      "##ittle": 10391,
      "##ital": 10392,
      "number": 10393,
      "result": 10394,
      "##ves": 10395,
      "arr": 10396,
      "import": 10397,
      "fun": 10398,
      "##uck": 10399,
      "little": 10400,
      "place": 10401,
      "prev": 10402,
      "##ark": 10403,
      "main": 10404,
      "free": 10405,
      "del": 10406,
      "##ness": 10407,
      "ide": 10408,
      "product": 10409,
      "##ected": 10410,
      "##oad": 10411,
      "beh": 10412,
      "interest": 10413,
      "sol": 10414,
      "health": 10415,
      "##ined": 10416,
      "case": 10417,
      "times": 10418,
      "keep": 10419,
      "proble": 10420,
      "sou": 10421,
      "gre": 10422,
      "less": 10423,
      "left": 10424,
      "test": 10425,
      "la": 10426,
      "chr": 10427,
      "##iver": 10428,
      "level": 10429,
      "##ric": 10430,
      "##osed": 10431,
      "econ": 10432,
      "##ew": 10433,
      "million": 10434,
      "ref": 10435,
      "class": 10436,
      "##ember": 10437,
      "country": 10438,
      "econom": 10439,
      "##ield": 10440,
      "har": 10441,
      "##co": 10442,
      "better": 10443,
      "##ced": 10444,
      "partic": 10445,
      "face": 10446,
      "pay": 10447,
      "##ately": 10448,
      "##ged": 10449,
      "##ama": 10450,
      "eas": 10451,
      "rest": 10452,
      "american": 10453,
      "adm": 10454,
      "program": 10455,
      "##iting": 10456,
      "ext": 10457,
      "hist": 10458,
      "##aim": 10459,
      "##oney": 10460,
      "move": 10461,
      "data": 10462,
      "near": 10463,
      "typ": 10464,
      "book": 10465,
      "##red": 10466,
      "maj": 10467,
      "attack": 10468,
      "using": 10469,
      "##ably": 10470,
      "##ways": 10471,
      "--": 10472,
      "auth": 10473,
      "list": 10474,
      "effect": 10475,
      "techn": 10476,
      "phot": 10477,
      "##ained": 10478,
      "project": 10479,
      "based": 10480,
      "##ved": 10481,
      "##ute": 10482,
      "women": 10483,
      "term": 10484,
      "story": 10485,
      "##ral": 10486,
      "bit": 10487,
      "cal": 10488,
      "miss": 10489,
      "pos": 10490,
      "##ised": 10491,
      "didn": 10492,
      "company": 10493,
      "##line": 10494,
      "net": 10495,
      "organ": 10496,
      "##til": 10497,
      "small": 10498,
      "##ces": 10499,
      "business": 10500,
      "##ina": 10501,
      "##self": 10502,
      "##ned": 10503,
      "##ott": 10504,
      "vis": 10505,
      "##ains": 10506,
      "##iven": 10507,
      "change": 10508,
      "design": 10509,
      "##earch": 10510,
      "cond": 10511,
      "conv": 10512,
      "research": 10513,
      "ir": 10514,
      "##eng": 10515,
      "clear": 10516,
      "##atur": 10517,
      "##inal": 10518,
      "major": 10519,
      "##ional": 10520,
      "##ode": 10521,
      "process": 10522,
      "men": 10523,
      "star": 10524,
      "##ocr": 10525,
      "est": 10526,
      "##ived": 10527,
      "later": 10528,
      "oper": 10529,
      "prom": 10530,
      "sever": 10531,
      "##ature": 10532,
      "order": 10533,
      "stre": 10534,
      "edit": 10535,
      "##ends": 10536,
      "var": 10537,
      "aff": 10538,
      "##__": 10539,
      "party": 10540,
      "appear": 10541,
      "official": 10542,
      "pur": 10543,
      "chang": 10544,
      "##app": 10545,
      "bas": 10546,
      "30": 10547,
      "talk": 10548,
      "white": 10549,
      "today": 10550,
      "exc": 10551,
      "information": 10552,
      "court": 10553,
      "##ology": 10554,
      "united": 10555,
      "press": 10556,
      "cost": 10557,
      "fri": 10558,
      "##ren": 10559,
      "money": 10560,
      "human": 10561,
      "lib": 10562,
      "mean": 10563,
      "vide": 10564,
      "kill": 10565,
      "black": 10566,
      "##atter": 10567,
      "view": 10568,
      "ste": 10569,
      "ent": 10570,
      "##less": 10571,
      "##ready": 10572,
      "job": 10573,
      "rece": 10574,
      "simp": 10575,
      "already": 10576,
      "polic": 10577,
      "mid": 10578,
      "##ided": 10579,
      "consider": 10580,
      "eur": 10581,
      "must": 10582,
      "##ploy": 10583,
      "tax": 10584,
      "once": 10585,
      "always": 10586,
      "##aph": 10587,
      "mr": 10588,
      "dev": 10589,
      "##ister": 10590,
      "grow": 10591,
      "##ians": 10592,
      "social": 10593,
      "##ird": 10594,
      "past": 10595,
      "sing": 10596,
      "ra": 10597,
      "fed": 10598,
      "record": 10599,
      "family": 10600,
      "thing": 10601,
      "making": 10602,
      "##ats": 10603,
      "##ense": 10604,
      "claim": 10605,
      "ap": 10606,
      "13": 10607,
      "line": 10608,
      "fund": 10609,
      "media": 10610,
      "mor": 10611,
      "##els": 10612,
      "##atic": 10613,
      "terr": 10614,
      "##bs": 10615,
      "##wh": 10616,
      "tell": 10617,
      "##used": 10618,
      "##ared": 10619,
      "##aff": 10620,
      "kind": 10621,
      "##ike": 10622,
      "16": 10623,
      "##aining": 10624,
      "full": 10625,
      "##over": 10626,
      "##aign": 10627,
      "important": 10628,
      "democr": 10629,
      "until": 10630,
      "away": 10631,
      "ant": 10632,
      "able": 10633,
      "199": 10634,
      "games": 10635,
      "##ator": 10636,
      "campaign": 10637,
      "##ether": 10638,
      "14": 10639,
      "cert": 10640,
      "vi": 10641,
      "##unch": 10642,
      "happen": 10643,
      "gener": 10644,
      "days": 10645,
      "hal": 10646,
      "##ired": 10647,
      "night": 10648,
      "john": 10649,
      "bill": 10650,
      "republic": 10651,
      "watch": 10652,
      "doesn": 10653,
      "former": 10654,
      "examp": 10655,
      "il": 10656,
      "fight": 10657,
      "##stand": 10658,
      "secur": 10659,
      "##ven": 10660,
      "deb": 10661,
      "political": 10662,
      "working": 10663,
      "word": 10664,
      "##ending": 10665,
      "##ury": 10666,
      "yet": 10667,
      "russ": 10668,
      "##ourn": 10669,
      "##augh": 10670,
      "##ively": 10671,
      "sit": 10672,
      "##ection": 10673,
      "##ards": 10674,
      "least": 10675,
      "##mm": 10676,
      "##ief": 10677,
      "opt": 10678,
      "pa": 10679,
      "market": 10680,
      "name": 10681,
      "##ases": 10682,
      "enough": 10683,
      "author": 10684,
      "youn": 10685,
      "land": 10686,
      "water": 10687,
      "came": 10688,
      "##acy": 10689,
      "deal": 10690,
      "##ides": 10691,
      "##orts": 10692,
      "actually": 10693,
      "##gin": 10694,
      "##itch": 10695,
      "university": 10696,
      "es": 10697,
      "return": 10698,
      "25": 10699,
      "having": 10700,
      "lab": 10701,
      "fre": 10702,
      "complet": 10703,
      "##ences": 10704,
      "five": 10705,
      "north": 10706,
      "several": 10707,
      "arg": 10708,
      "hour": 10709,
      "equ": 10710,
      "17": 10711,
      "give": 10712,
      "often": 10713,
      "##rem": 10714,
      "event": 10715,
      "occ": 10716,
      "manag": 10717,
      "##ued": 10718,
      "vot": 10719,
      "whether": 10720,
      "fac": 10721,
      "##ified": 10722,
      "perform": 10723,
      "sour": 10724,
      "sal": 10725,
      "ca": 10726,
      "##ley": 10727,
      "##ered": 10728,
      "become": 10729,
      "lear": 10730,
      "stop": 10731,
      "won": 10732,
      "##ows": 10733,
      "control": 10734,
      "##ipp": 10735,
      "early": 10736,
      "sure": 10737,
      "pot": 10738,
      "vers": 10739,
      "##ising": 10740,
      "took": 10741,
      "##aps": 10742,
      "fut": 10743,
      "##eck": 10744,
      "##ering": 10745,
      "crit": 10746,
      "among": 10747,
      "sn": 10748,
      "sug": 10749,
      "##crib": 10750,
      "non": 10751,
      "##ush": 10752,
      "##ony": 10753,
      "orig": 10754,
      "light": 10755,
      "##enn": 10756,
      "security": 10757,
      "##ison": 10758,
      "sex": 10759,
      "short": 10760,
      "video": 10761,
      "side": 10762,
      "##ann": 10763,
      "milit": 10764,
      "priv": 10765,
      "known": 10766,
      "local": 10767,
      "meet": 10768,
      "##te": 10769,
      "members": 10770,
      "doing": 10771,
      "children": 10772,
      "players": 10773,
      "lim": 10774,
      "cover": 10775,
      "##ality": 10776,
      "question": 10777,
      "step": 10778,
      "community": 10779,
      "along": 10780,
      "given": 10781,
      "key": 10782,
      "prob": 10783,
      "hold": 10784,
      "within": 10785,
      "##tt": 10786,
      "investig": 10787,
      "south": 10788,
      "succ": 10789,
      "certain": 10790,
      "##ization": 10791,
      "##ech": 10792,
      "##thers": 10793,
      "europe": 10794,
      "depart": 10795,
      "##aken": 10796,
      "york": 10797,
      "##gress": 10798,
      "general": 10799,
      "activ": 10800,
      "seen": 10801,
      "##ware": 10802,
      "ge": 10803,
      "##bo": 10804,
      "##ots": 10805,
      "cho": 10806,
      "##sel": 10807,
      "##idence": 10808,
      "obama": 10809,
      "##iam": 10810,
      "future": 10811,
      "##ither": 10812,
      "went": 10813,
      "death": 10814,
      "##ories": 10815,
      "likely": 10816,
      "##ane": 10817,
      "example": 10818,
      "##par": 10819,
      "##icle": 10820,
      "er": 10821,
      "##ought": 10822,
      "##inc": 10823,
      "fur": 10824,
      "##iously": 10825,
      "##ium": 10826,
      "##uary": 10827,
      "success": 10828,
      "series": 10829,
      "##side": 10830,
      "pub": 10831,
      "viol": 10832,
      "asked": 10833,
      "creat": 10834,
      "conn": 10835,
      "##sh": 10836,
      "strong": 10837,
      "100": 10838,
      "done": 10839,
      "alm": 10840,
      "fail": 10841,
      "distr": 10842,
      "others": 10843,
      "cut": 10844,
      "##ecut": 10845,
      "##urs": 10846,
      "indust": 10847,
      "##empt": 10848,
      "understand": 10849,
      "mass": 10850,
      "invol": 10851,
      "mag": 10852,
      "course": 10853,
      "acr": 10854,
      "##une": 10855,
      "##ended": 10856,
      "##work": 10857,
      "love": 10858,
      "##lex": 10859,
      "##ones": 10860,
      "avail": 10861,
      "tot": 10862,
      "history": 10863,
      "impr": 10864,
      "large": 10865,
      "##ential": 10866,
      "##be": 10867,
      "##vert": 10868,
      "means": 10869,
      "possible": 10870,
      "vict": 10871,
      "months": 10872,
      "following": 10873,
      "foot": 10874,
      "problem": 10875,
      "tar": 10876,
      "thought": 10877,
      "saf": 10878,
      "reason": 10879,
      "##by": 10880,
      "young": 10881,
      "##ulation": 10882,
      "2016": 10883,
      "bad": 10884,
      "##que": 10885,
      "getting": 10886,
      "food": 10887,
      "christ": 10888,
      "super": 10889,
      "##ured": 10890,
      "esp": 10891,
      "across": 10892,
      "low": 10893,
      "fig": 10894,
      "ident": 10895,
      "sent": 10896,
      "##ilar": 10897,
      "##ination": 10898,
      "##ivid": 10899,
      "##iety": 10900,
      "access": 10901,
[...]
