{
  "version": "1.0",
  "truncation": null,
  "padding": null,
  "added_tokens": [
    {
      "id": 0,
      "content": "<s>",
      "single_word": false,
      "lstrip": false,
      "rstrip": false,
      "normalized": false,
      "special": true
    },
    {
      "id": 1,
      "content": "</s>",
      "single_word": false,
      "lstrip": false,
      "rstrip": false,
      "normalized": false,
      "special": true
    },
    {
      "id": 2,
      "content": "<unk>",
      "single_word": false,
      "lstrip": false,
      "rstrip": false,
      "normalized": false,
      "special": true
    },
    {
      "id": 3,
      "content": "[UNK]",
      "single_word": false,
      "lstrip": false,
      "rstrip": false,
      "normalized": false,
      "special": true
    },
    {
      "id": 4,
      "content": "[RESERVED_0]",
      "single_word": false,
      "lstrip": false,
      "rstrip": false,
      "normalized": false,
      "special": true
    },
    {
      "id": 5,
      "content": "[RESERVED_1]",
      "single_word": false,
      "lstrip": false,
      "rstrip": false,
      "normalized": false,
      "special": true
    },
    {
      "id": 6,
      "content": "[RESERVED_2]",
      "single_word": false,
      "lstrip": false,
      "rstrip": false,
      "normalized": false,
      "special": true
    },
    {
      "id": 7,
      "content": "[RESERVED_3]",
      "single_word": false,
      "lstrip": false,
      "rstrip": false,
      "normalized": false,
      "special": true
    },
    {
      "id": 8,
      "content": "[RESERVED_4]",
      "single_word": false,
      "lstrip": false,
      "rstrip": false,
      "normalized": false,
      "special": true
    },
    {
      "id": 9,
      "content": "[RESERVED_5]",
      "single_word": false,
      "lstrip": false,
      "rstrip": false,
      "normalized": false,
      "special": true
    },
    {
      "id": 10,
      "content": "[RESERVED_6]",
      "single_word": false,
      "lstrip": false,
      "rstrip": false,
      "normalized": false,
      "special": true
    },
    {
      "id": 11,
      "content": "[RESERVED_7]",
      "single_word": false,
      "lstrip": false,
      "rstrip": false,
      "normalized": false,
      "special": true
    },
    {
      "id": 12,
      "content": "[RESERVED_8]",
      "single_word": false,
      "lstrip": false,
      "rstrip": false,
      "normalized": false,
      "special": true
    },
    {
      "id": 13,
      "content": "[RESERVED_9]",
      "single_word": false,
      "lstrip": false,
      "rstrip": false,
      "normalized": false,
      "special": true
    },
    {
      "id": 14,
      "content": "[RESERVED_10]",
      "single_word": false,
      "lstrip": false,
      "rstrip": false,
      "normalized": false,
      "special": true
    },
    {
      "id": 15,
      "content": "[RESERVED_11]",
      "single_word": false,
      "lstrip": false,
      "rstrip": false,
      "normalized": false,
      "special": true
    },
    {
      "id": 16,
      "content": "[RESERVED_12]",
      "single_word": false,
      "lstrip": false,
      "rstrip": false,
      "normalized": false,
      "special": true
    },
    {
      "id": 17,
      "content": "[RESERVED_13]",
      "single_word": false,
      "lstrip": false,
      "rstrip": false,
      "normalized": false,
      "special": true
    },
    {
      "id": 18,
      "content": "[RESERVED_14]",
      "single_word": false,
      "lstrip": false,
      "rstrip": false,
      "normalized": false,
      "special": true
    },
    {
      "id": 19,
      "content": "[RESERVED_15]",
      "single_word": false,
      "lstrip": false,
      "rstrip": false,
      "normalized": false,
      "special": true
    },
    {
      "id": 20,
      "content": "[RESERVED_16]",
      "single_word": false,
      "lstrip": false,
      "rstrip": false,
      "normalized": false,
      "special": true
    },
    {
      "id": 21,
      "content": "[RESERVED_17]",
      "single_word": false,
      "lstrip": false,
      "rstrip": false,
      "normalized": false,
      "special": true
    },
    {
      "id": 22,
      "content": "[RESERVED_18]",
      "single_word": false,
      "lstrip": false,
      "rstrip": false,
      "normalized": false,
      "special": true
    },
    {
      "id": 23,
      "content": "[RESERVED_19]",
      "single_word": false,
      "lstrip": false,
      "rstrip": false,
      "normalized": false,
      "special": true
    },
    {
      "id": 24,
      "content": "[RESERVED_20]",
      "single_word": false,
      "lstrip": false,
      "rstrip": false,
      "normalized": false,
      "special": true
    },
    {
      "id": 25,
      "content": "[RESERVED_21]",
      "single_word": false,
      "lstrip": false,
      "rstrip": false,
      "normalized": false,
      "special": true
    },
    {
      "id": 26,
      "content": "[RESERVED_22]",
      "single_word": false,
      "lstrip": false,
      "rstrip": false,
      "normalized": false,
      "special": true
    },
    {
      "id": 27,
      "content": "[RESERVED_23]",
      "single_word": false,
      "lstrip": false,
      "rstrip": false,
      "normalized": false,
      "special": true
    },
    {
      "id": 28,
      "content": "[RESERVED_24]",
      "single_word": false,
      "lstrip": false,
      "rstrip": false,
      "normalized": false,
      "special": true
    },
    {
      "id": 29,
      "content": "[RESERVED_25]",
      "single_word": false,
      "lstrip": false,
      "rstrip": false,
      "normalized": false,
      "special": true
    },
    {
      "id": 30,
      "content": "[RESERVED_26]",
      "single_word": false,
      "lstrip": false,
      "rstrip": false,
      "normalized": false,
      "special": true
    },
    {
      "id": 31,
      "content": "[RESERVED_27]",
      "single_word": false,
      "lstrip": false,
      "rstrip": false,
      "normalized": false,
      "special": true
    },
    {
      "id": 32,
      "content": "[RESERVED_28]",
      "single_word": false,
      "lstrip": false,
      "rstrip": false,
      "normalized": false,
      "special": true
    },
    {
      "id": 33,
      "content": "[RESERVED_29]",
      "single_word": false,
      "lstrip": false,
      "rstrip": false,
      "normalized": false,
      "special": true
    },
    {
      "id": 34,
      "content": "[RESERVED_30]",
      "single_word": false,
      "lstrip": false,
      "rstrip": false,
      "normalized": false,
      "special": true
    },
    {
      "id": 35,
      "content": "[RESERVED_31]",
      "single_word": false,
      "lstrip": false,
      "rstrip": false,
      "normalized": false,
      "special": true
    },
    {
      "id": 36,
      "content": "[RESERVED_32]",
      "single_word": false,
      "lstrip": false,
      "rstrip": false,
      "normalized": false,
      "special": true
    },
    {
      "id": 37,
      "content": "[RESERVED_33]",
      "single_word": false,
      "lstrip": false,
      "rstrip": false,
      "normalized": false,
      "special": true
    },
    {
      "id": 38,
      "content": "[RESERVED_34]",
      "single_word": false,
      "lstrip": false,
      "rstrip": false,
      "normalized": false,
      "special": true
    },
    {
      "id": 39,
      "content": "[RESERVED_35]",
      "single_word": false,
      "lstrip": false,
      "rstrip": false,
      "normalized": false,
      "special": true
    },
    {
      "id": 40,
      "content": "[RESERVED_36]",
      "single_word": false,
      "lstrip": false,
      "rstrip": false,
      "normalized": false,
      "special": true
    },
    {
      "id": 41,
      "content": "[RESERVED_37]",
      "single_word": false,
      "lstrip": false,
      "rstrip": false,
      "normalized": false,
      "special": true
    },
    {
      "id": 42,
      "content": "[RESERVED_38]",
      "single_word": false,
      "lstrip": false,
      "rstrip": false,
      "normalized": false,
      "special": true
    },
    {
      "id": 43,
      "content": "[RESERVED_39]",
      "single_word": false,
      "lstrip": false,
      "rstrip": false,
      "normalized": false,
      "special": true
    },
    {
      "id": 44,
      "content": "[RESERVED_40]",
      "single_word": false,
      "lstrip": false,
      "rstrip": false,
      "normalized": false,
      "special": true
    },
    {
      "id": 45,
      "content": "[RESERVED_41]",
      "single_word": false,
      "lstrip": false,
      "rstrip": false,
      "normalized": false,
      "special": true
    },
    {
      "id": 46,
      "content": "[RESERVED_42]",
      "single_word": false,
      "lstrip": false,
      "rstrip": false,
      "normalized": false,
      "special": true
    },
    {
      "id": 47,
      "content": "[RESERVED_43]",
      "single_word": false,
      "lstrip": false,
      "rstrip": false,
      "normalized": false,
      "special": true
    },
    {
      "id": 48,
      "content": "[RESERVED_44]",
      "single_word": false,
      "lstrip": false,
      "rstrip": false,
      "normalized": false,
      "special": true
    },
    {
      "id": 49,
      "content": "[RESERVED_45]",
      "single_word": false,
      "lstrip": false,
      "rstrip": false,
      "normalized": false,
      "special": true
    },
    {
      "id": 50,
      "content": "[RESERVED_46]",
      "single_word": false,
      "lstrip": false,
      "rstrip": false,
      "normalized": false,
      "special": true
    },
    {
      "id": 51,
      "content": "[RESERVED_47]",
      "single_word": false,
      "lstrip": false,
      "rstrip": false,
      "normalized": false,
      "special": true
    },
    {
      "id": 52,
      "content": "[RESERVED_48]",
      "single_word": false,
      "lstrip": false,
      "rstrip": false,
      "normalized": false,
      "special": true
    },
    {
      "id": 53,
      "content": "[RESERVED_49]",
      "single_word": false,
      "lstrip": false,
      "rstrip": false,
      "normalized": false,
      "special": true
    },
    {
      "id": 54,
      "content": "[RESERVED_50]",
      "single_word": false,
      "lstrip": false,
      "rstrip": false,
      "normalized": false,
      "special": true
    },
    {
      "id": 55,
      "content": "[RESERVED_51]",
      "single_word": false,
      "lstrip": false,
      "rstrip": false,
      "normalized": false,
      "special": true
    },
    {
      "id": 56,
      "content": "[RESERVED_52]",
      "single_word": false,
      "lstrip": false,
      "rstrip": false,
      "normalized": false,
      "special": true
    },
    {
      "id": 57,
      "content": "[RESERVED_53]",
      "single_word": false,
      "lstrip": false,
      "rstrip": false,
      "normalized": false,
      "special": true
    },
    {
      "id": 58,
      "content": "[RESERVED_54]",
      "single_word": false,
      "lstrip": false,
      "rstrip": false,
      "normalized": false,
      "special": true
    },
    {
      "id": 59,
      "content": "[RESERVED_55]",
      "single_word": false,
      "lstrip": false,
      "rstrip": false,
      "normalized": false,
      "special": true
    },
    {
      "id": 60,
      "content": "[RESERVED_56]",
      "single_word": false,
      "lstrip": false,
      "rstrip": false,
      "normalized": false,
      "special": true
    },
    {
      "id": 61,
      "content": "[RESERVED_57]",
      "single_word": false,
      "lstrip": false,
      "rstrip": false,
      "normalized": false,
      "special": true
    },
    {
      "id": 62,
      "content": "[RESERVED_58]",
      "single_word": false,
      "lstrip": false,
      "rstrip": false,
      "normalized": false,
      "special": true
    },
    {
      "id": 63,
      "content": "[RESERVED_59]",
      "single_word": false,
      "lstrip": false,
      "rstrip": false,
      "normalized": false,
      "special": true
    },
    {
      "id": 64,
      "content": "[RESERVED_60]",
      "single_word": false,
      "lstrip": false,
      "rstrip": false,
      "normalized": false,
      "special": true
    },
    {
      "id": 65,
      "content": "[RESERVED_61]",
      "single_word": false,
      "lstrip": false,
      "rstrip": false,
      "normalized": false,
      "special": true
    },
    {
      "id": 66,
      "content": "[RESERVED_62]",
      "single_word": false,
      "lstrip": false,
      "rstrip": false,
      "normalized": false,
      "special": true
    },
    {
      "id": 67,
      "content": "[RESERVED_63]",
      "single_word": false,
      "lstrip": false,
      "rstrip": false,
      "normalized": false,
      "special": true
    },
    {
      "id": 68,
      "content": "[RESERVED_64]",
      "single_word": false,
      "lstrip": false,
      "rstrip": false,
      "normalized": false,
      "special": true
    },
    {
      "id": 69,
      "content": "[RESERVED_65]",
      "single_word": false,
      "lstrip": false,
      "rstrip": false,
      "normalized": false,
      "special": true
    },
    {
      "id": 70,
      "content": "[RESERVED_66]",
      "single_word": false,
      "lstrip": false,
      "rstrip": false,
      "normalized": false,
      "special": true
    },
    {
      "id": 71,
      "content": "[RESERVED_67]",
      "single_word": false,
      "lstrip": false,
      "rstrip": false,
      "normalized": false,
      "special": true
    },
    {
      "id": 72,
      "content": "[RESERVED_68]",
      "single_word": false,
      "lstrip": false,
      "rstrip": false,
      "normalized": false,
      "special": true
    },
    {
      "id": 73,
      "content": "[RESERVED_69]",
      "single_word": false,
      "lstrip": false,
      "rstrip": false,
      "normalized": false,
      "special": true
    },
    {
      "id": 74,
      "content": "[RESERVED_70]",
      "single_word": false,
      "lstrip": false,
      "rstrip": false,
      "normalized": false,
      "special": true
    },
    {
      "id": 75,
      "content": "[RESERVED_71]",
      "single_word": false,
      "lstrip": false,
      "rstrip": false,
      "normalized": false,
      "special": true
    },
    {
      "id": 76,
      "content": "[RESERVED_72]",
      "single_word": false,
      "lstrip": false,
      "rstrip": false,
      "normalized": false,
      "special": true
    },
    {
      "id": 77,
      "content": "[RESERVED_73]",
      "single_word": false,
      "lstrip": false,
      "rstrip": false,
      "normalized": false,
      "special": true
    },
    {
      "id": 78,
      "content": "[RESERVED_74]",
      "single_word": false,
      "lstrip": false,
      "rstrip": false,
      "normalized": false,
      "special": true
    },
    {
      "id": 79,
      "content": "[RESERVED_75]",
      "single_word": false,
      "lstrip": false,
      "rstrip": false,
      "normalized": false,
      "special": true
    },
    {
      "id": 80,
      "content": "[RESERVED_76]",
      "single_word": false,
      "lstrip": false,
      "rstrip": false,
      "normalized": false,
      "special": true
    },
    {
      "id": 81,
      "content": "[RESERVED_77]",
      "single_word": false,
      "lstrip": false,
      "rstrip": false,
      "normalized": false,
      "special": true
    },
    {
      "id": 82,
      "content": "[RESERVED_78]",
      "single_word": false,
      "lstrip": false,
      "rstrip": false,
      "normalized": false,
      "special": true
    },
    {
      "id": 83,
      "content": "[RESERVED_79]",
      "single_word": false,
      "lstrip": false,
      "rstrip": false,
      "normalized": false,
      "special": true
    },
    {
      "id": 84,
      "content": "[RESERVED_80]",
      "single_word": false,
      "lstrip": false,
      "rstrip": false,
      "normalized": false,
      "special": true
    },
    {
      "id": 85,
      "content": "[RESERVED_81]",
      "single_word": false,
      "lstrip": false,
      "rstrip": false,
      "normalized": false,
      "special": true
    },
    {
      "id": 86,
      "content": "[RESERVED_82]",
      "single_word": false,
      "lstrip": false,
      "rstrip": false,
      "normalized": false,
      "special": true
    },
    {
      "id": 87,
      "content": "[RESERVED_83]",
      "single_word": false,
      "lstrip": false,
      "rstrip": false,
      "normalized": false,
      "special": true
    },
    {
      "id": 88,
      "content": "[RESERVED_84]",
      "single_word": false,
      "lstrip": false,
      "rstrip": false,
      "normalized": false,
      "special": true
    },
    {
      "id": 89,
      "content": "[RESERVED_85]",
      "single_word": false,
      "lstrip": false,
      "rstrip": false,
      "normalized": false,
      "special": true
    },
    {
      "id": 90,
      "content": "[RESERVED_86]",
      "single_word": false,
      "lstrip": false,
      "rstrip": false,
      "normalized": false,
      "special": true
    },
    {
      "id": 91,
      "content": "[RESERVED_87]",
      "single_word": false,
      "lstrip": false,
      "rstrip": false,
      "normalized": false,
      "special": true
    },
    {
      "id": 92,
      "content": "[RESERVED_88]",
      "single_word": false,
      "lstrip": false,
      "rstrip": false,
      "normalized": false,
      "special": true
    },
    {
      "id": 93,
      "content": "[RESERVED_89]",
      "single_word": false,
      "lstrip": false,
      "rstrip": false,
      "normalized": false,
      "special": true
    },
    {
      "id": 94,
      "content": "[RESERVED_90]",
      "single_word": false,
      "lstrip": false,
      "rstrip": false,
      "normalized": false,
      "special": true
    },
    {
      "id": 95,
      "content": "[RESERVED_91]",
      "single_word": false,
      "lstrip": false,
      "rstrip": false,
      "normalized": false,
      "special": true
    },
    {
      "id": 96,
      "content": "[RESERVED_92]",
      "single_word": false,
      "lstrip": false,
      "rstrip": false,
      "normalized": false,
      "special": true
    },
    {
      "id": 97,
      "content": "[RESERVED_93]",
      "single_word": false,
      "lstrip": false,
      "rstrip": false,
      "normalized": false,
      "special": true
    },
    {
      "id": 98,
      "content": "[RESERVED_94]",
      "single_word": false,
      "lstrip": false,
      "rstrip": false,
      "normalized": false,
      "special": true
    },
    {
      "id": 99,
      "content": "[RESERVED_95]",
      "single_word": false,
      "lstrip": false,
      "rstrip": false,
      "normalized": false,
      "special": true
    },
    {
      "id": 100,
      "content": "[RESERVED_96]",
      "single_word": false,
      "lstrip": false,
      "rstrip": false,
      "normalized": false,
      "special": true
    },
    {
      "id": 101,
      "content": "[RESERVED_97]",
      "single_word": false,
      "lstrip": false,
      "rstrip": false,
      "normalized": false,
      "special": true
    },
    {
      "id": 102,
      "content": "[RESERVED_98]",
      "single_word": false,
      "lstrip": false,
      "rstrip": false,
      "normalized": false,
      "special": true
    },
    {
      "id": 103,
      "content": "[RESERVED_99]",
      "single_word": false,
      "lstrip": false,
      "rstrip": false,
      "normalized": false,
      "special": true
    },
    {
      "id": 104,
      "content": "[RESERVED_100]",
      "single_word": false,
      "lstrip": false,
      "rstrip": false,
      "normalized": false,
      "special": true
    },
    {
      "id": 105,
      "content": "[RESERVED_101]",
      "single_word": false,
      "lstrip": false,
      "rstrip": false,
      "normalized": false,
      "special": true
    },
    {
      "id": 106,
      "content": "[RESERVED_102]",
      "single_word": false,
      "lstrip": false,
      "rstrip": false,
      "normalized": false,
      "special": true
    },
    {
      "id": 107,
      "content": "[RESERVED_103]",
      "single_word": false,
      "lstrip": false,
      "rstrip": false,
      "normalized": false,
      "special": true
    },
    {
      "id": 108,
      "content": "[RESERVED_104]",
      "single_word": false,
      "lstrip": false,
      "rstrip": false,
      "normalized": false,
      "special": true
    },
    {
      "id": 109,
      "content": "[RESERVED_105]",
      "single_word": false,
      "lstrip": false,
      "rstrip": false,
      "normalized": false,
      "special": true
    },
    {
      "id": 110,
      "content": "[RESERVED_106]",
      "single_word": false,
      "lstrip": false,
      "rstrip": false,
      "normalized": false,
      "special": true
    },
    {
      "id": 111,
      "content": "[RESERVED_107]",
      "single_word": false,
      "lstrip": false,
      "rstrip": false,
      "normalized": false,
      "special": true
    },
    {
      "id": 112,
      "content": "[RESERVED_108]",
      "single_word": false,
      "lstrip": false,
      "rstrip": false,
      "normalized": false,
      "special": true
    },
    {
      "id": 113,
      "content": "[RESERVED_109]",
      "single_word": false,
      "lstrip": false,
      "rstrip": false,
      "normalized": false,
      "special": true
    },
    {
      "id": 114,
      "content": "[RESERVED_110]",
      "single_word": false,
      "lstrip": false,
      "rstrip": false,
      "normalized": false,
      "special": true
    },
    {
      "id": 115,
      "content": "[RESERVED_111]",
      "single_word": false,
      "lstrip": false,
      "rstrip": false,
      "normalized": false,
      "special": true
    },
    {
      "id": 116,
      "content": "[RESERVED_112]",
      "single_word": false,
      "lstrip": false,
      "rstrip": false,
      "normalized": false,
      "special": true
    },
    {
      "id": 117,
      "content": "[RESERVED_113]",
      "single_word": false,
      "lstrip": false,
      "rstrip": false,
      "normalized": false,
      "special": true
    },
    {
      "id": 118,
      "content": "[RESERVED_114]",
      "single_word": false,
      "lstrip": false,
      "rstrip": false,
      "normalized": false,
      "special": true
    },
    {
      "id": 119,
      "content": "[RESERVED_115]",
      "single_word": false,
      "lstrip": false,
      "rstrip": false,
      "normalized": false,
      "special": true
    },
    {
      "id": 120,
      "content": "[RESERVED_116]",
      "single_word": false,
      "lstrip": false,
      "rstrip": false,
      "normalized": false,
      "special": true
    },
    {
      "id": 121,
      "content": "[RESERVED_117]",
      "single_word": false,
      "lstrip": false,
      "rstrip": false,
      "normalized": false,
      "special": true
    },
    {
      "id": 122,
      "content": "[RESERVED_118]",
      "single_word": false,
      "lstrip": false,
      "rstrip": false,
      "normalized": false,
      "special": true
    },
    {
      "id": 123,
      "content": "[RESERVED_119]",
      "single_word": false,
      "lstrip": false,
      "rstrip": false,
      "normalized": false,
      "special": true
    },
    {
      "id": 124,
      "content": "[RESERVED_120]",
      "single_word": false,
      "lstrip": false,
      "rstrip": false,
      "normalized": false,
      "special": true
    },
    {
      "id": 125,
      "content": "[RESERVED_121]",
      "single_word": false,
      "lstrip": false,
      "rstrip": false,
      "normalized": false,
      "special": true
    },
    {
      "id": 126,
      "content": "[RESERVED_122]",
      "single_word": false,
      "lstrip": false,
      "rstrip": false,
      "normalized": false,
      "special": true
    },
    {
      "id": 127,
      "content": "[RESERVED_123]",
      "single_word": false,
      "lstrip": false,
      "rstrip": false,
      "normalized": false,
      "special": true
    },
    {
      "id": 128,
      "content": "[RESERVED_124]",
      "single_word": false,
      "lstrip": false,
      "rstrip": false,
      "normalized": false,
      "special": true
    },
    {
      "id": 129,
      "content": "[RESERVED_125]",
      "single_word": false,
      "lstrip": false,
      "rstrip": false,
      "normalized": false,
      "special": true
    },
    {
      "id": 130,
      "content": "[RESERVED_126]",
      "single_word": false,
      "lstrip": false,
      "rstrip": false,
      "normalized": false,
      "special": true
    },
    {
      "id": 131,
      "content": "[RESERVED_127]",
      "single_word": false,
      "lstrip": false,
      "rstrip": false,
      "normalized": false,
      "special": true
    },
    {
      "id": 132,
      "content": "[RESERVED_128]",
      "single_word": false,
      "lstrip": false,
      "rstrip": false,
      "normalized": false,
      "special": true
    },
    {
      "id": 133,
      "content": "[RESERVED_129]",
      "single_word": false,
      "lstrip": false,
      "rstrip": false,
      "normalized": false,
      "special": true
    },
    {
      "id": 134,
      "content": "[RESERVED_130]",
      "single_word": false,
      "lstrip": false,
      "rstrip": false,
      "normalized": false,
      "special": true
    },
    {
      "id": 135,
      "content": "[RESERVED_131]",
      "single_word": false,
      "lstrip": false,
      "rstrip": false,
      "normalized": false,
      "special": true
    },
    {
      "id": 136,
      "content": "[RESERVED_132]",
      "single_word": false,
      "lstrip": false,
      "rstrip": false,
      "normalized": false,
      "special": true
    },
    {
      "id": 137,
      "content": "[RESERVED_133]",
      "single_word": false,
      "lstrip": false,
      "rstrip": false,
      "normalized": false,
      "special": true
    },
    {
      "id": 138,
      "content": "[RESERVED_134]",
      "single_word": false,
      "lstrip": false,
      "rstrip": false,
      "normalized": false,
      "special": true
    },
    {
      "id": 139,
      "content": "[RESERVED_135]",
      "single_word": false,
      "lstrip": false,
      "rstrip": false,
      "normalized": false,
      "special": true
    },
    {
      "id": 140,
      "content": "[RESERVED_136]",
      "single_word": false,
      "lstrip": false,
      "rstrip": false,
      "normalized": false,
      "special": true
    },
    {
      "id": 141,
      "content": "[RESERVED_137]",
      "single_word": false,
      "lstrip": false,
      "rstrip": false,
      "normalized": false,
      "special": true
    },
    {
      "id": 142,
      "content": "[RESERVED_138]",
      "single_word": false,
      "lstrip": false,
      "rstrip": false,
      "normalized": false,
      "special": true
    },
    {
      "id": 143,
      "content": "[RESERVED_139]",
      "single_word": false,
      "lstrip": false,
      "rstrip": false,
      "normalized": false,
      "special": true
    },
    {
      "id": 144,
      "content": "[RESERVED_140]",
      "single_word": false,
      "lstrip": false,
      "rstrip": false,
      "normalized": false,
      "special": true
    },
    {
      "id": 145,
      "content": "[RESERVED_141]",
      "single_word": false,
      "lstrip": false,
      "rstrip": false,
      "normalized": false,
      "special": true
    },
    {
      "id": 146,
      "content": "[RESERVED_142]",
      "single_word": false,
      "lstrip": false,
      "rstrip": false,
      "normalized": false,
      "special": true
    },
    {
      "id": 147,
      "content": "[RESERVED_143]",
      "single_word": false,
      "lstrip": false,
      "rstrip": false,
      "normalized": false,
      "special": true
    },
    {
      "id": 148,
      "content": "[RESERVED_144]",
      "single_word": false,
      "lstrip": false,
      "rstrip": false,
      "normalized": false,
      "special": true
    },
    {
      "id": 149,
      "content": "[RESERVED_145]",
      "single_word": false,
      "lstrip": false,
      "rstrip": false,
      "normalized": false,
      "special": true
    },
    {
      "id": 150,
      "content": "[RESERVED_146]",
      "single_word": false,
      "lstrip": false,
      "rstrip": false,
      "normalized": false,
      "special": true
    },
    {
      "id": 151,
      "content": "[RESERVED_147]",
      "single_word": false,
      "lstrip": false,
      "rstrip": false,
      "normalized": false,
      "special": true
    },
    {
      "id": 152,
      "content": "[RESERVED_148]",
      "single_word": false,
      "lstrip": false,
      "rstrip": false,
      "normalized": false,
      "special": true
    },
    {
      "id": 153,
      "content": "[RESERVED_149]",
      "single_word": false,
      "lstrip": false,
      "rstrip": false,
      "normalized": false,
      "special": true
    },
    {
      "id": 154,
      "content": "[RESERVED_150]",
      "single_word": false,
      "lstrip": false,
      "rstrip": false,
      "normalized": false,
      "special": true
    },
    {
      "id": 155,
      "content": "[RESERVED_151]",
      "single_word": false,
      "lstrip": false,
      "rstrip": false,
      "normalized": false,
      "special": true
    },
    {
      "id": 156,
      "content": "[RESERVED_152]",
      "single_word": false,
      "lstrip": false,
      "rstrip": false,
      "normalized": false,
      "special": true
    },
    {
      "id": 157,
      "content": "[RESERVED_153]",
      "single_word": false,
      "lstrip": false,
      "rstrip": false,
      "normalized": false,
      "special": true
    },
    {
      "id": 158,
      "content": "[RESERVED_154]",
      "single_word": false,
      "lstrip": false,
      "rstrip": false,
      "normalized": false,
      "special": true
    },
    {
      "id": 159,
      "content": "[RESERVED_155]",
      "single_word": false,
      "lstrip": false,
      "rstrip": false,
      "normalized": false,
      "special": true
    },
    {
      "id": 160,
      "content": "[RESERVED_156]",
      "single_word": false,
      "lstrip": false,
      "rstrip": false,
      "normalized": false,
      "special": true
    },
    {
      "id": 161,
      "content": "[RESERVED_157]",
      "single_word": false,
      "lstrip": false,
      "rstrip": false,
      "normalized": false,
      "special": true
    },
    {
      "id": 162,
      "content": "[RESERVED_158]",
      "single_word": false,
      "lstrip": false,
      "rstrip": false,
      "normalized": false,
      "special": true
    },
    {
      "id": 163,
      "content": "[RESERVED_159]",
      "single_word": false,
      "lstrip": false,
      "rstrip": false,
      "normalized": false,
      "special": true
    },
    {
      "id": 164,
      "content": "[RESERVED_160]",
      "single_word": false,
      "lstrip": false,
      "rstrip": false,
      "normalized": false,
      "special": true
    },
    {
      "id": 165,
      "content": "[RESERVED_161]",
      "single_word": false,
      "lstrip": false,
      "rstrip": false,
      "normalized": false,
      "special": true
    },
    {
      "id": 166,
      "content": "[RESERVED_162]",
      "single_word": false,
      "lstrip": false,
      "rstrip": false,
      "normalized": false,
      "special": true
    },
    {
      "id": 167,
      "content": "[RESERVED_163]",
      "single_word": false,
      "lstrip": false,
      "rstrip": false,
      "normalized": false,
      "special": true
    },
    {
      "id": 168,
      "content": "[RESERVED_164]",
      "single_word": false,
      "lstrip": false,
      "rstrip": false,
      "normalized": false,
      "special": true
    },
    {
      "id": 169,
      "content": "[RESERVED_165]",
      "single_word": false,
      "lstrip": false,
      "rstrip": false,
      "normalized": false,
      "special": true
    },
    {
      "id": 170,
      "content": "[RESERVED_166]",
      "single_word": false,
      "lstrip": false,
      "rstrip": false,
      "normalized": false,
      "special": true
    },
    {
      "id": 171,
      "content": "[RESERVED_167]",
      "single_word": false,
      "lstrip": false,
      "rstrip": false,
      "normalized": false,
      "special": true
    },
    {
      "id": 172,
      "content": "[RESERVED_168]",
      "single_word": false,
      "lstrip": false,
      "rstrip": false,
      "normalized": false,
      "special": true
    },
    {
      "id": 173,
      "content": "[RESERVED_169]",
      "single_word": false,
      "lstrip": false,
      "rstrip": false,
      "normalized": false,
      "special": true
    },
    {
      "id": 174,
      "content": "[RESERVED_170]",
      "single_word": false,
      "lstrip": false,
      "rstrip": false,
      "normalized": false,
      "special": true
    },
    {
      "id": 175,
      "content": "[RESERVED_171]",
      "single_word": false,
      "lstrip": false,
      "rstrip": false,
      "normalized": false,
      "special": true
    },
    {
      "id": 176,
      "content": "[RESERVED_172]",
      "single_word": false,
      "lstrip": false,
      "rstrip": false,
      "normalized": false,
      "special": true
    },
    {
      "id": 177,
      "content": "[RESERVED_173]",
      "single_word": false,
      "lstrip": false,
      "rstrip": false,
      "normalized": false,
      "special": true
    },
    {
      "id": 178,
      "content": "[RESERVED_174]",
      "single_word": false,
      "lstrip": false,
      "rstrip": false,
      "normalized": false,
      "special": true
    },
    {
      "id": 179,
      "content": "[RESERVED_175]",
      "single_word": false,
      "lstrip": false,
      "rstrip": false,
      "normalized": false,
      "special": true
    },
    {
      "id": 180,
      "content": "[RESERVED_176]",
      "single_word": false,
      "lstrip": false,
      "rstrip": false,
      "normalized": false,
      "special": true
    },
    {
      "id": 181,
      "content": "[RESERVED_177]",
      "single_word": false,
      "lstrip": false,
      "rstrip": false,
      "normalized": false,
      "special": true
    },
    {
      "id": 182,
      "content": "[RESERVED_178]",
      "single_word": false,
      "lstrip": false,
      "rstrip": false,
      "normalized": false,
      "special": true
    },
    {
      "id": 183,
      "content": "[RESERVED_179]",
      "single_word": false,
      "lstrip": false,
      "rstrip": false,
      "normalized": false,
      "special": true
    },
    {
      "id": 184,
      "content": "[RESERVED_180]",
      "single_word": false,
      "lstrip": false,
      "rstrip": false,
      "normalized": false,
      "special": true
    },
    {
      "id": 185,
      "content": "[RESERVED_181]",
      "single_word": false,
      "lstrip": false,
      "rstrip": false,
      "normalized": false,
      "special": true
    },
    {
      "id": 186,
      "content": "[RESERVED_182]",
      "single_word": false,
      "lstrip": false,
      "rstrip": false,
      "normalized": false,
      "special": true
    },
    {
      "id": 187,
      "content": "[RESERVED_183]",
      "single_word": false,
      "lstrip": false,
      "rstrip": false,
      "normalized": false,
      "special": true
    },
    {
      "id": 188,
      "content": "[RESERVED_184]",
      "single_word": false,
      "lstrip": false,
      "rstrip": false,
      "normalized": false,
      "special": true
    },
    {
      "id": 189,
      "content": "[RESERVED_185]",
      "single_word": false,
      "lstrip": false,
      "rstrip": false,
      "normalized": false,
      "special": true
    },
    {
      "id": 190,
      "content": "[RESERVED_186]",
      "single_word": false,
      "lstrip": false,
      "rstrip": false,
      "normalized": false,
      "special": true
    },
    {
      "id": 191,
      "content": "[RESERVED_187]",
      "single_word": false,
      "lstrip": false,
      "rstrip": false,
      "normalized": false,
      "special": true
    },
    {
      "id": 192,
      "content": "[RESERVED_188]",
      "single_word": false,
      "lstrip": false,
      "rstrip": false,
      "normalized": false,
      "special": true
    },
    {
      "id": 193,
      "content": "[RESERVED_189]",
      "single_word": false,
      "lstrip": false,
      "rstrip": false,
      "normalized": false,
      "special": true
    },
    {
      "id": 194,
      "content": "[RESERVED_190]",
      "single_word": false,
      "lstrip": false,
      "rstrip": false,
      "normalized": false,
      "special": true
    },
    {
      "id": 195,
      "content": "[RESERVED_191]",
      "single_word": false,
      "lstrip": false,
      "rstrip": false,
      "normalized": false,
      "special": true
    },
    {
      "id": 196,
      "content": "[RESERVED_192]",
      "single_word": false,
      "lstrip": false,
      "rstrip": false,
      "normalized": false,
      "special": true
    },
    {
      "id": 197,
      "content": "[RESERVED_193]",
      "single_word": false,
      "lstrip": false,
      "rstrip": false,
      "normalized": false,
      "special": true
    },
    {
      "id": 198,
      "content": "[RESERVED_194]",
      "single_word": false,
      "lstrip": false,
      "rstrip": false,
      "normalized": false,
      "special": true
    },
    {
      "id": 199,
      "content": "[RESERVED_195]",
      "single_word": false,
      "lstrip": false,
      "rstrip": false,
      "normalized": false,
      "special": true
    },
    {
      "id": 200,
      "content": "[RESERVED_196]",
      "single_word": false,
      "lstrip": false,
      "rstrip": false,
      "normalized": false,
      "special": true
    },
    {
      "id": 201,
      "content": "[RESERVED_197]",
      "single_word": false,
      "lstrip": false,
      "rstrip": false,
      "normalized": false,
      "special": true
    },
    {
      "id": 202,
      "content": "[RESERVED_198]",
      "single_word": false,
      "lstrip": false,
      "rstrip": false,
      "normalized": false,
      "special": true
    },
    {
      "id": 203,
      "content": "[RESERVED_199]",
      "single_word": false,
      "lstrip": false,
      "rstrip": false,
      "normalized": false,
      "special": true
    },
    {
      "id": 204,
      "content": "[RESERVED_200]",
      "single_word": false,
      "lstrip": false,
      "rstrip": false,
      "normalized": false,
      "special": true
    },
    {
      "id": 205,
      "content": "[RESERVED_201]",
      "single_word": false,
      "lstrip": false,
      "rstrip": false,
      "normalized": false,
      "special": true
    },
    {
      "id": 206,
      "content": "[RESERVED_202]",
      "single_word": false,
      "lstrip": false,
      "rstrip": false,
      "normalized": false,
      "special": true
    },
    {
      "id": 207,
      "content": "[RESERVED_203]",
      "single_word": false,
      "lstrip": false,
      "rstrip": false,
      "normalized": false,
      "special": true
    },
    {
      "id": 208,
      "content": "[RESERVED_204]",
      "single_word": false,
      "lstrip": false,
      "rstrip": false,
      "normalized": false,
      "special": true
    },
    {
      "id": 209,
      "content": "[RESERVED_205]",
      "single_word": false,
      "lstrip": false,
      "rstrip": false,
      "normalized": false,
      "special": true
    },
    {
      "id": 210,
      "content": "[RESERVED_206]",
      "single_word": false,
      "lstrip": false,
      "rstrip": false,
      "normalized": false,
      "special": true
    },
    {
      "id": 211,
      "content": "[RESERVED_207]",
      "single_word": false,
      "lstrip": false,
      "rstrip": false,
      "normalized": false,
      "special": true
    },
    {
      "id": 212,
      "content": "[RESERVED_208]",
      "single_word": false,
      "lstrip": false,
      "rstrip": false,
      "normalized": false,
      "special": true
    },
    {
      "id": 213,
      "content": "[RESERVED_209]",
      "single_word": false,
      "lstrip": false,
      "rstrip": false,
      "normalized": false,
      "special": true
    },
    {
      "id": 214,
      "content": "[RESERVED_210]",
      "single_word": false,
      "lstrip": false,
      "rstrip": false,
      "normalized": false,
      "special": true
    },
    {
      "id": 215,
      "content": "[RESERVED_211]",
      "single_word": false,
      "lstrip": false,
      "rstrip": false,
      "normalized": false,
      "special": true
    },
    {
      "id": 216,
      "content": "[RESERVED_212]",
      "single_word": false,
      "lstrip": false,
      "rstrip": false,
      "normalized": false,
      "special": true
    },
    {
      "id": 217,
      "content": "[RESERVED_213]",
      "single_word": false,
      "lstrip": false,
      "rstrip": false,
      "normalized": false,
      "special": true
    },
    {
      "id": 218,
      "content": "[RESERVED_214]",
      "single_word": false,
      "lstrip": false,
      "rstrip": false,
      "normalized": false,
      "special": true
    },
    {
      "id": 219,
      "content": "[RESERVED_215]",
      "single_word": false,
      "lstrip": false,
      "rstrip": false,
      "normalized": false,
      "special": true
    },
    {
      "id": 220,
      "content": "[RESERVED_216]",
      "single_word": false,
      "lstrip": false,
      "rstrip": false,
      "normalized": false,
      "special": true
    },
    {
      "id": 221,
      "content": "[RESERVED_217]",
      "single_word": false,
      "lstrip": false,
      "rstrip": false,
      "normalized": false,
      "special": true
    },
    {
      "id": 222,
      "content": "[RESERVED_218]",
      "single_word": false,
      "lstrip": false,
      "rstrip": false,
      "normalized": false,
      "special": true
    },
    {
      "id": 223,
      "content": "[RESERVED_219]",
      "single_word": false,
      "lstrip": false,
      "rstrip": false,
      "normalized": false,
      "special": true
    },
    {
      "id": 224,
      "content": "[RESERVED_220]",
      "single_word": false,
      "lstrip": false,
      "rstrip": false,
      "normalized": false,
      "special": true
    },
    {
      "id": 225,
      "content": "[RESERVED_221]",
      "single_word": false,
      "lstrip": false,
      "rstrip": false,
      "normalized": false,
      "special": true
    },
    {
      "id": 226,
      "content": "[RESERVED_222]",
      "single_word": false,
      "lstrip": false,
      "rstrip": false,
      "normalized": false,
      "special": true
    },
    {
      "id": 227,
      "content": "[RESERVED_223]",
      "single_word": false,
      "lstrip": false,
      "rstrip": false,
      "normalized": false,
      "special": true
    },
    {
      "id": 228,
      "content": "[RESERVED_224]",
      "single_word": false,
      "lstrip": false,
      "rstrip": false,
      "normalized": false,
      "special": true
    },
    {
      "id": 229,
      "content": "[RESERVED_225]",
      "single_word": false,
      "lstrip": false,
      "rstrip": false,
      "normalized": false,
      "special": true
    },
    {
      "id": 230,
      "content": "[RESERVED_226]",
      "single_word": false,
      "lstrip": false,
      "rstrip": false,
      "normalized": false,
      "special": true
    },
    {
      "id": 231,
      "content": "[RESERVED_227]",
      "single_word": false,
      "lstrip": false,
      "rstrip": false,
      "normalized": false,
      "special": true
    },
    {
      "id": 232,
      "content": "[RESERVED_228]",
      "single_word": false,
      "lstrip": false,
      "rstrip": false,
      "normalized": false,
      "special": true
    },
    {
      "id": 233,
      "content": "[RESERVED_229]",
      "single_word": false,
      "lstrip": false,
      "rstrip": false,
      "normalized": false,
      "special": true
    },
    {
      "id": 234,
      "content": "[RESERVED_230]",
      "single_word": false,
      "lstrip": false,
      "rstrip": false,
      "normalized": false,
      "special": true
    },
    {
      "id": 235,
      "content": "[RESERVED_231]",
      "single_word": false,
      "lstrip": false,
      "rstrip": false,
      "normalized": false,
      "special": true
    },
    {
      "id": 236,
      "content": "[RESERVED_232]",
      "single_word": false,
      "lstrip": false,
      "rstrip": false,
      "normalized": false,
      "special": true
    },
    {
      "id": 237,
      "content": "[RESERVED_233]",
      "single_word": false,
      "lstrip": false,
      "rstrip": false,
      "normalized": false,
      "special": true
    },
    {
      "id": 238,
      "content": "[RESERVED_234]",
      "single_word": false,
      "lstrip": false,
      "rstrip": false,
      "normalized": false,
      "special": true
    },
    {
      "id": 239,
      "content": "[RESERVED_235]",
      "single_word": false,
      "lstrip": false,
      "rstrip": false,
      "normalized": false,
      "special": true
    },
    {
      "id": 240,
      "content": "[RESERVED_236]",
      "single_word": false,
      "lstrip": false,
      "rstrip": false,
      "normalized": false,
      "special": true
    },
    {
      "id": 241,
      "content": "[RESERVED_237]",
      "single_word": false,
      "lstrip": false,
      "rstrip": false,
      "normalized": false,
      "special": true
    },
    {
      "id": 242,
      "content": "[RESERVED_238]",
      "single_word": false,
      "lstrip": false,
      "rstrip": false,
      "normalized": false,
      "special": true
    },
    {
      "id": 243,
      "content": "[RESERVED_239]",
      "single_word": false,
      "lstrip": false,
      "rstrip": false,
      "normalized": false,
      "special": true
    },
    {
      "id": 244,
      "content": "[RESERVED_240]",
      "single_word": false,
      "lstrip": false,
      "rstrip": false,
      "normalized": false,
      "special": true
    },
    {
      "id": 245,
      "content": "[RESERVED_241]",
      "single_word": false,
      "lstrip": false,
      "rstrip": false,
      "normalized": false,
      "special": true
    },
    {
      "id": 246,
      "content": "[RESERVED_242]",
      "single_word": false,
      "lstrip": false,
      "rstrip": false,
      "normalized": false,
      "special": true
    },
    {
      "id": 247,
      "content": "[RESERVED_243]",
      "single_word": false,
      "lstrip": false,
      "rstrip": false,
      "normalized": false,
      "special": true
    },
    {
      "id": 248,
      "content": "[RESERVED_244]",
      "single_word": false,
      "lstrip": false,
      "rstrip": false,
      "normalized": false,
      "special": true
    },
    {
      "id": 249,
      "content": "[RESERVED_245]",
      "single_word": false,
      "lstrip": false,
      "rstrip": false,
      "normalized": false,
      "special": true
    },
    {
      "id": 250,
      "content": "[RESERVED_246]",
      "single_word": false,
      "lstrip": false,
      "rstrip": false,
      "normalized": false,
      "special": true
    },
    {
      "id": 251,
      "content": "[RESERVED_247]",
      "single_word": false,
      "lstrip": false,
      "rstrip": false,
      "normalized": false,
      "special": true
    },
    {
      "id": 252,
      "content": "[RESERVED_248]",
      "single_word": false,
      "lstrip": false,
      "rstrip": false,
      "normalized": false,
      "special": true
    },
    {
      "id": 253,
      "content": "[RESERVED_249]",
      "single_word": false,
      "lstrip": false,
      "rstrip": false,
      "normalized": false,
      "special": true
    },
    {
      "id": 254,
      "content": "[RESERVED_250]",
      "single_word": false,
      "lstrip": false,
      "rstrip": false,
      "normalized": false,
      "special": true
    },
    {
      "id": 255,
      "content": "[RESERVED_251]",
      "single_word": false,
      "lstrip": false,
      "rstrip": false,
      "normalized": false,
      "special": true
    },
    {
      "id": 256,
      "content": "[RESERVED_252]",
      "single_word": false,
      "lstrip": false,
      "rstrip": false,
      "normalized": false,
      "special": true
    },
    {
      "id": 257,
      "content": "[RESERVED_253]",
      "single_word": false,
      "lstrip": false,
      "rstrip": false,
      "normalized": false,
      "special": true
    },
    {
      "id": 258,
      "content": "[RESERVED_254]",
      "single_word": false,
      "lstrip": false,
      "rstrip": false,
      "normalized": false,
      "special": true
    },
    {
      "id": 259,
      "content": "[RESERVED_255]",
      "single_word": false,
      "lstrip": false,
      "rstrip": false,
      "normalized": false,
      "special": true
    }
  ],
  "normalizer": {
    "type": "Sequence",
    "normalizers": [
      {
        "type": "NFKC"
      },
      {
        "type": "Lowercase"
      }
    ]
  },
  "pre_tokenizer": {
    "type": "Whitespace"
  },
  "post_processor": null,
  "decoder": null,
  "model": {
    "type": "Unigram",
    "unk_id": 3,
    "vocab": [
      [
        "<s>",
        0.0
      ],
      [
        "</s>",
        0.0
      ],
      [
        "<unk>",
        0.0
      ],
      [
        "[UNK]",
        0.0
      ],
      [
        "[RESERVED_0]",
        0.0
      ],
      [
        "[RESERVED_1]",
        0.0
      ],
      [
        "[RESERVED_2]",
        0.0
      ],
      [
        "[RESERVED_3]",
        0.0
      ],
      [
        "[RESERVED_4]",
        0.0
      ],
      [
        "[RESERVED_5]",
        0.0
      ],
      [
        "[RESERVED_6]",
        0.0
      ],
      [
        "[RESERVED_7]",
        0.0
      ],
      [
        "[RESERVED_8]",
        0.0
      ],
      [
        "[RESERVED_9]",
        0.0
      ],
      [
        "[RESERVED_10]",
        0.0
      ],
      [
        "[RESERVED_11]",
        0.0
      ],
      [
        "[RESERVED_12]",
        0.0
      ],
      [
        "[RESERVED_13]",
        0.0
      ],
      [
        "[RESERVED_14]",
        0.0
      ],
      [
        "[RESERVED_15]",
        0.0
      ],
      [
        "[RESERVED_16]",
        0.0
      ],
      [
        "[RESERVED_17]",
        0.0
      ],
      [
        "[RESERVED_18]",
        0.0
      ],
      [
        "[RESERVED_19]",
        0.0
      ],
      [
        "[RESERVED_20]",
        0.0
      ],
      [
        "[RESERVED_21]",
        0.0
      ],
      [
        "[RESERVED_22]",
        0.0
      ],
      [
        "[RESERVED_23]",
        0.0
      ],
      [
        "[RESERVED_24]",
        0.0
      ],
      [
        "[RESERVED_25]",
        0.0
      ],
      [
        "[RESERVED_26]",
        0.0
      ],
      [
        "[RESERVED_27]",
        0.0
      ],
      [
        "[RESERVED_28]",
        0.0
      ],
      [
        "[RESERVED_29]",
        0.0
      ],
      [
        "[RESERVED_30]",
        0.0
      ],
      [
        "[RESERVED_31]",
        0.0
      ],
      [
        "[RESERVED_32]",
        0.0
      ],
      [
        "[RESERVED_33]",
        0.0
      ],
      [
        "[RESERVED_34]",
        0.0
      ],
      [
        "[RESERVED_35]",
        0.0
      ],
      [
        "[RESERVED_36]",
        0.0
      ],
      [
        "[RESERVED_37]",
        0.0
      ],
      [
        "[RESERVED_38]",
        0.0
      ],
      [
        "[RESERVED_39]",
        0.0
      ],
      [
        "[RESERVED_40]",
        0.0
      ],
      [
        "[RESERVED_41]",
        0.0
      ],
      [
        "[RESERVED_42]",
        0.0
      ],
      [
        "[RESERVED_43]",
        0.0
      ],
      [
        "[RESERVED_44]",
        0.0
      ],
      [
        "[RESERVED_45]",
        0.0
      ],
      [
        "[RESERVED_46]",
        0.0
      ],
      [
        "[RESERVED_47]",
        0.0
      ],
      [
        "[RESERVED_48]",
        0.0
      ],
      [
        "[RESERVED_49]",
        0.0
      ],
      [
        "[RESERVED_50]",
        0.0
      ],
      [
        "[RESERVED_51]",
        0.0
      ],
      [
        "[RESERVED_52]",
        0.0
      ],
      [
        "[RESERVED_53]",
        0.0
      ],
      [
        "[RESERVED_54]",
        0.0
      ],
      [
        "[RESERVED_55]",
        0.0
      ],
      [
        "[RESERVED_56]",
        0.0
      ],
      [
        "[RESERVED_57]",
        0.0
      ],
      [
        "[RESERVED_58]",
        0.0
      ],
      [
        "[RESERVED_59]",
        0.0
      ],
      [
        "[RESERVED_60]",
        0.0
      ],
      [
        "[RESERVED_61]",
        0.0
      ],
      [
        "[RESERVED_62]",
        0.0
      ],
      [
        "[RESERVED_63]",
        0.0
      ],
      [
        "[RESERVED_64]",
        0.0
      ],
      [
        "[RESERVED_65]",
        0.0
      ],
      [
        "[RESERVED_66]",
        0.0
      ],
      [
        "[RESERVED_67]",
        0.0
      ],
      [
        "[RESERVED_68]",
        0.0
      ],
      [
        "[RESERVED_69]",
        0.0
      ],
      [
        "[RESERVED_70]",
        0.0
      ],
      [
        "[RESERVED_71]",
        0.0
      ],
      [
        "[RESERVED_72]",
        0.0
      ],
      [
        "[RESERVED_73]",
        0.0
      ],
      [
        "[RESERVED_74]",
        0.0
      ],
      [
        "[RESERVED_75]",
        0.0
      ],
      [
        "[RESERVED_76]",
        0.0
      ],
      [
        "[RESERVED_77]",
        0.0
      ],
      [
        "[RESERVED_78]",
        0.0
      ],
      [
        "[RESERVED_79]",
        0.0
      ],
      [
        "[RESERVED_80]",
        0.0
      ],
      [
        "[RESERVED_81]",
        0.0
      ],
      [
        "[RESERVED_82]",
        0.0
      ],
      [
        "[RESERVED_83]",
        0.0
      ],
      [
        "[RESERVED_84]",
        0.0
      ],
      [
        "[RESERVED_85]",
        0.0
      ],
      [
        "[RESERVED_86]",
        0.0
      ],
      [
        "[RESERVED_87]",
        0.0
      ],
      [
        "[RESERVED_88]",
        0.0
      ],
      [
        "[RESERVED_89]",
        0.0
      ],
      [
        "[RESERVED_90]",
        0.0
      ],
      [
        "[RESERVED_91]",
        0.0
      ],
      [
        "[RESERVED_92]",
        0.0
      ],
      [
        "[RESERVED_93]",
        0.0
      ],
      [
        "[RESERVED_94]",
        0.0
      ],
      [
        "[RESERVED_95]",
        0.0
      ],
      [
        "[RESERVED_96]",
        0.0
      ],
      [
        "[RESERVED_97]",
        0.0
      ],
      [
        "[RESERVED_98]",
        0.0
      ],
      [
        "[RESERVED_99]",
        0.0
      ],
      [
        "[RESERVED_100]",
        0.0
      ],
      [
        "[RESERVED_101]",
        0.0
      ],
      [
        "[RESERVED_102]",
        0.0
      ],
      [
        "[RESERVED_103]",
        0.0
      ],
      [
        "[RESERVED_104]",
        0.0
      ],
      [
        "[RESERVED_105]",
        0.0
      ],
      [
        "[RESERVED_106]",
        0.0
      ],
      [
        "[RESERVED_107]",
        0.0
      ],
      [
        "[RESERVED_108]",
        0.0
      ],
      [
        "[RESERVED_109]",
        0.0
      ],
      [
        "[RESERVED_110]",
        0.0
      ],
      [
        "[RESERVED_111]",
        0.0
      ],
      [
        "[RESERVED_112]",
        0.0
      ],
      [
        "[RESERVED_113]",
        0.0
      ],
      [
        "[RESERVED_114]",
        0.0
      ],
      [
        "[RESERVED_115]",
        0.0
      ],
      [
        "[RESERVED_116]",
        0.0
      ],
      [
        "[RESERVED_117]",
        0.0
      ],
      [
        "[RESERVED_118]",
        0.0
      ],
      [
        "[RESERVED_119]",
        0.0
      ],
      [
        "[RESERVED_120]",
        0.0
      ],
      [
        "[RESERVED_121]",
        0.0
      ],
      [
        "[RESERVED_122]",
        0.0
      ],
      [
        "[RESERVED_123]",
        0.0
      ],
      [
        "[RESERVED_124]",
        0.0
      ],
      [
        "[RESERVED_125]",
        0.0
      ],
      [
        "[RESERVED_126]",
        0.0
      ],
      [
        "[RESERVED_127]",
        0.0
      ],
      [
        "[RESERVED_128]",
        0.0
      ],
      [
        "[RESERVED_129]",
        0.0
      ],
      [
        "[RESERVED_130]",
        0.0
      ],
      [
        "[RESERVED_131]",
        0.0
      ],
      [
        "[RESERVED_132]",
        0.0
      ],
      [
        "[RESERVED_133]",
        0.0
      ],
      [
        "[RESERVED_134]",
        0.0
      ],
      [
        "[RESERVED_135]",
        0.0
      ],
      [
        "[RESERVED_136]",
        0.0
      ],
      [
        "[RESERVED_137]",
        0.0
      ],
      [
        "[RESERVED_138]",
        0.0
      ],
      [
        "[RESERVED_139]",
        0.0
      ],
      [
        "[RESERVED_140]",
        0.0
      ],
      [
        "[RESERVED_141]",
        0.0
      ],
      [
        "[RESERVED_142]",
        0.0
      ],
      [
        "[RESERVED_143]",
        0.0
      ],
      [
        "[RESERVED_144]",
        0.0
      ],
      [
        "[RESERVED_145]",
        0.0
      ],
      [
        "[RESERVED_146]",
        0.0
      ],
      [
        "[RESERVED_147]",
        0.0
      ],
      [
        "[RESERVED_148]",
        0.0
      ],
      [
        "[RESERVED_149]",
        0.0
      ],
      [
        "[RESERVED_150]",
        0.0
      ],
      [
        "[RESERVED_151]",
        0.0
      ],
      [
        "[RESERVED_152]",
        0.0
      ],
      [
        "[RESERVED_153]",
        0.0
      ],
      [
        "[RESERVED_154]",
        0.0
      ],
      [
        "[RESERVED_155]",
        0.0
      ],
      [
        "[RESERVED_156]",
        0.0
      ],
      [
        "[RESERVED_157]",
        0.0
      ],
      [
        "[RESERVED_158]",
        0.0
      ],
      [
        "[RESERVED_159]",
        0.0
      ],
      [
        "[RESERVED_160]",
        0.0
      ],
      [
        "[RESERVED_161]",
        0.0
      ],
      [
        "[RESERVED_162]",
        0.0
      ],
      [
        "[RESERVED_163]",
        0.0
      ],
      [
        "[RESERVED_164]",
        0.0
      ],
      [
        "[RESERVED_165]",
        0.0
      ],
      [
        "[RESERVED_166]",
        0.0
      ],
      [
        "[RESERVED_167]",
        0.0
      ],
      [
        "[RESERVED_168]",
        0.0
      ],
      [
        "[RESERVED_169]",
        0.0
      ],
      [
        "[RESERVED_170]",
        0.0
      ],
      [
        "[RESERVED_171]",
        0.0
      ],
      [
        "[RESERVED_172]",
        0.0
      ],
      [
        "[RESERVED_173]",
        0.0
      ],
      [
        "[RESERVED_174]",
        0.0
      ],
      [
        "[RESERVED_175]",
        0.0
      ],
      [
        "[RESERVED_176]",
        0.0
      ],
      [
        "[RESERVED_177]",
        0.0
      ],
      [
        "[RESERVED_178]",
        0.0
      ],
      [
        "[RESERVED_179]",
        0.0
      ],
      [
        "[RESERVED_180]",
        0.0
      ],
      [
        "[RESERVED_181]",
        0.0
      ],
      [
        "[RESERVED_182]",
        0.0
      ],
      [
        "[RESERVED_183]",
        0.0
      ],
      [
        "[RESERVED_184]",
        0.0
      ],
      [
        "[RESERVED_185]",
        0.0
      ],
      [
        "[RESERVED_186]",
        0.0
      ],
      [
        "[RESERVED_187]",
        0.0
      ],
      [
        "[RESERVED_188]",
        0.0
      ],
      [
        "[RESERVED_189]",
        0.0
      ],
      [
        "[RESERVED_190]",
        0.0
      ],
      [
        "[RESERVED_191]",
        0.0
      ],
      [
        "[RESERVED_192]",
        0.0
      ],
      [
        "[RESERVED_193]",
        0.0
      ],
      [
        "[RESERVED_194]",
        0.0
      ],
      [
        "[RESERVED_195]",
        0.0
      ],
      [
        "[RESERVED_196]",
        0.0
      ],
      [
        "[RESERVED_197]",
        0.0
      ],
      [
        "[RESERVED_198]",
        0.0
      ],
      [
        "[RESERVED_199]",
        0.0
      ],
      [
        "[RESERVED_200]",
        0.0
      ],
      [
        "[RESERVED_201]",
        0.0
      ],
      [
        "[RESERVED_202]",
        0.0
      ],
      [
        "[RESERVED_203]",
        0.0
      ],
      [
        "[RESERVED_204]",
        0.0
      ],
      [
        "[RESERVED_205]",
        0.0
      ],
      [
        "[RESERVED_206]",
        0.0
      ],
      [
        "[RESERVED_207]",
        0.0
      ],
      [
        "[RESERVED_208]",
        0.0
      ],
      [
        "[RESERVED_209]",
        0.0
      ],
      [
        "[RESERVED_210]",
        0.0
      ],
      [
        "[RESERVED_211]",
        0.0
      ],
      [
        "[RESERVED_212]",
        0.0
      ],
      [
        "[RESERVED_213]",
        0.0
      ],
      [
        "[RESERVED_214]",
        0.0
      ],
      [
        "[RESERVED_215]",
        0.0
      ],
      [
        "[RESERVED_216]",
        0.0
      ],
      [
        "[RESERVED_217]",
        0.0
      ],
      [
        "[RESERVED_218]",
        0.0
      ],
      [
        "[RESERVED_219]",
        0.0
      ],
      [
        "[RESERVED_220]",
        0.0
      ],
      [
        "[RESERVED_221]",
        0.0
      ],
      [
        "[RESERVED_222]",
        0.0
      ],
      [
        "[RESERVED_223]",
        0.0
      ],
      [
        "[RESERVED_224]",
        0.0
      ],
      [
        "[RESERVED_225]",
        0.0
      ],
      [
        "[RESERVED_226]",
        0.0
      ],
      [
        "[RESERVED_227]",
        0.0
      ],
      [
        "[RESERVED_228]",
        0.0
      ],
      [
        "[RESERVED_229]",
        0.0
      ],
      [
        "[RESERVED_230]",
        0.0
      ],
      [
        "[RESERVED_231]",
        0.0
      ],
      [
        "[RESERVED_232]",
        0.0
      ],
      [
        "[RESERVED_233]",
        0.0
      ],
      [
        "[RESERVED_234]",
        0.0
      ],
      [
        "[RESERVED_235]",
        0.0
      ],
      [
        "[RESERVED_236]",
        0.0
      ],
      [
        "[RESERVED_237]",
        0.0
      ],
      [
        "[RESERVED_238]",
        0.0
      ],
      [
        "[RESERVED_239]",
        0.0
      ],
      [
        "[RESERVED_240]",
        0.0
      ],
      [
        "[RESERVED_241]",
        0.0
      ],
      [
        "[RESERVED_242]",
        0.0
      ],
      [
        "[RESERVED_243]",
        0.0
      ],
      [
        "[RESERVED_244]",
        0.0
      ],
      [
        "[RESERVED_245]",
        0.0
      ],
      [
        "[RESERVED_246]",
        0.0
      ],
      [
        "[RESERVED_247]",
        0.0
      ],
      [
        "[RESERVED_248]",
        0.0
      ],
      [
        "[RESERVED_249]",
        0.0
      ],
      [
        "[RESERVED_250]",
        0.0
      ],
      [
        "[RESERVED_251]",
        0.0
      ],
      [
        "[RESERVED_252]",
        0.0
      ],
      [
        "[RESERVED_253]",
        0.0
      ],
      [
        "[RESERVED_254]",
        0.0
      ],
      [
        "[RESERVED_255]",
        0.0
      ],
      [
        "o",
        -2.8484637214241246
      ],
      [
        "s",
        -3.0450714818448823
      ],
      [
        "t",
        -3.129806142053873
      ],
      [
        "i",
        -3.175156804123727
      ],
      [
        "a",
        -3.2822064766566186
      ],
      [
        "the",
        -3.3348280042647964
      ],
      [
        "n",
        -3.367286231127949
      ],
      [
        ",",
        -3.4470820365924695
      ],
      [
        "e",
        -3.461535352678272
      ],
      [
        ".",
        -3.51014905372406
      ],
      [
        "f",
        -3.893824798215043
      ],
      [
        "and",
        -4.156897450154549
      ],
      [
        "r",
        -4.367459548632738
      ],
      [
        "d",
        -4.5737230306293135
      ],
      [
        "h",
        -4.804194903269195
      ],
      [
        "that",
        -4.899259766847493
      ],
      [
        "-",
        -4.901027619323905
      ],
      [
        "m",
        -4.915247916483086
      ],
      [
        "b",
        -4.946025104611863
      ],
      [
        "l",
        -4.980432122297213
      ],
      [
        "’",
        -5.074995771206556
      ],
      [
        "for",
        -5.132136120455922
      ],
      [
        "y",
        -5.2113217399485166
      ],
      [
        "w",
        -5.2286117303648005
      ],
      [
        "u",
        -5.252070279113102
      ],
      [
        "'",
        -5.328500097184747
      ],
      [
        "c",
        -5.352692310610699
      ],
      [
        "\"",
        -5.422029046846099
      ],
      [
        "with",
        -5.475274790205027
      ],
      [
        "was",
        -5.564500602113668
      ],
      [
        "g",
        -5.604578862597851
      ],
      [
        "p",
        -5.61752314701911
      ],
      [
        "are",
        -5.708616726254313
      ],
      [
        ":",
        -5.7134489379507585
      ],
      [
        "you",
        -5.756369278485526
      ],
      [
        "(",
        -5.75767607215607
      ],
      [
        "this",
        -5.786320217851596
      ],
      [
        "by",
        -5.882076478967189
      ],
      [
        "“",
        -5.884359926051271
      ],
      [
        "have",
        -5.900666896296659
      ],
      [
        ")",
        -5.930430034732559
      ],
      [
        "from",
        -5.947511135384843
      ],
      [
        "but",
        -5.981956385364462
      ],
      [
        "ing",
        -6.0707681638434
      ],
      [
        "his",
        -6.111916757372615
      ],
      [
        "has",
        -6.157137687511462
      ],
      [
        "they",
        -6.180702234899293
      ],
      [
        "k",
        -6.2639263788503605
      ],
      [
        "v",
        -6.277379373274982
      ],
      [
        "one",
        -6.283072460404462
      ],
      [
        "all",
        -6.318743092935577
      ],
      [
        "will",
        -6.337024721794471
      ],
      [
        "”",
        -6.345120627236948
      ],
      [
        "said",
        -6.350197686867904
      ],
      [
        "can",
        -6.3886115346676355
      ],
      [
        "more",
        -6.425803860110058
      ],
      [
        "their",
        -6.44132141836139
      ],
      [
        "who",
        -6.491532358245593
      ],
      [
        "up",
        -6.531484978746487
      ],
      [
        "out",
        -6.539630996871711
      ],
      [
        "about",
        -6.546151517768344
      ],
      [
        "there",
        -6.588785933219306
      ],
      [
        "had",
        -6.589596915696163
      ],
      [
        "were",
        -6.598380912731738
      ],
      [
        "which",
        -6.606711658931829
      ],
      [
        "would",
        -6.633212839133229
      ],
      [
        "/",
        -6.651133421251799
      ],
      [
        "1",
        -6.663065115630461
      ],
      [
        "what",
        -6.674566117784687
      ],
      [
        "when",
        -6.67580964348957
      ],
      [
        "been",
        -6.705407973533635
      ],
      [
        "new",
        -6.730939745566685
      ],
      [
        "time",
        -6.751630609306302
      ],
      [
        "like",
        -6.768321903956686
      ],
      [
        "her",
        -6.797983796730639
      ],
      [
        "]",
        -6.804725152038786
      ],
      [
        "2",
        -6.810644971749841
      ],
      [
        "?",
        -6.818425065229315
      ],
      [
        "also",
        -6.838052367839941
      ],
      [
        "people",
        -6.8495785716346695
      ],
      [
        "our",
        -6.855524990185289
      ],
      [
        "—",
        -6.88584726848735
      ],
      [
        "some",
        -6.891608068091964
      ],
      [
        "other",
        -6.925841679183385
      ],
      [
        "over",
        -6.934069322621223
      ],
      [
        "than",
        -6.940358610190424
      ],
      [
        "just",
        -6.944317124739216
      ],
      [
        "your",
        -6.964736677519895
      ],
      [
        "after",
        -7.006820619288096
      ],
      [
        "into",
        -7.022263402421508
      ],
      [
        "3",
        -7.0393590951877645
      ],
      [
        "first",
        -7.054668823616215
      ],
      [
        ".”",
        -7.091543184741644
      ],
      [
        "how",
        -7.107553639013327
      ],
      [
        "year",
        -7.120763366987918
      ],
      [
        "x",
        -7.126340957198387
      ],
      [
        "–",
        -7.1288696341078435
      ],
      [
        "now",
        -7.142822796952101
      ],
      [
        "only",
        -7.155938906035098
      ],
      [
        "get",
        -7.164205953436461
      ],
      [
        ";",
        -7.173143075182891
      ],
      [
        "[",
        -7.187569974619395
      ],
      [
        "even",
        -7.197103420219204
      ],
      [
        "could",
        -7.21689183329841
      ],
      [
        "z",
        -7.230559555395246
      ],
      [
        "j",
        -7.236890139427439
      ],
      [
        "most",
        -7.251729473231523
      ],
      [
        "5",
        -7.272873768284455
      ],
      [
        "because",
        -7.282982770758711
      ],
      [
        "4",
        -7.284101695436641
      ],
      [
        "man",
        -7.307776919871541
      ],
      [
        "$",
        -7.311681181739141
      ],
      [
        "any",
        -7.3136949175529296
      ],
      [
        "way",
        -7.31660266234773
      ],
      [
        "these",
        -7.324099503197512
      ],
      [
        "him",
        -7.325908099831727
      ],
      [
        "back",
        -7.345540530988552
      ],
      [
        "make",
        -7.351533661182678
      ],
      [
        "them",
        -7.36831672986845
      ],
      [
        "well",
        -7.37974006420589
      ],
      [
        "don",
        -7.411532180098503
      ],
      [
        "may",
        -7.427228768960228
      ],
      [
        "state",
        -7.429278424572065
      ],
      [
        "many",
        -7.433695865783189
      ],
      [
        "0",
        -7.441406590191933
      ],
      [
        "while",
        -7.446861131372092
      ],
      [
        "years",
        -7.450164973581256
      ],
      [
        "where",
        -7.458341114625647
      ],
      [
        "last",
        -7.470080101043171
      ],
      [
        "being",
        -7.47369008085119
      ],
      [
        "world",
        -7.476927618279273
      ],
      [
        "those",
        -7.499683641041194
      ],
      [
        "very",
        -7.51295909121016
      ],
      [
        "work",
        -7.535012584791401
      ],
      [
        "use",
        -7.540120719207778
      ],
      [
        "game",
        -7.557974672689259
      ],
      [
        "know",
        -7.562974896658529
      ],
      [
        "much",
        -7.575297002775162
      ],
      [
        "6",
        -7.588492830271022
      ],
      [
        "before",
        -7.588642459609
      ],
      [
        "think",
        -7.59496878520244
      ],
      [
        "end",
        -7.595759045054082
      ],
      [
        "!",
        -7.601305812220044
      ],
      [
        "right",
        -7.604694507631349
      ],
      [
        "should",
        -7.604874374877783
      ],
      [
        "down",
        -7.606428942114521
      ],
      [
        "take",
        -7.608419106268718
      ],
      [
        "10",
        -7.62471125458344
      ],
      [
        "day",
        -7.638086462139103
      ],
      [
        "here",
        -7.641470057644057
      ],
      [
        "good",
        -7.649256019858443
      ],
      [
        "such",
        -7.649610293596638
      ],
      [
        "made",
        -7.657178885601455
      ],
      [
        "off",
        -7.667773690686307
      ],
      [
        "through",
        -7.671945370272772
      ],
      [
        "able",
        -7.675976776790446
      ],
      [
        "still",
        -7.683192639716403
      ],
      [
        "government",
        -7.685960310206193
      ],
      [
        "going",
        -7.693326089331915
      ],
      [
        "did",
        -7.697781595094348
      ],
      [
        "7",
        -7.708844459972195
      ],
      [
        "part",
        -7.7192032332510845
      ],
      [
        "team",
        -7.734208901406879
      ],
      [
        "8",
        -7.737848113335119
      ],
      [
        "against",
        -7.74094960750285
      ],
      [
        "...",
        -7.7491420574652015
      ],
      [
        "want",
        -7.749594752707539
      ],
      [
        "under",
        -7.752257806885783
      ],
      [
        "%",
        -7.75389364986378
      ],
      [
        "long",
        -7.775776415997479
      ],
      [
        ").",
        -7.795870435534898
      ],
      [
        "000",
        -7.813142501885508
      ],
      [
        "need",
        -7.814524236896757
      ],
      [
        "three",
        -7.817756689664099
      ],
      [
        "between",
        -7.818371895796366
      ],
      [
        "per",
        -7.8208283084049395
      ],
      [
        "say",
        -7.828725379177564
      ],
      [
        "ll",
        -7.831156092808465
      ],
      [
        "same",
        -7.831704605983191
      ],
      [
        "since",
        -7.839039295334349
      ],
      [
        "during",
        -7.840924769898281
      ],
      [
        "_",
        -7.849456389260512
      ],
      [
        "says",
        -7.849940959275857
      ],
      [
        "both",
        -7.851767981665837
      ],
      [
        "own",
        -7.857096559090584
      ],
      [
        "trump",
        -7.874039684313411
      ],
      [
        "around",
        -7.8746026680496595
      ],
      [
        "used",
        -7.875429214674574
      ],
      [
        "old",
        -7.882194684977637
      ],
      [
        "9",
        -7.885274625216978
      ],
      [
        "really",
        -7.906216129513128
      ],
      [
        "city",
        -7.931439629857175
      ],
      [
        "com",
        -7.932280254570962
      ],
      [
        "life",
        -7.936842235658775
      ],
      [
        "each",
        -7.939924991091889
      ],
      [
        "another",
        -7.942261909150135
      ],
      [
        "president",
        -7.952732272586592
      ],
      [
        "high",
        -7.985520584747979
      ],
      [
        "less",
        -7.986265589696203
      ],
      [
        "home",
        -7.995991951953526
      ],
      [
        "20",
        -8.000110018029119
      ],
      [
        "public",
        -8.0046745285804
      ],
      [
        "war",
        -8.018647355071069
      ],
      [
        "house",
        -8.031020490279227
      ],
      [
        "men",
        -8.042393920748307
      ],
      [
        "best",
        -8.047418645479064
      ],
      [
        "police",
        -8.052356093027553
      ],
      [
        "system",
        -8.05581033852347
      ],
      [
        "next",
        -8.057283164784213
      ],
      [
        "‘",
        -8.057811115492523
      ],
      [
        "play",
        -8.063160590626675
      ],
      [
        "something",
        -8.065042715793727
      ],
      [
        "point",
        -8.066861908419275
      ],
      [
        "group",
        -8.084894699982012
      ],
      [
        "every",
        -8.085083532446967
      ],
      [
        "told",
        -8.087107905748754
      ],
      [
        "does",
        -8.092494764571772
      ],
      [
        ".[",
        -8.092700335558249
      ],
      [
        "why",
        -8.093396797955759
      ],
      [
        "power",
        -8.095732991394863
      ],
      [
        "come",
        -8.099612525394614
      ],
      [
        "place",
        -8.114501170440219
      ],
      [
        "season",
        -8.11764295590041
      ],
      [
        "found",
        -8.121871500925819
      ],
      [
        "look",
        -8.124925417881618
      ],
      [
        "week",
        -8.12500009946637
      ],
      [
        "help",
        -8.12719349603794
      ],
      [
        "things",
        -8.131014118926005
      ],
      [
        "might",
        -8.139320960480195
      ],
      [
        "however",
        -8.139437890623068
      ],
      [
        "support",
        -8.141221962601252
      ],
      [
        "top",
        -8.142298378784076
      ],
      [
        "great",
        -8.142923055288447
      ],
      [
        "never",
        -8.145415068723523
      ],
      [
        "line",
        -8.158716976189437
      ],
      [
        "law",
        -8.159443069329493
      ],
      [
        "free",
        -8.162033825706455
      ],
      [
        "second",
        -8.163136258224172
      ],
      [
        "million",
        -8.163673177255383
      ],
      [
        "number",
        -8.165182013854022
      ],
      [
        "case",
        -8.166296412435134
      ],
      [
        "find",
        -8.171426070336377
      ],
      [
        "according",
        -8.172819468509282
      ],
      [
        "12",
        -8.175032348223523
      ],
      [
        "without",
        -8.177424334646153
      ],
      [
        "different",
        -8.180415875054717
      ],
      [
        "=",
        -8.182028348519257
      ],
      [
        "show",
        -8.182486722957984
      ],
      [
        "including",
        -8.185207399421405
      ],
      [
        "15",
        -8.185883406131556
      ],
      [
        "18",
        -8.187466908430558
      ],
      [
        "called",
        -8.193066544423964
      ],
      [
        "run",
        -8.19888683081242
      ],
      [
        "big",
        -8.20061651973174
      ],
      [
        "little",
        -8.203741877877647
      ],
      [
        "put",
        -8.20511211760034
      ],
      [
        "data",
        -8.208108802783448
      ],
      [
        "using",
        -8.20877834636819
      ],
      [
        "national",
        -8.209482989863135
      ],
      [
        "far",
        -8.212032635940673
      ],
      [
        "country",
        -8.219708120468873
      ],
      [
        "30",
        -8.226025920881323
      ],
      [
        "american",
        -8.230269191935243
      ],
      [
        "left",
        -8.231110583405181
      ],
      [
        "better",
        -8.238556434046352
      ],
      [
        "states",
        -8.238637034110297
      ],
      [
        "car",
        -8.240760520981073
      ],
      [
        "change",
        -8.242199807150755
      ],
      [
        "11",
        -8.261502598152015
      ],
      [
        "post",
        -8.267022244970754
      ],
      [
        "women",
        -8.269855327615703
      ],
      [
        "white",
        -8.276163829783409
      ],
      [
        "side",
        -8.280113207005202
      ],
      [
        "though",
        -8.282289147392776
      ],
      [
        "ever",
        -8.284972565707564
      ],
      [
        "media",
        -8.29263084801704
      ],
      [
        "based",
        -8.307493425910812
      ],
      [
        "news",
        -8.308574536301245
      ],
      [
        "company",
        -8.311558659678472
      ],
      [
        "school",
        -8.316980785723013
      ],
      [
        "water",
        -8.32467144124153
      ],
      [
        "percent",
        -8.33015547138864
      ],
      [
        "thing",
        -8.338189757892058
      ],
      [
        "name",
        -8.343519538130925
      ],
      [
        "read",
        -8.347233170473325
      ],
      [
        "story",
        -8.348428923505336
      ],
      [
        "information",
        -8.35006599400676
      ],
      [
        "again",
        -8.353337455584388
      ],
      [
        "age",
        -8.354571103556113
      ],
      [
        "party",
        -8.356184100790374
      ],
      [
        "united",
        -8.356512187813498
      ],
      [
        "open",
        -8.35683726641994
      ],
      [
        "today",
        -8.36238094592973
      ],
      [
        "later",
        -8.362940185398235
      ],
      [
        "real",
        -8.36490836371105
      ],
      [
        "head",
        -8.365330694070526
      ],
      [
        "court",
        -8.371162354551762
      ],
      [
        "money",
        -8.373890210295507
      ],
      [
        "making",
        -8.38524242838348
      ],
      [
        "didn",
        -8.387403351945611
      ],
      [
        "once",
        -8.388281064499711
      ],
      [
        "&",
        -8.39775180590713
      ],
      [
        "q",
        -8.398511043214564
      ],
      [
        "already",
        -8.404506635163493
      ],
      [
        "always",
        -8.407816566738553
      ],
      [
        "black",
        -8.409227486107387
      ],
      [
        "fact",
        -8.410764241548527
      ],
      [
        "must",
        -8.41475966350596
      ],
      [
        "four",
        -8.416642653065717
      ],
      [
        "family",
        -8.417429329895338
      ],
      [
        "hard",
        -8.419867312054837
      ],
      [
        "16",
        -8.421850360864957
      ],
      [
        "led",
        -8.431383354328306
      ],
      [
        "give",
        -8.431979747219877
      ],
      [
        "human",
        -8.437308347598556
      ],
      [
        "book",
        -8.439138677953915
      ],
      [
        "19",
        -8.440988316112495
      ],
      [
        "past",
        -8.448992198789517
      ],
      [
        "report",
        -8.449444761965195
      ],
      [
        "--",
        -8.45507833993929
      ],
      [
        "former",
        -8.465723757222001
      ],
      [
        "full",
        -8.46616067753427
      ],
      [
        "start",
        -8.466232777198377
      ],
      [
        "order",
        -8.466539332854204
      ],
      [
        "until",
        -8.466930540480787
      ],
      [
        "times",
        -8.468206428567877
      ],
      [
        "came",
        -8.469844085253069
      ],
      [
        "health",
        -8.472214536262578
      ],
      [
        "political",
        -8.476752730501337
      ],
      [
        "working",
        -8.47997393099951
      ],
      [
        "keep",
        -8.481413922040812
      ],
      [
        "away",
        -8.482375906128727
      ],
      [
        "level",
        -8.490154275644151
      ],
      [
        "early",
        -8.493666691786531
      ],
      [
        "least",
        -8.499980154645876
      ],
      [
        "bar",
        -8.5013614592401
      ],
      [
        "enough",
        -8.502831038579119
      ],
      [
        "live",
        -8.50731233942619
      ],
      [
        "#",
        -8.51363719350848
      ],
      [
        "having",
        -8.515424181690824
      ],
      [
        "pro",
        -8.516772889770046
      ],
      [
        "video",
        -8.51700424337845
      ],
      [
        "often",
        -8.517512515883672
      ],
      [
        "become",
        -8.518135964336562
      ],
      [
        "13",
        -8.522882734491109
      ],
      [
        "important",
        -8.523775272690239
      ],
      [
        "person",
        -8.524516743543618
      ],
      [
        "love",
        -8.525252838830681
      ],
      [
        "doesn",
        -8.527606162625535
      ],
      [
        "actually",
        -8.529361300044267
      ],
      [
        "five",
        -8.529719286006694
      ],
      [
        "14",
        -8.530521800662314
      ],
      [
        "whether",
        -8.534606328668676
      ],
      [
        "campaign",
        -8.534996910735133
      ],
      [
        "17",
        -8.540194461810156
      ],
      [
        "night",
        -8.54151106813456
      ],
      [
        "children",
        -8.542349039929881
      ],
      [
        "small",
        -8.54450126864867
      ],
      [
        "business",
        -8.546286381923858
      ],
      [
        "took",
        -8.546519260359428
      ],
      [
        "several",
        -8.54668247605057
      ],
      [
        "+",
        -8.547647071301029
      ],
      [
        "days",
        -8.550445167675836
      ],
      [
        "social",
        -8.551167428748188
      ],
      [
        "local",
        -8.554154779454757
      ],
      [
        "security",
        -8.56160938204445
      ],
      [
        "kind",
        -8.562344323463105
      ],
      [
        "university",
        -8.566557213265536
      ],
      [
        "games",
        -8.56762260841262
      ],
      [
        "win",
        -8.569321455584957
      ],
      [
        "list",
        -8.575945199238149
      ],
      [
        "50",
        -8.577150303992415
      ],
      [
        "doing",
        -8.584431738914514
      ],
      [
        "control",
        -8.585382081088953
      ],
      [
        "25",
        -8.588317628863814
      ],
      [
        "course",
        -8.590587039678795
      ],
      [
        "example",
        -8.594931200070878
      ],
      [
        "general",
        -8.597541427595951
      ],
      [
        "future",
        -8.602067083367183
      ],
      [
        "pre",
        -8.603834960939897
      ],
      [
        "space",
        -8.60549168329857
      ],
      [
        "|",
        -8.60892255824846
      ],
      [
        "low",
        -8.611701866189373
      ],
      [
        "feel",
        -8.617678700331945
      ],
      [
        "service",
        -8.618612186157232
      ],
      [
        "community",
        -8.61875805674252
      ],
      [
        "players",
        -8.619143111790775
      ],
      [
        "call",
        -8.621515879469138
      ],
      [
        "light",
        -8.622711778073384
      ],
      [
        "went",
        -8.62306811766751
      ],
      [
        "among",
        -8.623094977672366
      ],
      [
        "sure",
        -8.632606640580034
      ],
      [
        "deal",
        -8.63280338141739
      ],
      [
        "star",
        -8.633050703523763
      ],
      [
        "asked",
        -8.63712122762271
      ],
      [
        "issue",
        -8.639051919190758
      ],
      [
        "pay",
        -8.641740611770299
      ],
      [
        "office",
        -8.64389728587668
      ],
      [
        "market",
        -8.646028753398008
      ],
      [
        "project",
        -8.646848513143764
      ],
      [
        "given",
        -8.65181576642652
      ],
      [
        "obama",
        -8.654400772447842
      ],
      [
        "2016",
        -8.65884043224291
      ],
      [
        "within",
        -8.659120493146478
      ],
      [
        "likely",
        -8.661551987819726
      ],
      [
        "series",
        -8.661835001392912
      ],
      [
        "believe",
        -8.662048289045124
      ],
      [
        "history",
        -8.665832574423861
      ],
      [
        "anti",
        -8.666219328701118
      ],
      [
        "process",
        -8.667046781344927
      ],
      [
        "month",
        -8.668975178676057
      ],
      [
        "bill",
        -8.67022054043557
      ],
      [
        "research",
        -8.676558533003346
      ],
      [
        "following",
        -8.677115932249126
      ],
      [
        "large",
        -8.680107033991304
      ],
      [
        "north",
        -8.68134834795311
      ],
      [
        "plan",
        -8.68228612348329
      ],
      [
        "york",
        -8.682492791286267
      ],
      [
        "field",
        -8.684447503305087
      ],
      [
        "young",
        -8.6852207466723
      ],
      [
        "getting",
        -8.692960318503651
      ],
      [
        "100",
        -8.69546834571138
      ],
      [
        "problem",
        -8.699364183253476
      ],
      [
        "face",
        -8.701676361963921
      ],
      [
        "possible",
        -8.705828249674722
      ],
      [
        "edit",
        -8.715052602744505
      ],
      [
        "care",
        -8.715226327216296
      ],
      [
        "looking",
        -8.716768752974227
      ],
      [
        "known",
        -8.717068085822591
      ],
      [
        "major",
        -8.718098444828463
      ],
      [
        "across",
        -8.719380686258662
      ],
      [
        "america",
        -8.723573747958945
      ],
      [
        "key",
        -8.724477943925296
      ],
      [
        "code",
        -8.725957499454184
      ],
      [
        "2015",
        -8.728006546872466
      ],
      [
        "act",
        -8.729842412210465
      ],
      [
        "action",
        -8.730159753735938
      ],
      [
        "members",
        -8.736643024004305
      ],
      [
        "*",
        -8.73710109457306
      ],
      [
        "24",
        -8.73787605979664
      ],
      [
        "months",
        -8.740237421952079
      ],
      [
        "@",
        -8.740275097679598
      ],
      [
        "move",
        -8.741097372455604
      ],
      [
        "image",
        -8.742238794426777
      ],
      [
        "instead",
        -8.743615313534402
      ],
      [
        "fire",
        -8.744487135974246
      ],
      [
        "thought",
        -8.744646731397992
      ],
      [
        "federal",
        -8.744970622129985
      ],
      [
        "player",
        -8.747191302298226
      ],
      [
        "almost",
        -8.74793893263736
      ],
      [
        "idea",
        -8.749126297986127
      ],
      [
        "half",
        -8.749236138201645
      ],
      [
        "means",
        -8.750845384955719
      ],
      [
        "department",
        -8.751698663578098
      ],
      [
        "experience",
        -8.755371981937147
      ],
      [
        "south",
        -8.756276581501718
      ],
      [
        "international",
        -8.758408379141564
      ],
      [
        "job",
        -8.762521542979442
      ],
      [
        "class",
        -8.76588242992773
      ],
      [
        "available",
        -8.766609414607114
      ],
      [
        "late",
        -8.767049799599105
      ],
      [
        "result",
        -8.771190429708495
      ],
      [
        "2014",
        -8.772792966264165
      ],
      [
        "added",
        -8.773244593182806
      ],
      [
        "policy",
        -8.773888059745847
      ],
      [
        "program",
        -8.777034565495663
      ],
      [
        "center",
        -8.778464328850804
      ],
      [
        "together",
        -8.779411881519927
      ],
      [
        "john",
        -8.781416450293904
      ],
      [
        "question",
        -8.78340084561335
      ],
      [
        "short",
        -8.786140498629656
      ],
      [
        "started",
        -8.786290864737012
      ],
      [
        "view",
        -8.78639250156306
      ],
      [
        "recent",
        -8.791081391951298
      ],
      [
        "rather",
        -8.79149664220553
      ],
      [
        "final",
        -8.792645624597542
      ],
      [
        "close",
        -8.794161378215083
      ],
      [
        "press",
        -8.795166602630806
      ],
      [
        "bad",
        -8.79541912584111
      ],
      [
        "death",
        -8.795799969097795
      ],
      [
        ">",
        -8.79725279269804
      ],
      [
        "40",
        -8.797559833596026
      ],
      [
        "film",
        -8.797713898847844
      ],
      [
        "single",
        -8.798715948114824
      ],
      [
        "third",
        -8.803307018931752
      ],
      [
        "current",
        -8.803818574065131
      ],
      [
        "tax",
        -8.806045410183055
      ],
      [
        "food",
        -8.806853937515667
      ],
      [
        "trying",
        -8.808777672245952
      ],
      [
        "clear",
        -8.808936012812431
      ],
      [
        "front",
        -8.809276372327536
      ],
      [
        "development",
        -8.810137731748117
      ],
      [
        "taking",
        -8.811102101199396
      ],
      [
        "cost",
        -8.8135260586486
      ],
      [
        "app",
        -8.81370248463826
      ],
      [
        "military",
        -8.817008085396804
      ],
      [
        "board",
        -8.817801893715592
      ],
      [
        "twitter",
        -8.823720352469689
      ],
      [
        "anything",
        -8.827123178114812
      ],
      [
        "create",
        -8.827373936390947
      ],
      [
        "body",
        -8.829732111306289
      ],
      [
        "type",
        -8.830564209532593
      ],
      [
        "force",
        -8.832914201805956
      ],
      [
        "nothing",
        -8.833000422679827
      ],
      [
        "league",
        -8.836582269022337
      ],
      [
        "turn",
        -8.838770140846542
      ],
      [
        "room",
        -8.839347965983084
      ],
      [
        "{",
        -8.841771319260326
      ],
      [
        "six",
        -8.843947730400146
      ],
      [
        "coming",
        -8.848907048983326
      ],
      [
        "mean",
        -8.851773609806372
      ],
      [
        "behind",
        -8.85522727243279
      ],
      [
        "study",
        -8.855795020959091
      ],
      [
        "main",
        -8.856339899302442
      ],
      [
        "rate",
        -8.857985587223453
      ],
      [
        "tell",
        -8.858039312256711
      ],
      [
        "22",
        -8.869177959801691
      ],
      [
        "saying",
        -8.8718704637709
      ],
      [
        "west",
        -8.873393336580516
      ],
      [
        "election",
        -8.875115563365165
      ],
      [
        "source",
        -8.876119525295097
      ],
      [
        "along",
        -8.87654500317639
      ],
      [
        "clinton",
        -8.877142121890206
      ],
      [
        "energy",
        -8.877847107677441
      ],
      [
        "mar",
        -8.879494077114755
      ],
      [
        "either",
        -8.879810072297605
      ],
      [
        "done",
        -8.880732041399945
      ],
      [
        "someone",
        -8.88237461144033
      ],
      [
        "true",
        -8.882998509191227
      ],
      [
        "continue",
        -8.88445481726228
      ],
      [
        "everything",
        -8.887095453203935
      ],
      [
        "director",
        -8.889370073741876
      ],
      [
        "photo",
        -8.891930659535689
      ],
      [
        "further",
        -8.896051849819306
      ],
      [
        "probably",
        -8.89675016996096
      ],
      [
        "version",
        -8.898883659212009
      ],
      [
        "attack",
        -8.899259317379359
      ],
      [
        "street",
        -8.900147656306308
      ],
      [
        "21",
        -8.901593855294854
      ],
      [
        "reason",
        -8.90185487778833
      ],
      [
        "although",
        -8.905058874138227
      ],
      [
        "building",
        -8.90790586042393
      ],
      [
        "term",
        -8.911851530354474
      ],
      [
        "position",
        -8.91310095471265
      ],
      [
        "2013",
        -8.913536124659776
      ],
      [
        "}",
        -8.915850224826494
      ],
      [
        "matter",
        -8.916255502518657
      ],
      [
        "wanted",
        -8.916312078902246
      ],
      [
        "ness",
        -8.916972085391409
      ],
      [
        "washington",
        -8.91707754513959
      ],
      [
        "test",
        -8.920008463169545
      ],
      [
        "self",
        -8.920806369065392
      ],
      [
        "comes",
        -8.921927317135072
      ],
      [
        "decision",
        -8.925002680801123
      ],
      [
        "ally",
        -8.9251877854491
      ],
      [
        "value",
        -8.925548164763418
      ],
      [
        "talk",
        -8.928781450223678
      ],
      [
        "access",
        -8.929435747692914
      ],
      [
        "march",
        -8.930436806590079
      ],
      [
        "share",
        -8.933794695202932
      ],
      [
        "outside",
        -8.933992314685945
      ],
      [
        "special",
        -8.93410771643341
      ],
      [
        "everyone",
        -8.93521857816695
      ],
      [
        "article",
        -8.935788875011934
      ],
      [
        "role",
        -8.936944057717406
      ],
      [
        "reported",
        -8.937377907609095
      ],
      [
        "cut",
        -8.938743779046886
      ],
      [
        "economic",
        -8.939073327755267
      ],
      [
        "ling",
        -8.94098151323044
      ],
      [
        "2012",
        -8.942568492484668
      ],
      [
        "green",
        -8.94460941241654
      ],
      [
        "rights",
        -8.945303181008233
      ],
      [
        "makes",
        -8.94827111116164
      ],
      [
        "lead",
        -8.9482716741538
      ],
      [
        "stop",
        -8.951870560089903
      ],
      [
        "below",
        -8.952141391286052
      ],
      [
        "release",
        -8.95364364219188
      ],
      [
        "return",
        -8.953846784436138
      ],
      [
        "page",
        -8.953982493022876
      ],
      [
        "god",
        -8.956356658446436
      ],
      [
        "watch",
        -8.959218592692496
      ],
      [
        "statement",
        -8.959575649644908
      ],
      [
        "woman",
        -8.959775512965294
      ],
      [
        "2017",
        -8.962655595522218
      ],
      [
        "record",
        -8.962684135056463
      ],
      [
        "23",
        -8.964176671287282
      ],
      [
        "king",
        -8.968277093514732
      ],
      [
        "provide",
        -8.968985250863975
      ],
      [
        "ability",
        -8.971716086976336
      ],
      [
        "whole",
        -8.974147939939746
      ],
      [
        "companies",
        -8.974967015670922
      ],
      [
        "mind",
        -8.977824909763418
      ],
      [
        "rest",
        -8.978854454963159
      ],
      [
        "others",
        -8.978986865930862
      ],
      [
        "://",
        -8.981769431844963
      ],
      [
        "china",
        -8.983243656449696
      ],
      [
        "similar",
        -8.984945913427762
      ],
      [
        "site",
        -8.985005417823182
      ],
      [
        "taken",
        -8.985546466390788
      ],
      [
        "price",
        -8.986410690989963
      ],
      [
        "wrote",
        -8.98793390462604
      ],
      [
        "running",
        -8.990829793466986
      ],
      [
        "minister",
        -8.99328309018924
      ],
      [
        "\\",
        -8.993716138854264
      ],
      [
        "build",
        -8.997738733340391
      ],
      [
        "above",
        -9.001671742676447
      ],
      [
        "students",
        -9.001742043804745
      ],
      [
        "sense",
        -9.001962939352318
      ],
      [
        "released",
        -9.003442743226573
      ],
      [
        "music",
        -9.00421591178567
      ],
      [
        "vote",
        -9.009190834442196
      ],
      [
        "via",
        -9.009311997109704
      ],
      [
        "total",
        -9.009561422168195
      ],
      [
        "points",
        -9.011200768451271
      ],
      [
        "00",
        -9.011617671494465
      ],
      [
        "officials",
        -9.017483619443212
      ],
      [
        "evidence",
        -9.022907072959214
      ],
      [
        "simply",
        -9.023785118214263
      ],
      [
        "super",
        -9.025338035846966
      ],
      [
        "issues",
        -9.02627971507385
      ],
      [
        "online",
        -9.028183516622946
      ],
      [
        "26",
        -9.028840712253102
      ],
      [
        "include",
        -9.030728015897148
      ],
      [
        "model",
        -9.03131235291316
      ],
      [
        "held",
        -9.034404991822043
      ],
      [
        "especially",
        -9.034956372292262
      ],
      [
        "despite",
        -9.035788815828711
      ],
      [
        "forward",
        -9.038946508823214
      ],
      [
        "near",
        -9.039254225163004
      ],
      [
        "hours",
        -9.040342711852846
      ],
      [
        "began",
        -9.040849090359854
      ],
      [
        "seems",
        -9.041020967814552
      ],
      [
        "race",
        -9.042315820174514
      ],
      [
        "lost",
        -9.043967579024276
      ],
      [
        "playing",
        -9.047385837425102
      ],
      [
        "phone",
        -9.047733460991836
      ],
      [
        "ation",
        -9.047945717601568
      ],
      [
        "himself",
        -9.049001635037223
      ],
      [
        "countries",
        -9.052245922907831
      ],
      [
        "fight",
        -9.0556156274893
      ],
      [
        "technology",
        -9.057077858032573
      ],
      [
        "follow",
        -9.05853645145858
      ],
      [
        "global",
        -9.059170811948396
      ],
      [
        "industry",
        -9.059360915351936
      ],
      [
        "earlier",
        -9.0594384609959
      ],
      [
        "bank",
        -9.059636986083031
      ],
      [
        "itself",
        -9.059761442400658
      ],
      [
        "pretty",
        -9.060423795304729
      ],
      [
        "check",
        -9.061465970660716
      ],
      [
        "facebook",
        -9.061886876223374
      ],
      [
        "28",
        -9.062138975424975
      ],
      [
        "became",
        -9.062383317364828
      ],
      [
        "themselves",
        -9.06594620816804
      ],
      [
        "services",
        -9.06666275910066
      ],
      [
        "27",
        -9.068976057915476
      ],
      [
        "hope",
        -9.06936597243058
      ],
      [
        "played",
        -9.070576878269202
      ],
      [
        "understand",
        -9.07548175213546
      ],
      [
        "quite",
        -9.076134064776458
      ],
      [
        "needed",
        -9.07710740709779
      ],
      [
        "step",
        -9.077386207547317
      ],
      [
        "common",
        -9.07984185008322
      ],
      [
        "ive",
        -9.080874632282336
      ],
      [
        "recently",
        -9.08308634461761
      ],
      [
        "design",
        -9.086222157813411
      ],
      [
        "google",
        -9.08643972219378
      ],
      [
        "trade",
        -9.08689037520135
      ],
      [
        "risk",
        -9.092905982058666
      ],
      [
        "sign",
        -9.094133634041258
      ],
      [
        "gun",
        -9.094316654954486
      ],
      [
        "strong",
        -9.096036605050072
      ],
      [
        "child",
        -9.097278838074724
      ],
      [
        "science",
        -9.097804850768036
      ],
      [
        "else",
        -9.098541341291948
      ],
      [
        "park",
        -9.099701342180095
      ],
      [
        "road",
        -9.100407911579204
      ],
      [
        "60",
        -9.100470411060018
      ],
      [
        "nation",
        -9.1005708903393
      ],
      [
        "chief",
        -9.101037748462993
      ],
      [
        "republican",
        -9.101422509351163
      ],
      [
        "official",
        -9.10459021704856
      ],
      [
        "content",
        -9.110697117404724
      ],
      [
        "range",
        -9.110835282339456
      ],
      [
        "network",
        -9.11276763586517
      ],
      [
        "cal",
        -9.114080691693506
      ],
      [
        "middle",
        -9.116153379204562
      ],
      [
        "college",
        -9.121979609478355
      ],
      [
        "east",
        -9.122658140562844
      ],
      [
        "<",
        -9.123349964400152
      ],
      [
        "ground",
        -9.12478698272382
      ],
      [
        "anyone",
        -9.124912354339582
      ],
      [
        "defense",
        -9.125240614314167
      ],
      [
        "financial",
        -9.126485078754447
      ],
      [
        "ized",
        -9.128169112557984
      ],
      [
        "shot",
        -9.128321739611438
      ],
      [
        "word",
        -9.131208556472052
      ],
      [
        "email",
        -9.132543419098695
      ],
      [
        "billion",
        -9.133539308485767
      ],
      [
        "related",
        -9.13604531079486
      ],
      [
        "legal",
        -9.137928330320223
      ],
      [
        "private",
        -9.140109683676105
      ],
      [
        "leave",
        -9.141610707525324
      ],
      [
        "bring",
        -9.141671484655882
      ],
      [
        "size",
        -9.1416936587259
      ],
      [
        "higher",
        -9.143570955798303
      ],
      [
        "form",
        -9.146073610250324
      ],
      [
        "2011",
        -9.146188467784826
      ],
      [
        "note",
        -9.146716168431142
      ],
      [
        "member",
        -9.148048870568283
      ],
      [
        "sub",
        -9.148664038487857
      ],
      [
        "sex",
        -9.15172351539193
      ],
      [
        "easy",
        -9.15176777188401
      ],
      [
        "lower",
        -9.152441054618537
      ],
      [
        "words",
        -9.155316040764772
      ],
      [
        "friends",
        -9.155512100653286
      ],
      [
        "base",
        -9.15626424281086
      ],
      [
        "union",
        -9.156275897682992
      ],
      [
        "ball",
        -9.156729385028004
      ],
      [
        "average",
        -9.15821607471687
      ],
      [
        "interest",
        -9.158688607385573
      ],
      [
        "mark",
        -9.158827999063748
      ],
      [
        "ell",
        -9.15950761559037
      ],
      [
        "administration",
        -9.160092978187365
      ],
      [
        "longer",
        -9.16129449093461
      ],
      [
        "wrong",
        -9.162006954637892
      ],
      [
        "29",
        -9.162055085364212
      ],
      [
        "potential",
        -9.16290291515499
      ],
      [
        "inside",
        -9.163870078430254
      ],
      [
        "web",
        -9.16481292208442
      ],
      [
        "ask",
        -9.16528748704378
      ],
      [
        "june",
        -9.16529078124029
      ],
      [
        "personal",
        -9.1665898038441
      ],
      [
        "table",
        -9.166929444027936
      ],
      [
        "foreign",
        -9.167330551768964
      ],
      [
        "original",
        -9.17117032258247
      ],
      [
        "increase",
        -9.172058062035669
      ],
      [
        "killed",
        -9.176718378215112
      ],
      [
        "allow",
        -9.176792897041832
      ],
      [
        "response",
        -9.177296522882136
      ],
      [
        "character",
        -9.178474043612624
      ],
      [
        "club",
        -9.179626987949424
      ],
      [
        "living",
        -9.18335512359123
      ],
      [
        "created",
        -9.1854092391784
      ],
      [
        "july",
        -9.187386248170649
      ],
      [
        "groups",
        -9.18863734836238
      ],
      [
        "russia",
        -9.19151301750848
      ],
      [
        "committee",
        -9.192368348393773
      ],
      [
        "workers",
        -9.192742408691329
      ],
      [
        "effect",
        -9.19408090402118
      ],
      [
        "simple",
        -9.194142138372042
      ],
      [
        "impact",
        -9.195972797112072
      ],
      [
        "ring",
        -9.2005656225203
      ],
      [
        "minutes",
        -9.20159525556759
      ],
      [
        "file",
        -9.20238138196401
      ],
      [
        "certain",
        -9.202716726638668
      ],
      [
        "ver",
        -9.20313450570996
      ],
      [
        "worth",
        -9.203617786780136
      ],
      [
        "round",
        -9.204154434761408
      ],
      [
        "internet",
        -9.207726878094132
      ],
      [
        "results",
        -9.209743167445492
      ],
      [
        "published",
        -9.211495354826328
      ],
      [
        "goal",
        -9.214535962016306
      ],
      [
        "event",
        -9.216648694385654
      ],
      [
        "hold",
        -9.217300845317816
      ],
      [
        "2010",
        -9.217457927645086
      ],
      [
        "maybe",
        -9.21799074665022
      ],
      [
        "currently",
        -9.218122139983665
      ],
      [
        "shows",
        -9.219207864607824
      ],
      [
        "leader",
        -9.222601472141012
      ],
      [
        "speed",
        -9.223056756313744
      ],
      [
        "80",
        -9.224512313999396
      ],
      [
        "paul",
        -9.224582410805736
      ],
      [
        "father",
        -9.224949306309238
      ],
      [
        "expected",
        -9.225004542053831
      ],
      [
        "heart",
        -9.225486284492945
      ],
      [
        "period",
        -9.228275982074445
      ],
      [
        "performance",
        -9.228452517873496
      ],
      [
        "friday",
        -9.228850772978932
      ],
      [
        "received",
        -9.229741719614616
      ],
      [
        "april",
        -9.230793965469172
      ],
      [
        "staff",
        -9.23261563891051
      ],
      [
        "moment",
        -9.23419104754423
      ],
      [
        "medical",
        -9.23641169421331
      ],
      [
        "changes",
        -9.236571863802665
      ],
      [
        "couple",
        -9.237900383257289
      ],
      [
        "amount",
        -9.238758947039376
      ],
      [
        "production",
        -9.238794598201002
      ],
      [
        "justice",
        -9.240785657434596
      ],
      [
        "announced",
        -9.240987823024138
      ],
      [
        "career",
        -9.2435062164812
      ],
      [
        "cannot",
        -9.243684793738565
      ],
      [
        "pass",
        -9.243724048320232
      ],
      [
        "users",
        -9.244312914710218
      ],
      [
        "perhaps",
        -9.24454085336254
      ],
      [
        "county",
        -9.244826152065045
      ],
      [
        "fans",
        -9.245893169162954
      ],
      [
        "david",
        -9.250421162481995
      ],
      [
        "nearly",
        -9.256680021170766
      ],
      [
        "central",
        -9.257553960617
      ],
      [
        "entire",
        -9.25757984089219
      ],
      [
        "involved",
        -9.257640821922568
      ],
      [
        "que",
        -9.259207076917075
      ],
      [
        "card",
        -9.259663891551956
      ],
      [
        "needs",
        -9.259882311138217
      ],
      [
        "finally",
        -9.261617108072215
      ],
      [
        "chance",
        -9.26195863259277
      ],
      [
        "monday",
        -9.264038263009107
      ],
      [
        "society",
        -9.264921916703694
      ],
      [
        "http",
        -9.266127912220831
      ],
      [
        "35",
        -9.268990542058177
      ],
      [
        "é",
        -9.27010751106574
      ],
      [
        "please",
        -9.272275225031525
      ],
      [
        "van",
        -9.273714149475396
      ],
      [
        "sometimes",
        -9.275155261559249
      ],
      [
        "screen",
        -9.275575495310107
      ],
      [
        "dead",
        -9.27790883697956
      ],
      [
        "situation",
        -9.278651866439118
      ],
      [
        "tuesday",
        -9.279079179447042
      ],
      [
        "movement",
        -9.279665026723642
      ],
      [
        "buy",
        -9.2806690444647
      ],
      [
        "fully",
        -9.281104937788426
      ],
      [
        "weeks",
        -9.281215825758826
      ],
      [
        "questions",
        -9.281899675447974
      ],
      [
        "cent",
        -9.282098665963368
      ],
      [
        "meeting",
        -9.282114747150338
      ],
      [
        "european",
        -9.282206593291262
      ],
      [
        "website",
        -9.28265705345986
      ],
      [
        "sent",
        -9.284675966147274
      ],
      [
        "present",
        -9.284818271229348
      ],
      [
        "town",
        -9.284958369749743
      ],
      [
        "worked",
        -9.286566707753645
      ],
      [
        "turned",
        -9.289042214708736
      ],
      [
        "built",
        -9.289280145043069
      ],
      [
        "morning",
        -9.290983911544249
      ],
      [
        "ship",
        -9.2918477330348
      ],
      [
        "text",
        -9.292804077372663
      ],
      [
        "interview",
        -9.295402218172915
      ],
      [
        "account",
        -9.296256813343115
      ],
      [
        "style",
        -9.296349148765367
      ],
      [
        "wall",
        -9.297928776976246
      ],
      [
        "problems",
        -9.304980740771226
      ],
      [
        "difficult",
        -9.305399724008725
      ],
      [
        "store",
        -9.30659160089678
      ],
      [
        "min",
        -9.307687292730336
      ],
      [
        "israel",
        -9.307950692654876
      ],
      [
        "democratic",
        -9.308134886343044
      ],
      [
        "cause",
        -9.30879355636039
      ],
      [
        "decided",
        -9.310475301584452
      ],
      [
        "box",
        -9.311740090349016
      ],
      [
        "user",
        -9.311802675538816
      ],
      [
        "culture",
        -9.312624364813662
      ],
      [
        "bu",
        -9.31437941285072
      ],
      [
        "date",
        -9.314495544430113
      ],
      [
        "32",
        -9.31502961880674
      ],
      [
        "congress",
        -9.316424979868392
      ],
      [
        "january",
        -9.316586143225951
      ],
      [
        "goes",
        -9.31809744222672
      ],
      [
        "gave",
        -9.318526449552529
      ],
      [
        "earth",
        -9.318640282383727
      ],
      [
        "september",
        -9.318651987560177
      ],
      [
        "language",
        -9.319552677195556
      ],
      [
        "mother",
        -9.3209424149506
      ],
      [
        "break",
        -9.321041591900062
      ],
      [
        "popular",
        -9.321047684339929
      ],
      [
        "education",
        -9.323635294944124
      ],
      [
        "figure",
        -9.325551265797666
      ],
      [
        "stay",
        -9.326070772314097
      ],
      [
        "ice",
        -9.330098633516824
      ],
      [
        "learn",
        -9.330227214694045
      ],
      [
        "pick",
        -9.331692169367852
      ],
      [
        "council",
        -9.33280809190142
      ],
      [
        "november",
        -9.33286773482977
      ],
      [
        "guy",
        -9.334032259007916
      ],
      [
        "happened",
        -9.338303012045934
      ],
      [
        "training",
        -9.338534026420213
      ],
      [
        "sound",
        -9.340392102706073
      ],
      [
        "focus",
        -9.34056805333244
      ],
      [
        "seem",
        -9.340702886040008
      ],
      [
        "population",
        -9.341548061049648
      ],
      [
        "agency",
        -9.34210545909693
      ],
      [
        "huge",
        -9.34251350821261
      ],
      [
        "significant",
        -9.34464128154298
      ],
      [
        "offer",
        -9.34483221551976
      ],
      [
        "reports",
        -9.345182317014702
      ],
      [
        "upon",
        -9.3455992249567
      ],
      [
        "written",
        -9.347399677509475
      ],
      [
        "felt",
        -9.34752128300225
      ],
      [
        "canada",
        -9.34811031392166
      ],
      [
        "russian",
        -9.348887083452402
      ],
      [
        "climate",
        -9.350385919058654
      ],
      [
        "august",
        -9.352498752708382
      ],
      [
        "remember",
        -9.353747182044543
      ],
      [
        "lack",
        -9.353867407279624
      ],
      [
        "economy",
        -9.35504276848896
      ],
      [
        "apple",
        -9.355535178533314
      ],
      [
        "path",
        -9.355748141805863
      ],
      [
        "modern",
        -9.355872052379594
      ],
      [
        "drive",
        -9.356054522324854
      ],
      [
        "terms",
        -9.356711611341668
      ],
      [
        "31",
        -9.356970037846963
      ],
      [
        "rise",
        -9.357029868596504
      ],
      [
        "conference",
        -9.357213638017765
      ],
      [
        "whose",
        -9.357777009497989
      ],
      [
        "individual",
        -9.357796850270445
      ],
      [
        "october",
        -9.358905293004687
      ],
      [
        "wednesday",
        -9.358944211991778
      ],
      [
        "sunday",
        -9.358973829054907
      ],
      [
        "writing",
        -9.359203229111804
      ],
      [
        "rock",
        -9.359809925040029
      ],
      [
        "thursday",
        -9.361278382758584
      ],
      [
        "hat",
        -9.361753144263124
      ],
      [
        "church",
        -9.362744129460914
      ],
      [
        "heard",
        -9.363124033434094
      ],
      [
        "natural",
        -9.363433726209294
      ],
      [
        "ated",
        -9.363511171417493
      ],
      [
        "growth",
        -9.366604414365092
      ],
      [
        "allowed",
        -9.36663944809002
      ],
      [
        "summer",
        -9.36753310188099
      ],
      [
        "­",
        -9.368363302514728
      ],
      [
        "happen",
        -9.36860960206217
      ],
      [
        "drug",
        -9.372069096129364
      ],
      [
        "specific",
        -9.37259393188659
      ],
      [
        "battle",
        -9.373418558708924
      ],
      [
        "americans",
        -9.375932706636275
      ],
      [
        "previous",
        -9.37608328393518
      ],
      [
        "consider",
        -9.376468570952772
      ],
      [
        "stage",
        -9.3771234570299
      ],
      [
        "british",
        -9.378193052372144
      ],
      [
        "lives",
        -9.37845058120678
      ],
      [
        "events",
        -9.379624981550451
      ],
      [
        "california",
        -9.382049462843195
      ],
      [
        "message",
        -9.38261707571578
      ],
      [
        "90",
        -9.382855871681414
      ],
      [
        "quickly",
        -9.384889212478928
      ],
      [
        "500",
        -9.38539216063204
      ],
      [
        "inter",
        -9.385806635196984
      ],
      [
        "review",
        -9.38598502913682
      ],
      [
        "fun",
        -9.390804402697045
      ],
      [
        "brain",
        -9.391661527836542
      ],
      [
        "paper",
        -9.392863300341766
      ],
      [
        "core",
        -9.393391267566695
      ],
      [
        "practice",
        -9.393614478785889
      ],
      [
        "blue",
        -9.394905210029629
      ],
      [
        "quality",
        -9.394961836042905
      ],
      [
        "india",
        -9.395106755690302
      ],
      [
        "europe",
        -9.395902460811156
      ],
      [
        "various",
        -9.398044763849336
      ],
      [
        "football",
        -9.399595892563138
      ],
      [
        "investigation",
        -9.400375769990651
      ],
      [
        "standard",
        -9.40157116589624
      ],
      [
        "rich",
        -9.402882197262732
      ],
      [
        "daily",
        -9.40317074665082
      ],
      [
        "eight",
        -9.40319655981683
      ],
      [
        "spent",
        -9.403666476748452
      ],
      [
        "damage",
        -9.403938528764153
      ],
      [
        "70",
        -9.403989319944944
      ],
      [
        "forces",
        -9.405354302340127
      ],
      [
        "comment",
        -9.40931103198072
      ],
      [
        "hear",
        -9.409411838686855
      ],
      [
        "mass",
        -9.409777335678353
      ],
      [
        "talking",
        -9.410584567689236
      ],
      [
        "product",
        -9.411283356792849
      ],
      [
        "function",
        -9.412151466365042
      ],
      [
        "address",
        -9.412357292614702
      ],
      [
        "cases",
        -9.413922088560383
      ],
      [
        "write",
        -9.414380682398676
      ],
      [
        "included",
        -9.41553670728062
      ],
      [
        "advertisement",
        -9.416174478964132
      ],
      [
        "reading",
        -9.41654074926599
      ],
      [
        "friend",
        -9.41709123392398
      ],
      [
        "prime",
        -9.41746252613226
      ],
      [
        "december",
        -9.418262933236235
      ],
      [
        "attention",
        -9.4182754820239
      ],
      [
        "success",
        -9.418640709585064
      ],
      [
        "movie",
        -9.418704778688252
      ],
      [
        "match",
        -9.420371084680124
      ],
      [
        "ways",
        -9.42208936219532
      ],
      [
        "credit",
        -9.42230506758646
      ],
      [
        "born",
        -9.422351636813191
      ],
      [
        "debate",
        -9.422573057241614
      ],
      [
        "images",
        -9.423911024006475
      ],
      [
        "2008",
        -9.425227153540227
      ],
      [
        "ful",
        -9.426172161964397
      ],
      [
        "senate",
        -9.426945527326286
      ],
      [
        "plans",
        -9.428716496730738
      ],
      [
        "complete",
        -9.42903651346383
      ],
      [
        "45",
        -9.429583201112315
      ],
      [
        "works",
        -9.430895599166492
      ],
      [
        "particular",
        -9.43100715846932
      ],
      [
        "areas",
        -9.431999431762236
      ],
      [
        "wood",
        -9.432228034180133
      ],
      [
        "fast",
        -9.432436721016362
      ],
      [
        "ating",
        -9.433411094002372
      ],
      [
        "rules",
        -9.43409151728219
      ],
      [
        "tried",
        -9.435192219833862
      ],
      [
        "fine",
        -9.436563966646473
      ],
      [
        "century",
        -9.437311488145436
      ],
      [
        "deep",
        -9.440636238843943
      ],
      [
        "latest",
        -9.440990297828789
      ],
      [
        "title",
        -9.441936472606848
      ],
      [
        "sort",
        -9.444627739126858
      ],
      [
        "brought",
        -9.445554354978151
      ],
      [
        "2009",
        -9.446014290008078
      ],
      [
        "knew",
        -9.44751605473552
      ],
      [
        "chi",
        -9.44798275882918
      ],
      [
        "crime",
        -9.44836492048975
      ],
      [
        "addition",
        -9.448649649442856
      ],
      [
        "michael",
        -9.449205954773536
      ],
      [
        "answer",
        -9.449909357066282
      ],
      [
        "donald",
        -9.450226992485716
      ],
      [
        "claim",
        -9.450421454231336
      ],
      [
        "sports",
        -9.452708675387498
      ],
      [
        "environment",
        -9.45280983982586
      ],
      [
        "majority",
        -9.453772655883352
      ],
      [
        "link",
        -9.454851902758788
      ],
      [
        "income",
        -9.455529916872027
      ],
      [
        "?”",
        -9.45594619686394
      ],
      [
        "paid",
        -9.456229472219771
      ],
      [
        "stories",
        -9.45721123733915
      ],
      [
        "cover",
        -9.460936615878698
      ],
      [
        "expect",
        -9.461766940035671
      ],
      [
        "violence",
        -9.462040107481446
      ],
      [
        "subject",
        -9.46474889943924
      ],
      [
        "usually",
        -9.465231328323233
      ],
      [
        "coach",
        -9.4677589942437
      ],
      [
        "takes",
        -9.469493549662452
      ],
      [
        "capital",
        -9.46954920515196
      ],
      [
        "port",
        -9.469687349771055
      ],
      [
        "organization",
        -9.469913476668555
      ],
      [
        "features",
        -9.469952906661268
      ],
      [
        "budget",
        -9.471226618462852
      ],
      [
        "officer",
        -9.47168847084479
      ],
      [
        "cross",
        -9.471769415469494
      ],
      [
        "scene",
        -9.472093343619717
      ],
      [
        "executive",
        -9.472120428191396
      ],
      [
        "piece",
        -9.472149681414797
      ],
      [
        "starting",
        -9.472776069381895
      ],
      [
        "][",
        -9.472850976212328
      ],
      [
        "region",
        -9.473331730762624
      ],
      [
        "search",
        -9.473337027827863
      ],
      [
        "beyond",
        -9.473898057425602
      ],
      [
        "approach",
        -9.47481618119971
      ],
      [
        "sky",
        -9.477747399683585
      ],
      [
        "district",
        -9.47836469283069
      ],
      [
        "considered",
        -9.478373950757236
      ],
      [
        "serious",
        -9.480703797435972
      ],
      [
        "blood",
        -9.480750085972277
      ],
      [
        "army",
        -9.48224364123901
      ],
      [
        "ended",
        -9.48344165646776
      ],
      [
        "leading",
        -9.483881668553648
      ],
      [
        "london",
        -9.485260525365302
      ],
      [
        "saturday",
        -9.485444053832902
      ],
      [
        "effort",
        -9.485733249595892
      ],
      [
        "brown",
        -9.486685061440328
      ],
      [
        "parents",
        -9.487100493999398
      ],
      [
        "cup",
        -9.488760799280287
      ],
      [
        "certainly",
        -9.48909979984202
      ],
      [
        "hands",
        -9.489379882223997
      ],
      [
        "student",
        -9.490922512180356
      ],
      [
        "choice",
        -9.490978271108512
      ],
      [
        "contact",
        -9.491473400344328
      ],
      [
        "intelligence",
        -9.492733598089528
      ],
      [
        "safety",
        -9.492965923464244
      ],
      [
        "update",
        -9.493400976926868
      ],
      [
        "judge",
        -9.494473657535243
      ],
      [
        "meet",
        -9.494836004655909
      ],
      [
        "continued",
        -9.495073686410064
      ],
      [
        "western",
        -9.496389057044173
      ],
      [
        "loss",
        -9.49821544210766
      ],
      [
        "alone",
        -9.499000124378446
      ],
      [
        "ment",
        -9.499209215620535
      ],
      [
        "save",
        -9.499619810100556
      ],
      [
        "leaders",
        -9.500673341612918
      ],
      [
        "looked",
        -9.501120485264533
      ],
      [
        "pressure",
        -9.502306945564332
      ],
      [
        "particularly",
        -9.502689841645346
      ],
      [
        "track",
        -9.50310534179648
      ],
      [
        "sexual",
        -9.504869290778135
      ],
      [
        "dark",
        -9.50515491992083
      ],
      [
        "nature",
        -9.505694443750984
      ],
      [
        "civil",
        -9.505791209168931
      ],
      [
        "giving",
        -9.506369600006314
      ],
      [
        "receive",
        -9.506464237947952
      ],
      [
        "growing",
        -9.507235778511852
      ],
      [
        "voice",
        -9.507391296042474
      ],
      [
        "james",
        -9.50860419445959
      ],
      [
        "completely",
        -9.509769243728952
      ],
      [
        "jobs",
        -9.510360130343226
      ],
      [
        "mac",
        -9.51110993439404
      ],
      [
        "lin",
        -9.51151107834787
      ],
      [
        "details",
        -9.512178999810867
      ],
      [
        "multiple",
        -9.515181489875056
      ],
      [
        "exactly",
        -9.51597236336784
      ],
      [
        "99",
        -9.516089834796706
      ],
      [
        "ill",
        -9.518097544740646
      ],
      [
        "extra",
        -9.51900555747098
      ],
      [
        "opportunity",
        -9.519371853820044
      ],
      [
        "challenge",
        -9.51940660655287
      ],
      [
        "ster",
        -9.519725690204249
      ],
      [
        "ready",
        -9.52104245621427
      ],
      [
        "computer",
        -9.522642330927823
      ],
      [
        "wide",
        -9.523098884366911
      ],
      [
        "numbers",
        -9.523521715723962
      ],
      [
        "scale",
        -9.52406381485184
      ],
      [
        "biggest",
        -9.524306117137863
      ],
      [
        "software",
        -9.52500548237416
      ],
      [
        "map",
        -9.525843731288822
      ],
      [
        "letter",
        -9.530310216435346
      ],
      [
        "february",
        -9.5330669561695
      ],
      [
        "senior",
        -9.533678268892384
      ],
      [
        "officers",
        -9.53413275435266
      ],
      [
        "relationship",
        -9.535760635810623
      ],
      [
        "color",
        -9.535794824665622
      ],
      [
        "interesting",
        -9.535869516261986
      ],
      [
        "tech",
        -9.53817916761156
      ],
      [
        "additional",
        -9.538300398739093
      ],
      [
        "boy",
        -9.5389726378048
      ],
      [
        "thinking",
        -9.539409642400464
      ],
      [
        "poor",
        -9.539853846461954
      ],
      [
        "treatment",
        -9.541691478487872
      ],
      [
        "station",
        -9.541789376557546
      ],
      [
        "wind",
        -9.541875678717744
      ],
      [
        "target",
        -9.54437564037428
      ],
      [
        "required",
        -9.545455910217315
      ],
      [
        "ize",
        -9.545792347034254
      ],
      [
        "kill",
        -9.547440770395404
      ],
      [
        "manager",
        -9.5492207914784
      ],
      [
        "kids",
        -9.549834027413578
      ],
      [
        "wait",
        -9.550351576581544
      ],
      [
        "cor",
        -9.550910929287651
      ],
      [
        "thus",
        -9.551041265132277
      ],
      [
        "comments",
        -9.55152381649056
      ],
      [
        "throughout",
        -9.552204691432966
      ],
      [
        "described",
        -9.553705498871816
      ],
      [
        "freedom",
        -9.555185349042414
      ],
      [
        "german",
        -9.555259713345729
      ],
      [
        "protect",
        -9.55570020404246
      ],
      [
        "safe",
        -9.55579352380632
      ],
      [
        "gold",
        -9.555907681039407
      ],
      [
        "reality",
        -9.556092370670273
      ],
      [
        "block",
        -9.556318933492388
      ],
      [
        "visit",
        -9.55718028357236
      ],
      [
        "rule",
        -9.558793796837003
      ],
      [
        "charge",
        -9.55905509304164
      ],
      [
        "died",
        -9.55970316009383
      ],
      [
        "happy",
        -9.561261506790736
      ],
      [
        "33",
        -9.561717325079034
      ],
      [
        "analysis",
        -9.563385983330864
      ],
      [
        "criminal",
        -9.564657878412063
      ],
      [
        "author",
        -9.564865283277395
      ],
      [
        "fair",
        -9.564872840194711
      ],
      [
        "texas",
        -9.565087599694449
      ],
      [
        "ization",
        -9.5658890113655
      ],
      [
        "named",
        -9.566677155771872
      ],
      [
        "avoid",
        -9.566881731408811
      ],
      [
        "claims",
        -9.568127253943487
      ],
      [
        "products",
        -9.570698050792467
      ],
      [
        "door",
        -9.570716981801224
      ],
      [
        "fall",
        -9.570794714499954
      ],
      [
        "section",
        -9.571284647745456
      ],
      [
        "directly",
        -9.571782399127846
      ],
      [
        "stuff",
        -9.571965594694968
      ],
      [
        "designed",
        -9.572875172010605
      ],
      [
        "kin",
        -9.573514257994091
      ],
      [
        "200",
        -9.575846368570406
      ],
      [
        "teams",
        -9.575936434135544
      ],
      [
        "www",
        -9.576531799732006
      ],
      [
        "und",
        -9.576565638881863
      ],
      [
        "wife",
        -9.576843140798736
      ],
      [
        "stand",
        -9.577377337137518
      ],
      [
        "laws",
        -9.580021635159214
      ],
      [
        "speech",
        -9.580049082756943
      ],
      [
        "hospital",
        -9.580271070990682
      ],
      [
        "remain",
        -9.58064695573444
      ],
      [
        "log",
        -9.581108517572128
      ],
      [
        "nuclear",
        -9.581689662430424
      ],
      [
        "34",
        -9.581768684026216
      ],
      [
        "contract",
        -9.581771674753693
      ],
      [
        "chinese",
        -9.58179616563489
      ],
      [
        "provided",
        -9.581879694009444
      ],
      [
        "voters",
        -9.581959503262206
      ],
      [
        "fear",
        -9.582117233029976
      ],
      [
        "hour",
        -9.583799618237576
      ],
      [
        "looks",
        -9.58503522235226
      ],
      [
        "camp",
        -9.585229816032674
      ],
      [
        "stock",
        -9.586140998895292
      ],
      [
        "eventually",
        -9.58820816320783
      ],
      [
        "changed",
        -9.589178360058815
      ],
      [
        "cast",
        -9.589761916236633
      ],
      [
        "device",
        -9.590885303459537
      ],
      [
        "politics",
        -9.591821304180296
      ],
      [
        "showed",
        -9.59200418332763
      ],
      [
        "religious",
        -9.59312138991978
      ],
      [
        "weight",
        -9.593431486352165
      ],
      [
        "unit",
        -9.595789349608518
      ],
      [
        "direct",
        -9.597757824566491
      ],
      [
        "books",
        -9.597993621671966
      ],
      [
        "bitcoin",
        -9.598524393163398
      ],
      [
        "limited",
        -9.598658943838608
      ],
      [
        "overall",
        -9.598794680257166
      ],
      [
        "moving",
        -9.598798467379506
      ],
      [
        "attacks",
        -9.599226777286136
      ],
      [
        "increased",
        -9.599501905017409
      ],
      [
        "conservative",
        -9.599876048305129
      ],
      [
        "grand",
        -9.600028833718405
      ],
      [
        "material",
        -9.601697341411894
      ],
      [
        "property",
        -9.603933107195578
      ],
      [
        "blog",
        -9.603970708268866
      ],
      [
        "eyes",
        -9.604658602849607
      ],
      [
        "truth",
        -9.604731911007796
      ],
      [
        "systems",
        -9.605141579010729
      ],
      [
        "trust",
        -9.60518547454526
      ],
      [
        "difference",
        -9.606004051928434
      ],
      [
        "qui",
        -9.606751693981453
      ],
      [
        "river",
        -9.60676411717354
      ],
      [
        "toward",
        -9.6067905658342
      ],
      [
        "secretary",
        -9.608966261938624
      ],
      [
        "click",
        -9.610576106058382
      ],
      [
        "immediately",
        -9.610987301273026
      ],
      [
        "beginning",
        -9.611455622167528
      ],
      [
        "ang",
        -9.612307795700234
      ],
      [
        "join",
        -9.612373239298774
      ],
      [
        "mission",
        -9.612537626500046
      ],
      [
        "lose",
        -9.612706655541189
      ],
      [
        "thousands",
        -9.61290796911493
      ],
      [
        "ard",
        -9.615736808280705
      ],
      [
        "female",
        -9.615743388381178
      ],
      [
        "reach",
        -9.615857077081882
      ],
      [
        "girl",
        -9.617299739934904
      ],
      [
        "levels",
        -9.62048363621117
      ],
      [
        "studies",
        -9.621204703538908
      ],
      [
        "presidential",
        -9.622510096996823
      ],
      [
        "physical",
        -9.624111243955191
      ],
      [
        "smith",
        -9.626436176572811
      ],
      [
        "association",
        -9.628875129866085
      ],
      [
        "republicans",
        -9.630645071794817
      ],
      [
        "secret",
        -9.63198049354765
      ],
      [
        "independent",
        -9.632906451242096
      ],
      [
        "shooting",
        -9.63306109632697
      ],
      [
        "feature",
        -9.634650742398296
      ],
      [
        "george",
        -9.638343560963982
      ],
      [
        ");",
        -9.638382464506122
      ],
      [
        "remains",
        -9.639090504822374
      ],
      [
        "effects",
        -9.64032003758292
      ],
      [
        "basic",
        -9.641013511638352
      ],
      [
        "master",
        -9.6412452482954
      ],
      [
        "aid",
        -9.643921165834666
      ],
      [
        "par",
        -9.644206958684556
      ],
      [
        "guys",
        -9.644596024221553
      ],
      [
        "digital",
        -9.645126831076
      ],
      [
        "gone",
        -9.647263585031054
      ],
      [
        "radio",
        -9.647350366601604
      ],
      [
        "passed",
        -9.649216149710664
      ],
      [
        "associated",
        -9.649608651037004
      ],
      [
        "english",
        -9.649641550029212
      ],
      [
        "democrats",
        -9.650114550298516
      ],
      [
        "french",
        -9.650184011716822
      ],
      [
        "option",
        -9.650650582435173
      ],
      [
        "candidate",
        -9.651830240134595
      ],
      [
        "foundation",
        -9.654866307906486
      ],
      [
        "36",
        -9.65486883718707
      ],
      [
        "(@",
        -9.655680833043428
      ],
      [
        "grow",
        -9.656879082895015
      ],
      [
        "foot",
        -9.658264884683216
      ],
      [
        "compared",
        -9.658367244920337
      ],
      [
        "hill",
        -9.658505890077643
      ],
      [
        "38",
        -9.658917426399054
      ],
      [
        "normal",
        -9.659400633183465
      ],
      [
        "thanks",
        -9.659481628855888
      ],
      [
        "mal",
        -9.661722136754276
      ],
      [
        "travel",
        -9.661764131858687
      ],
      [
        "syria",
        -9.663022729405036
      ],
      [
        "bay",
        -9.663570236774689
      ],
      [
        "signed",
        -9.664028971808683
      ],
      [
        "£",
        -9.66462988483095
      ],
      [
        "towards",
        -9.665889738082532
      ],
      [
        "beat",
        -9.667139597898988
      ],
      [
        "efforts",
        -9.668564572039536
      ],
      [
        "edge",
        -9.670555303366712
      ],
      [
        "plus",
        -9.670781625232696
      ],
      [
        "mail",
        -9.672131574617682
      ],
      [
        "mobile",
        -9.672337313687883
      ],
      [
        "picture",
        -9.672403198588636
      ],
      [
        "perfect",
        -9.6731312164354
      ],
      [
        "favorite",
        -9.673785091190064
      ],
      [
        "threat",
        -9.673803116523818
      ],
      [
        "largest",
        -9.674578729134383
      ],
      [
        "professor",
        -9.675143236363413
      ],
      [
        "posted",
        -9.676880891008183
      ],
      [
        "clean",
        -9.677283426753812
      ],
      [
        "australia",
        -9.677316837368526
      ],
      [
        "cap",
        -9.678350870425898
      ],
      [
        "status",
        -9.679218352875322
      ],
      [
        "management",
        -9.67924183125618
      ],
      [
        "active",
        -9.679838485082936
      ],
      [
        "double",
        -9.680277868146495
      ],
      [
        "host",
        -9.680528767341263
      ],
      [
        "push",
        -9.68105480040079
      ],
      [
        "generation",
        -9.682021918295392
      ],
      [
        "failed",
        -9.684470417568358
      ],
      [
        "clearly",
        -9.684669873416857
      ],
      [
        "activity",
        -9.686354753944697
      ],
      [
        "prevent",
        -9.687843961645251
      ],
      [
        "costs",
        -9.688208949244482
      ],
      [
        "powerful",
        -9.689315649420369
      ],
      [
        "crisis",
        -9.689325658537754
      ],
      [
        "windows",
        -9.689642171610272
      ],
      [
        "begin",
        -9.690341609990766
      ],
      [
        "arm",
        -9.690504557439064
      ],
      [
        "spend",
        -9.69081945180968
      ],
      [
        "moved",
        -9.690887533483666
      ],
      [
        "amp",
        -9.691257943930752
      ],
      [
        "fighting",
        -9.691338775359082
      ],
      [
        "ach",
        -9.692081809390883
      ],
      [
        "wants",
        -9.69284777911626
      ],
      [
        "helped",
        -9.692972551439174
      ],
      [
        "resources",
        -9.69328893787634
      ],
      [
        "brand",
        -9.693857736518126
      ],
      [
        "appear",
        -9.693973760605449
      ],
      [
        "whatever",
        -9.694100654566036
      ],
      [
        "nice",
        -9.695299742035738
      ],
      [
        "border",
        -9.695522064614142
      ],
      [
        "exchange",
        -9.69561786258106
      ],
      [
        "attempt",
        -9.695628149750483
      ],
      [
        "protection",
        -9.697534277837612
      ],
      [
        "spending",
        -9.698424297726424
      ],
      [
        "families",
        -9.69915939031472
      ],
      [
        "myself",
        -9.699810161337874
      ],
      [
        "37",
        -9.699877061523807
      ],
      [
        "pain",
        -9.700921612634202
      ],
      [
        "draft",
        -9.7010009866029
      ],
      [
        "song",
        -9.702181114522244
      ],
      [
        "conditions",
        -9.70228176074692
      ],
      [
        "quick",
        -9.703174051928498
      ],
      [
        "prison",
        -9.703369189356891
      ],
      [
        "positive",
        -9.70412013887355
      ],
      [
        "claimed",
        -9.704502441250336
      ],
      [
        "drop",
        -9.706082695058438
      ],
      [
        "includes",
        -9.70628063002151
      ],
      [
        "48",
        -9.70635949372705
      ],
      [
        "unique",
        -9.707262095402976
      ],
      [
        "gay",
        -9.708297909633178
      ],
      [
        "iran",
        -9.710444735023884
      ],
      [
        "adding",
        -9.71057388320442
      ],
      [
        "agree",
        -9.710970242376098
      ],
      [
        "rose",
        -9.71178730870053
      ],
      [
        "commission",
        -9.712637407080305
      ],
      [
        "command",
        -9.71459087045389
      ],
      [
        "benefit",
        -9.714762287168735
      ],
      [
        "•",
        -9.715308513976357
      ],
      [
        "respect",
        -9.715479719812796
      ],
      [
        "train",
        -9.71607199630833
      ],
      [
        "greater",
        -9.71614512462399
      ],
      [
        "previously",
        -9.716331015050878
      ],
      [
        "request",
        -9.716417920003446
      ],
      [
        "sales",
        -9.716752500234188
      ],
      [
        "ensure",
        -9.719352492377787
      ],
      [
        "developed",
        -9.72026261805315
      ],
      [
        "attorney",
        -9.720613749434802
      ],
      [
        "necessary",
        -9.721493047206984
      ],
      [
        "walk",
        -9.722174141798416
      ],
      [
        "multi",
        -9.72229399344248
      ],
      [
        "reached",
        -9.722389224351229
      ],
      [
        "demand",
        -9.72318137673314
      ],
      [
        "location",
        -9.72395045425837
      ],
      [
        "fox",
        -9.72408360129465
      ],
      [
        "counter",
        -9.724876322422
      ],
      [
        "cities",
        -9.725106546471936
      ],
      [
        "print",
        -9.725257152366993
      ],
      [
        "appears",
        -9.726240782141122
      ],
      [
        "calls",
        -9.728662719158605
      ],
      [
        "agreement",
        -9.729182159901244
      ],
      [
        "ame",
        -9.73076660173947
      ],
      [
        "method",
        -9.733233938171646
      ],
      [
        "forced",
        -9.733926527871102
      ],
      [
        "surface",
        -9.733936362704656
      ],
      [
        "cool",
        -9.735139034630771
      ],
      [
        "sell",
        -9.73520985625095
      ],
      [
        "primary",
        -9.735218550105936
      ],
      [
        "weapons",
        -9.735357348087575
      ],
      [
        "yourself",
        -9.73537818381411
      ],
      [
        "researchers",
        -9.73621294174852
      ],
      [
        "stone",
        -9.737250352891689
      ],
      [
        "application",
        -9.737758301061566
      ],
      [
        "peace",
        -9.73780981658837
      ],
      [
        "rates",
        -9.739534856550971
      ],
      [
        "easily",
        -9.739710424985704
      ],
      [
        "island",
        -9.73996543576496
      ],
      [
        "mode",
        -9.740984275073275
      ],
      [
        "regular",
        -9.742433075736743
      ],
      [
        "display",
        -9.742693607272198
      ],
      [
        "trans",
        -9.74415059356439
      ],
      [
        "actions",
        -9.745241816737392
      ],
      [
        "spring",
        -9.745431002839268
      ],
      [
        "followed",
        -9.745524016975278
      ],
      [
        "knowledge",
        -9.74566315792218
      ],
      [
        "75",
        -9.746307974103196
      ],
      [
        "speak",
        -9.747293043799562
      ],
      [
        "complex",
        -9.747403101025991
      ],
      [
        "influence",
        -9.748009766403564
      ],
      [
        "choose",
        -9.749052317502596
      ],
      [
        "mine",
        -9.75033471715924
      ],
      [
        "platform",
        -9.750385995642011
      ],
      [
        "lines",
        -9.751197027684698
      ],
      [
        "guard",
        -9.752153322343323
      ],
      [
        "germany",
        -9.753421443340416
      ],
      [
        "spot",
        -9.756628751099283
      ],
      [
        "bush",
        -9.756949823662524
      ],
      [
        "ahead",
        -9.758057496223811
      ],
      [
        "2007",
        -9.759253690137136
      ],
      [
        "weekend",
        -9.759662384386862
      ],
      [
        "enter",
        -9.7600785767473
      ],
      [
        "characters",
        -9.760689333374224
      ],
      [
        "appeared",
        -9.760960385629534
      ],
      [
        "64",
        -9.76120251577158
      ],
      [
        "seeing",
        -9.761428517430309
      ],
      [
        "incident",
        -9.763115202346649
      ],
      [
        "39",
        -9.764083048184167
      ],
      [
        "ker",
        -9.765265458809331
      ],
      [
        "marriage",
        -9.765375662833051
      ],
      [
        "winning",
        -9.76539885032984
      ],
      [
        "launch",
        -9.767073624759467
      ],
      [
        "wing",
        -9.76708602812334
      ],
      [
        "hillary",
        -9.76794666055896
      ],
      [
        "debt",
        -9.768924225790151
      ],
      [
        "highly",
        -9.769070510411792
      ],
      [
        "speaking",
        -9.769114989020716
      ],
      [
        "authorities",
        -9.769768183372216
      ],
      [
        "draw",
        -9.769848823993971
      ],
      [
        "machine",
        -9.77003455555959
      ],
      [
        "cell",
        -9.77345915850335
      ],
      [
        "traditional",
        -9.775287992052798
      ],
      [
        "iraq",
        -9.776318911432442
      ],
      [
        "camera",
        -9.776858161838764
      ],
      [
        "calling",
        -9.77741155785868
      ],
      [
        "quarter",
        -9.778443573934933
      ],
      [
        "qua",
        -9.778631884589538
      ],
      [
        "centre",
        -9.77901698435928
      ],
      [
        "actual",
        -9.77907993241596
      ],
      [
        "ju",
        -9.77914906777346
      ],
      [
        "customers",
        -9.779706217217308
      ],
      [
        "?\"",
        -9.779844659144636
      ],
      [
        "creating",
        -9.780018579338922
      ],
      [
        "advantage",
        -9.780253010868352
      ],
      [
        "successful",
        -9.78183474917185
      ],
      [
        "string",
        -9.783232651513387
      ],
      [
        "france",
        -9.784685042699929
      ],
      [
        "doubt",
        -9.785344067094307
      ],
      [
        "male",
        -9.785433086491969
      ],
      [
        "labor",
        -9.785631494616329
      ],
      [
        "professional",
        -9.78629050485529
      ],
      [
        "progress",
        -9.786595537077352
      ],
      [
        "mor",
        -9.78803806945291
      ],
      [
        "critical",
        -9.78860227194285
      ],
      [
        "album",
        -9.791691838058894
      ],
      [
        "reasons",
        -9.79175587923834
      ],
      [
        "episode",
        -9.793433995720074
      ],
      [
        "chris",
        -9.793569314837798
      ],
      [
        "square",
        -9.795447163716286
      ],
      [
        "structure",
        -9.79549028234852
      ],
      [
        "effective",
        -9.796425602587114
      ],
      [
        "noted",
        -9.796684598507106
      ],
      [
        "opening",
        -9.796965216777885
      ],
      [
        "reduce",
        -9.79746081749554
      ],
      [
        "thank",
        -9.79816939124894
      ],
      [
        "mike",
        -9.798937534157725
      ],
      [
        "behavior",
        -9.800110760449028
      ],
      [
        "trial",
        -9.801126860832206
      ],
      [
        "improve",
        -9.801465883593115
      ],
      [
        "fuel",
        -9.803336253188752
      ],
      [
        "worse",
        -9.804407620760935
      ],
      [
        "benefits",
        -9.80446977169784
      ],
      [
        "leg",
        -9.804889455646917
      ],
      [
        "indeed",
        -9.805131627061025
      ],
      [
        "decades",
        -9.80573207504542
      ],
      [
        "citizens",
        -9.806808206677916
      ],
      [
        "funding",
        -9.808877686618516
      ],
      [
        "object",
        -9.809062519443922
      ],
      [
        "pop",
        -9.809828697139968
      ],
      [
        "allows",
        -9.81066945674074
      ],
      [
        "cha",
        -9.81122757329126
      ],
      [
        "investment",
        -9.811396229765174
      ],
      [
        "bell",
        -9.811534946496884
      ],
      [
        "kept",
        -9.813405670633122
      ],
      [
        "mostly",
        -9.813441259186636
      ],
      [
        "floor",
        -9.814987089526284
      ],
      [
        "beer",
        -9.815616435726652
      ],
      [
        "roll",
        -9.816077179822503
      ],
      [
        "daughter",
        -9.816079055022596
      ],
      [
        "sources",
        -9.816166885370182
      ],
      [
        "seemed",
        -9.817440693053664
      ],
      [
        "options",
        -9.818335123795952
      ],
      [
        "firm",
        -9.819515782489956
      ],
      [
        "learning",
        -9.82091442376304
      ],
      [
        "survey",
        -9.821546114463072
      ],
      [
        "division",
        -9.821559984440704
      ],
      [
        "47",
        -9.821924068794017
      ],
      [
        "japan",
        -9.821930279548353
      ],
      [
        "solution",
        -9.8229712391057
      ],
      [
        "require",
        -9.823629393994745
      ],
      [
        "chicago",
        -9.823727524791783
      ],
      [
        "44",
        -9.824205728589725
      ],
      [
        "lake",
        -9.824370006155837
      ],
      [
        "television",
        -9.824478789463107
      ],
      [
        "larger",
        -9.824515169393294
      ],
      [
        "england",
        -9.826875675777917
      ],
      [
        "standing",
        -9.8273002206135
      ],
      [
        "crowd",
        -9.828065812614332
      ],
      [
        "institute",
        -9.828560358681072
      ],
      [
        "55",
        -9.829039358692937
      ],
      [
        "maintain",
        -9.829597943931589
      ],
      [
        "tion",
        -9.83030063739814
      ],
      [
        "therefore",
        -9.831855639626186
      ],
      [
        "employees",
        -9.833425488253416
      ],
      [
        "records",
        -9.833754606074866
      ],
      [
        "strategy",
        -9.833855156303065
      ],
      [
        "individuals",
        -9.835228046973986
      ],
      [
        "ance",
        -9.83615036015772
      ],
      [
        "operation",
        -9.83631326303552
      ],
      [
        "collection",
        -9.836621916776252
      ],
      [
        "leaving",
        -9.83707578747309
      ],
      [
        "notes",
        -9.838552184943865
      ],
      [
        "feeling",
        -9.839057505466291
      ],
      [
        "florida",
        -9.839766201779188
      ],
      [
        "robert",
        -9.840662446903512
      ],
      [
        "bus",
        -9.841422600153765
      ],
      [
        "length",
        -9.841535108430618
      ],
      [
        "opposition",
        -9.84176580153887
      ],
      [
        "goals",
        -9.842203137672934
      ],
      [
        "schools",
        -9.84436276000859
      ],
      [
        "inc",
        -9.844664134299093
      ],
      [
        "hearing",
        -9.84540021146288
      ],
      [
        "memory",
        -9.845743165362496
      ],
      [
        "raised",
        -9.845939447503198
      ],
      [
        "holding",
        -9.846148114391507
      ],
      [
        "vision",
        -9.84836917182613
      ],
      [
        "christian",
        -9.848873156295072
      ],
      [
        "asking",
        -9.849055077040228
      ],
      [
        "tool",
        -9.849668200496533
      ],
      [
        "stream",
        -9.851393410904684
      ],
      [
        "caused",
        -9.851657915739166
      ],
      [
        "lock",
        -9.851887063566478
      ],
      [
        "ideas",
        -9.852001168166954
      ],
      [
        "score",
        -9.852408513984226
      ],
      [
        "listen",
        -9.854724301964715
      ],
      [
        "miles",
        -9.85500687311585
      ],
      [
        "cash",
        -9.855437415463909
      ],
      [
        "policies",
        -9.855593195362763
      ],
      [
        "opinion",
        -9.85626387304083
      ],
      [
        "scientists",
        -9.856910257200118
      ],
      [
        "server",
        -9.85835466358986
      ],
      [
        "muslim",
        -9.859050317537127
      ],
      [
        "theory",
        -9.859376886525736
      ],
      [
        "produce",
        -9.859905634185845
      ],
      [
        "bridge",
        -9.86114909341626
      ],
      [
        "dream",
        -9.861642480321844
      ],
      [
        "journal",
        -9.862221789628512
      ],
      [
        "gre",
        -9.862352005405157
      ],
      [
        "massive",
        -9.862607023524742
      ],
      [
        "42",
        -9.863073109106976
      ],
      [
        "patients",
        -9.863682866026808
      ],
      [
        "murder",
        -9.864633495546832
      ],
      [
        "seven",
        -9.865436626715594
      ],
      [
        "planet",
        -9.866066101567185
      ],
      [
        "produced",
        -9.866786944126885
      ],
      [
        "armed",
        -9.867397583799876
      ],
      [
        "wild",
        -9.867607279923057
      ],
      [
        "storm",
        -9.868289779381753
      ],
      [
        "abuse",
        -9.869754616415078
      ],
      [
        "ric",
        -9.8698180229921
      ],
      [
        "operations",
        -9.870080510288622
      ],
      [
        "serve",
        -9.870603325892668
      ],
      [
        "commercial",
        -9.871017311534755
      ],
      [
        "zone",
        -9.871744520927008
      ],
      [
        "jan",
        -9.871797074905215
      ],
      [
        "meaning",
        -9.872272398601346
      ],
      [
        "bottom",
        -9.873456456726512
      ],
      [
        "poll",
        -9.87426716341844
      ],
      [
        "fund",
        -9.875944019174977
      ],
      [
        "residents",
        -9.87651775482452
      ],
      [
        "download",
        -9.87664888406412
      ],
      [
        "straight",
        -9.87678210301958
      ],
      [
        "purpose",
        -9.87916247725221
      ],
      [
        "false",
        -9.880527918287113
      ],
      [
        "49",
        -9.881931689056744
      ],
      [
        "parties",
        -9.88296333529438
      ],
      [
        "wear",
        -9.883494864903891
      ],
      [
        "competition",
        -9.883599800110945
      ],
      [
        "generally",
        -9.884713218407486
      ],
      [
        "miss",
        -9.884906929869338
      ],
      [
        "disease",
        -9.887288384602874
      ],
      [
        "65",
        -9.887616210687948
      ],
      [
        "liberal",
        -9.88836384096116
      ],
      [
        "script",
        -9.888963677417395
      ],
      [
        "val",
        -9.889442827253712
      ],
      [
        "frame",
        -9.890024013491772
      ],
      [
        "confirmed",
        -9.890132040939866
      ],
      [
        "photos",
        -9.891334970515963
      ],
      [
        "46",
        -9.891556347914808
      ],
      [
        "offered",
        -9.892049514369653
      ],
      [
        "throw",
        -9.892060804874609
      ],
      [
        "continues",
        -9.892988356059062
      ],
      [
        "revealed",
        -9.893663202354958
      ],
      [
        "projects",
        -9.8955544103493
      ],
      [
        "heavy",
        -9.896056853492311
      ],
      [
        "trip",
        -9.896164398799126
      ],
      [
        "concerns",
        -9.896689389735585
      ],
      [
        "older",
        -9.897432146718256
      ],
      [
        "johnson",
        -9.897565848204184
      ],
      [
        "parts",
        -9.898380028783404
      ],
      [
        "arrested",
        -9.899100624582722
      ],
      [
        "highest",
        -9.899208061724853
      ],
      [
        "minute",
        -9.8996717240915
      ],
      [
        "korea",
        -9.900767594093448
      ],
      [
        "definitely",
        -9.901829393990422
      ],
      [
        "interested",
        -9.903248949039444
      ],
      [
        "learned",
        -9.904560793320869
      ],
      [
        "conflict",
        -9.905322946088203
      ],
      [
        "israeli",
        -9.90588247131542
      ],
      [
        "profile",
        -9.906002703106427
      ],
      [
        "hundreds",
        -9.906615464915497
      ],
      [
        "governor",
        -9.906860009430323
      ],
      [
        "enjoy",
        -9.90718075288581
      ],
      [
        "shown",
        -9.90912597495063
      ],
      [
        "stick",
        -9.91022408268404
      ],
      [
        "reform",
        -9.91043658533755
      ],
      [
        "shift",
        -9.9106295441591
      ],
      [
        "300",
        -9.910652478736123
      ],
      [
        "gets",
        -9.91186011784051
      ],
      [
        "cancer",
        -9.91221948948015
      ],
      [
        "setting",
        -9.912245145515437
      ],
      [
        "joined",
        -9.91230307365663
      ],
      [
        "understanding",
        -9.913053807149062
      ],
      [
        "illegal",
        -9.913820544757977
      ],
      [
        "plant",
        -9.914157661981385
      ],
      [
        "canadian",
        -9.915036681629042
      ],
      [
        "hair",
        -9.915837892174066
      ],
      [
        "charges",
        -9.916582889942832
      ],
      [
        "send",
        -9.917442756533092
      ],
      [
        "sanders",
        -9.91752921156254
      ],
      [
        "lies",
        -9.917661450051812
      ],
      [
        "):",
        -9.917715210696262
      ],
      [
        "opened",
        -9.91816915276443
      ],
      [
        "killing",
        -9.918571208319513
      ],
      [
        "negative",
        -9.919391316244743
      ],
      [
        "direction",
        -9.920152824011256
      ],
      [
        "gender",
        -9.920722490664216
      ],
      [
        "count",
        -9.921105148525264
      ],
      [
        "failure",
        -9.92176212181267
      ],
      [
        "showing",
        -9.921803783308514
      ],
      [
        "driving",
        -9.921809716982114
      ],
      [
        "existing",
        -9.923517638459224
      ],
      [
        "driver",
        -9.923863248203402
      ],
      [
        "vehicle",
        -9.924103269557436
      ],
      [
        "marijuana",
        -9.924457493259997
      ],
      [
        "01",
        -9.924514802359448
      ],
      [
        "2006",
        -9.925417288009289
      ],
      [
        "background",
        -9.927072445412112
      ],
      [
        "43",
        -9.92731561953398
      ],
      [
        "notice",
        -9.927683836475609
      ],
      [
        "species",
        -9.929628885003485
      ],
      [
        "fish",
        -9.92999074810723
      ],
      [
        "develop",
        -9.930567221930032
      ],
      [
        "owner",
        -9.930648922164426
      ],
      [
        "ryan",
        -9.930682935304912
      ],
      [
        "finding",
        -9.930810735718625
      ],
      [
        "programs",
        -9.93165700943363
      ],
      [
        "prices",
        -9.93185309781565
      ],
      [
        "ave",
        -9.93403309279275
      ],
      [
        "strike",
        -9.934623174037034
      ],
      [
        "smart",
        -9.935257794184391
      ],
      [
        "responsible",
        -9.936983971109116
      ],
      [
        "gives",
        -9.938355635372682
      ],
      [
        "fourth",
        -9.938893271701197
      ],
      [
        "islamic",
        -9.939985614287698
      ],
      [
        "happens",
        -9.940887296040067
      ],
      [
        "var",
        -9.94097713378666
      ],
      [
        "struggle",
        -9.941129681978476
      ],
      [
        "nations",
        -9.941842417602958
      ],
      [
        "victory",
        -9.942600182050937
      ],
      [
        "explained",
        -9.943024409854305
      ],
      [
        "cloud",
        -9.94493257667986
      ],
      [
        "decade",
        -9.945801154191672
      ],
      [
        "authority",
        -9.945933708120128
      ],
      [
        "ken",
        -9.946873278707598
      ],
      [
        "instance",
        -9.94712601758918
      ],
      [
        "sale",
        -9.947163842532014
      ],
      [
        "carry",
        -9.947544531450395
      ],
      [
        "believed",
        -9.948736134864138
      ],
      [
        "ung",
        -9.949101014695092
      ],
      [
        "touch",
        -9.949561013948577
      ],
      [
        "argument",
        -9.9497240352698
      ],
      [
        "izing",
        -9.950212421664766
      ],
      [
        "suit",
        -9.951018947021776
      ],
      [
        "prior",
        -9.95164380937072
      ],
      [
        "audience",
        -9.95167914200627
      ],
      [
        "explain",
        -9.953534225041608
      ],
      [
        "putting",
        -9.953682530893149
      ],
      [
        "hell",
        -9.95421136135585
      ],
      [
        "values",
        -9.954484339593778
      ],
      [
        "error",
        -9.954628285583771
      ],
      [
        "raise",
        -9.955591284037444
      ],
      [
        "auto",
        -9.95720069927662
      ],
      [
        "condition",
        -9.957524522565782
      ],
      [
        "spoke",
        -9.957869246052404
      ],
      [
        "devices",
        -9.958561485535402
      ],
      [
        "vice",
        -9.958621166408092
      ],
      [
        "separate",
        -9.958924385041204
      ],
      [
        "construction",
        -9.959315664569225
      ],
      [
        "watching",
        -9.9602549928889
      ],
      [
        "scott",
        -9.96077343507048
      ],
      [
        "peter",
        -9.961442697573904
      ],
      [
        "traffic",
        -9.962665486605175
      ],
      [
        "religion",
        -9.962967394852663
      ],
      [
        "decide",
        -9.963229058723378
      ],
      [
        "waiting",
        -9.963697991836789
      ],
      [
        "sleep",
        -9.96395297892254
      ],
      [
        "proposed",
        -9.964903434471497
      ],
      [
        "extremely",
        -9.965317464395454
      ],
      [
        "dollars",
        -9.966001085121134
      ],
      [
        "gate",
        -9.966092219396876
      ],
      [
        "leadership",
        -9.966968956709414
      ],
      [
        "mayor",
        -9.967327549732616
      ],
      [
        "birth",
        -9.967347531441009
      ],
      [
        "annual",
        -9.967532670046834
      ],
      [
        "insurance",
        -9.96866134050153
      ],
      [
        "imagine",
        -9.968672704390093
      ],
      [
        "cold",
        -9.969494614643349
      ],
      [
        "planned",
        -9.969521561591051
      ],
      [
        "jack",
        -9.97005304065407
      ],
      [
        "android",
        -9.970439447323908
      ],
      [
        "worst",
        -9.9706242591394
      ],
      [
        "labour",
        -9.97149875047949
      ],
      [
        "jones",
        -9.97341864106554
      ],
      [
        "flow",
        -9.97358427373719
      ],
      [
        "served",
        -9.973616256054177
      ],
      [
        "initial",
        -9.974434522162872
      ],
      [
        "basis",
        -9.974988105180964
      ],
      [
        "writer",
        -9.975153697433836
      ],
      [
        "exist",
        -9.975409653150782
      ],
      [
        "shape",
        -9.975521523030022
      ],
      [
        "crew",
        -9.975696592360732
      ],
      [
        "concept",
        -9.976986638738577
      ],
      [
        "assault",
        -9.977030114173244
      ],
      [
        "testing",
        -9.977266283709518
      ],
      [
        "measure",
        -9.977804568301815
      ],
      [
        "degree",
        -9.97780587132009
      ],
      [
        "enforcement",
        -9.97845666794729
      ],
      [
        "becoming",
        -9.979460125500813
      ],
      [
        "agreed",
        -9.979544562595022
      ],
      [
        "accept",
        -9.979691510713362
      ],
      [
        "closed",
        -9.979787880073994
      ],
      [
        "martin",
        -9.980463385348104
      ],
      [
        "keeping",
        -9.98071635856704
      ],
      [
        "ending",
        -9.980861087133984
      ],
      [
        "dangerous",
        -9.981823308646597
      ],
      [
        "cul",
        -9.983525019491037
      ],
      [
        "housing",
        -9.983764768135144
      ],
      [
        "lay",
        -9.983911275778448
      ],
      [
        "gain",
        -9.98456222491288
      ],
      [
        "cars",
        -9.984601779916911
      ],
      [
        "partner",
        -9.984630366111864
      ],
      [
        "coverage",
        -9.984898596917525
      ],
      [
        "legislation",
        -9.985155193376947
      ],
      [
        "supporters",
        -9.985758456258685
      ],
      [
        "southern",
        -9.988361041923037
      ],
      [
        "ping",
        -9.98891089240196
      ],
      [
        "flight",
        -9.989299597207888
      ],
      [
        "doctor",
        -9.990389015352648
      ],
      [
        "solar",
        -9.992616879116555
      ],
      [
        "communities",
        -9.992768490671324
      ],
      [
        "magazine",
        -9.992819551929443
      ],
      [
        "strength",
        -9.992831037663093
      ],
      [
        "tools",
        -9.993224164398958
      ],
      [
        "sector",
        -9.99449255735192
      ],
      [
        "shared",
        -9.99551547228935
      ],
      [
        "41",
        -9.995923817978246
      ],
      [
        "types",
        -9.995951153341412
      ],
      [
        "ble",
        -9.99679402206102
      ],
      [
        "editor",
        -9.997625058744353
      ],
      [
        "wish",
        -9.998504769756916
      ],
      [
        "obviously",
        -9.9989697679615
      ],
      [
        "microsoft",
        -9.999128749300136
      ],
      [
        "https",
        -9.999148381405004
      ],
      [
        "2000",
        -9.999425707617672
      ],
      [
        "animal",
        -9.999955360902248
      ],
      [
        "ride",
        -10.000222264253113
      ],
      [
        "easier",
        -10.00028464487235
      ],
      [
        "accused",
        -10.000293153410457
      ],
      [
        "indian",
        -10.000584898339945
      ],
      [
        "wonder",
        -10.001017288104848
      ],
      [
        "cards",
        -10.002577020278808
      ],
      [
        "offers",
        -10.002998086145832
      ],
      [
        "northern",
        -10.003916684919778
      ],
      [
        "purchase",
        -10.004437104482998
      ],
      [
        "planning",
        -10.004716597326968
      ],
      [
        "spread",
        -10.004983476824416
      ],
      [
        "corner",
        -10.005159569887573
      ],
      [
        "pic",
        -10.005586264761163
      ],
      [
        "supreme",
        -10.006049396170948
      ],
      [
        "immigration",
        -10.006079176723288
      ],
      [
        "otherwise",
        -10.006213356220648
      ],
      [
        "cur",
        -10.00621878231741
      ],
      [
        "dozen",
        -10.007573708698452
      ],
      [
        "girls",
        -10.009274273374649
      ],
      [
        "balance",
        -10.009631527097165
      ],
      [
        "baby",
        -10.011553541247254
      ],
      [
        "wave",
        -10.011568241792114
      ],
      [
        "launched",
        -10.012306521503232
      ],
      [
        "documents",
        -10.01420123250341
      ],
      [
        "hurt",
        -10.01431418972164
      ],
      [
        "charged",
        -10.01543741165434
      ],
      [
        "95",
        -10.01595990899946
      ],
      [
        "faith",
        -10.016190836741716
      ],
      [
        "amazing",
        -10.018827055645245
      ],
      [
        "supported",
        -10.019532310226143
      ],
      [
        "britain",
        -10.019539259467168
      ],
      [
        "bike",
        -10.019889404781017
      ],
      [
        "joe",
        -10.020046081537828
      ],
      [
        "items",
        -10.020087506469798
      ],
      [
        "gop",
        -10.020587295131588
      ],
      [
        "brother",
        -10.021396163823876
      ],
      [
        "unless",
        -10.021493599337036
      ],
      [
        "matt",
        -10.021832016833228
      ],
      [
        "supply",
        -10.02207140592314
      ],
      [
        "prove",
        -10.022443329808368
      ],
      [
        "magic",
        -10.022767002672287
      ],
      [
        "connection",
        -10.022920897589858
      ],
      [
        "returned",
        -10.022974265304947
      ],
      [
        "context",
        -10.023307500380264
      ],
      [
        "slow",
        -10.023588500055377
      ],
      [
        "discovered",
        -10.024287446075585
      ],
      [
        "changing",
        -10.026014978333862
      ],
      [
        "apparently",
        -10.026458163771666
      ],
      [
        "environmental",
        -10.026533146496606
      ],
      [
        "victims",
        -10.027503301020118
      ],
      [
        "offensive",
        -10.028909269018063
      ],
      [
        "conversation",
        -10.029339261840123
      ],
      [
        "discussion",
        -10.029937864807184
      ],
      [
        "tough",
        -10.0305909270874
      ],
      [
        "concern",
        -10.030969493642845
      ],
      [
        "suggest",
        -10.03102423806985
      ],
      [
        "moral",
        -10.031347070674885
      ],
      [
        "scientific",
        -10.033828085884798
      ],
      [
        "bowl",
        -10.035034029989392
      ],
      [
        "telling",
        -10.035133678195873
      ],
      [
        "owned",
        -10.036076544830086
      ],
      [
        "jewish",
        -10.036117198081929
      ],
      [
        "guess",
        -10.036351867707673
      ],
      [
        "document",
        -10.037915342172376
      ],
      [
        "channel",
        -10.038144799460122
      ],
      [
        "window",
        -10.03847793299076
      ],
      [
        "2005",
        -10.038946842817673
      ],
      [
        "novel",
        -10.03928694181304
      ],
      [
        "meant",
        -10.039292138903525
      ],
      [
        "concerned",
        -10.040023750372288
      ],
      [
        "cycle",
        -10.040746620887456
      ],
      [
        "caption",
        -10.041070832476455
      ],
      [
        "pull",
        -10.041840682775044
      ],
      [
        "equal",
        -10.042317396678042
      ],
      [
        "african",
        -10.042459140841736
      ],
      [
        "established",
        -10.043411670825153
      ],
      [
        "fresh",
        -10.043680816964663
      ],
      [
        "skin",
        -10.04394683882322
      ],
      [
        "missing",
        -10.045380146782534
      ],
      [
        "smaller",
        -10.04547260404294
      ],
      [
        "micro",
        -10.04600419686466
      ],
      [
        "ultimately",
        -10.046683205769057
      ],
      [
        "suggested",
        -10.046713115961332
      ],
      [
        "catch",
        -10.046988994273526
      ],
      [
        "ward",
        -10.047259270911802
      ],
      [
        "rick",
        -10.04808536791436
      ],
      [
        "beautiful",
        -10.048595581058096
      ],
      [
        "copyright",
        -10.048836781942455
      ],
      [
        "focused",
        -10.0492840849476
      ],
      [
        "protest",
        -10.050107660804557
      ],
      [
        "route",
        -10.05076744609914
      ],
      [
        "issued",
        -10.051086080273269
      ],
      [
        "guide",
        -10.051841511933585
      ],
      [
        "allowing",
        -10.053260512895305
      ],
      [
        "domestic",
        -10.053691905880996
      ],
      [
        "provides",
        -10.054601188561325
      ],
      [
        "victim",
        -10.055114017249297
      ],
      [
        "animals",
        -10.055808237248732
      ],
      [
        "task",
        -10.055964990012388
      ],
      [
        "2018",
        -10.056174514421643
      ],
      [
        "agent",
        -10.056822293555436
      ],
      [
        "activities",
        -10.056823884773369
      ],
      [
        "engine",
        -10.057041832230505
      ],
      [
        "cultural",
        -10.06022160722122
      ],
      [
        "copy",
        -10.06103577591526
      ],
      [
        "rum",
        -10.062155600115874
      ],
      [
        "aware",
        -10.06241123183756
      ],
      [
        "familiar",
        -10.062984029788035
      ],
      [
        "ski",
        -10.063194606418865
      ],
      [
        "businesses",
        -10.063523950483118
      ],
      [
        "meanwhile",
        -10.063717489292538
      ],
      [
        "pol",
        -10.065393943038744
      ],
      [
        "husband",
        -10.065399539646332
      ],
      [
        "finished",
        -10.065402682897943
      ],
      [
        "africa",
        -10.065432900216972
      ],
      [
        "mad",
        -10.065531066598934
      ],
      [
        "para",
        -10.066293864805116
      ],
      [
        "mental",
        -10.066413048939292
      ],
      [
        "ious",
        -10.066825830255308
      ],
      [
        "load",
        -10.066924112944427
      ],
      [
        "names",
        -10.066941136756585
      ],
      [
        "pool",
        -10.068577515205414
      ],
      [
        "fell",
        -10.06898064316016
      ],
      [
        "caught",
        -10.069002999944848
      ],
      [
        "52",
        -10.069761562499082
      ],
      [
        "truly",
        -10.069993413545124
      ],
      [
        "founder",
        -10.070514041659388
      ],
      [
        "hotel",
        -10.07101319184762
      ],
      [
        "richard",
        -10.071579307300055
      ],
      [
        "spirit",
        -10.072049701724904
      ],
      [
        "places",
        -10.072192726040036
      ],
      [
        "championship",
        -10.072265038490007
      ],
      [
        "remove",
        -10.073934609517371
      ],
      [
        "entirely",
        -10.07416095904832
      ],
      [
        "solid",
        -10.07459645206033
      ],
      [
        "banks",
        -10.074770857318754
      ],
      [
        "bel",
        -10.075091736718816
      ],
      [
        "drugs",
        -10.075111852592304
      ],
      [
        "factor",
        -10.075665082939402
      ],
      [
        "japanese",
        -10.076596169596696
      ],
      [
        "identity",
        -10.07660580934538
      ],
      [
        "coast",
        -10.077806749462969
      ],
      [
        "largely",
        -10.077894974545146
      ],
      [
        "defensive",
        -10.07905533014889
      ],
      [
        "fix",
        -10.079412636994377
      ],
      [
        "kick",
        -10.080093875315058
      ],
      [
        "rent",
        -10.080491682144157
      ],
      [
        "revolution",
        -10.081308062767093
      ],
      [
        "ville",
        -10.081455020415302
      ],
      [
        "max",
        -10.082370209309437
      ],
      [
        "reference",
        -10.084008242899582
      ],
      [
        "pair",
        -10.084206078604309
      ],
      [
        "reuters",
        -10.084419815147896
      ],
      [
        "carbon",
        -10.084753329255069
      ],
      [
        "introduced",
        -10.085741985257698
      ],
      [
        "dev",
        -10.085760871942684
      ],
      [
        "presence",
        -10.086284770986175
      ],
      [
        "thomas",
        -10.087107875157962
      ],
      [
        "54",
        -10.087226967812736
      ],
      [
        "absolutely",
        -10.087367834282876
      ],
      [
        "native",
        -10.087793207491686
      ],
      [
        "eastern",
        -10.088327300875273
      ],
      [
        "except",
        -10.088661142520072
      ],
      [
        "sites",
        -10.088980510434432
      ],
      [
        "handle",
        -10.089689486200257
      ],
      [
        "limit",
        -10.09131892308579
      ],
      [
        "pack",
        -10.09134647129341
      ],
      [
        "weather",
        -10.09179602020016
      ],
      [
        "arch",
        -10.092477633319897
      ],
      [
        "paris",
        -10.092908010991584
      ],
      [
        "fellow",
        -10.09356507167666
      ],
      [
        "mention",
        -10.09490062350539
      ],
      [
        "lots",
        -10.095052870751967
      ],
      [
        "mexico",
        -10.09554076380485
      ],
      [
        "injury",
        -10.096954954951078
      ],
      [
        "operating",
        -10.097899053412505
      ],
      [
        "vol",
        -10.09898689511502
      ],
      [
        "alternative",
        -10.099053730604192
      ],
      [
        "identified",
        -10.09913371349569
      ],
      [
        "lord",
        -10.099176693300636
      ],
      [
        "mentioned",
        -10.099548342394309
      ],
      [
        "metal",
        -10.099872870793558
      ],
      [
        "library",
        -10.100013781166176
      ],
      [
        "providing",
        -10.10013473904191
      ],
      [
        "package",
        -10.100280284844176
      ],
      [
        "berg",
        -10.10149217008084
      ],
      [
        "mil",
        -10.102288421659631
      ],
      [
        "internal",
        -10.102575982512365
      ],
      [
        "supposed",
        -10.103035484144163
      ],
      [
        "!”",
        -10.103750311471591
      ],
      [
        "400",
        -10.104040530736732
      ],
      [
        "ure",
        -10.104726351231598
      ],
      [
        "removed",
        -10.1051076273509
      ],
      [
        "warning",
        -10.106057373286832
      ],
      [
        "select",
        -10.106583126022466
      ],
      [
        "57",
        -10.106832322531906
      ],
      [
        "56",
        -10.107316079094272
      ],
      [
        "angeles",
        -10.108671589299526
      ],
      [
        "exercise",
        -10.109439072500033
      ],
      [
        "spokesman",
        -10.109675369761534
      ],
      [
        "syrian",
        -10.110188431442602
      ],
      [
        "senator",
        -10.110624449080536
      ],
      [
        "wake",
        -10.11102575585339
      ],
      [
        "affect",
        -10.111088534107704
      ],
      [
        "placed",
        -10.112166593375024
      ],
      [
        "mix",
        -10.112195912909092
      ],
      [
        "managed",
        -10.11312993949335
      ],
      [
        "transfer",
        -10.114369071358436
      ],
      [
        "burn",
        -10.114723076732206
      ],
      [
        "useful",
        -10.115072774847537
      ],
      [
        "couldn",
        -10.115523592674322
      ],
      [
        "shop",
        -10.11570744926121
      ],
      [
        "fill",
        -10.116991567739014
      ],
      [
        "surprise",
        -10.117843090640545
      ],
      [
        "mini",
        -10.120189486499786
      ],
      [
        "respond",
        -10.12023633640858
      ],
      [
        "trouble",
        -10.12081659100932
      ],
      [
        "secure",
        -10.12091323955278
      ],
      [
        "requires",
        -10.121025805890577
      ],
      [
        "grade",
        -10.122678189671854
      ],
      [
        "selling",
        -10.122991406756933
      ],
      [
        "moon",
        -10.12406942289932
      ],
      [
        "51",
        -10.124496321065369
      ],
      [
        "53",
        -10.124701320540034
      ],
      [
        "finance",
        -10.124783771982434
      ],
      [
        "village",
        -10.12488486024554
      ],
      [
        "stated",
        -10.126256704802003
      ],
      [
        "corporate",
        -10.126636411565752
      ],
      [
        "obvious",
        -10.126730619979066
      ],
      [
        "~",
        -10.127435006372805
      ],
      [
        "healthy",
        -10.127581708455995
      ],
      [
        "distance",
        -10.127768243795463
      ],
      [
        "ities",
        -10.128441578325024
      ],
      [
        "winter",
        -10.130702960990371
      ],
      [
        "59",
        -10.13129986958496
      ],
      [
        "amazon",
        -10.131343436771886
      ],
      [
        "possibly",
        -10.132306748873155
      ],
      [
        "breaking",
        -10.132497544751557
      ],
      [
        "stopped",
        -10.132514532393696
      ],
      [
        "committed",
        -10.133085465456968
      ],
      [
        "skills",
        -10.134209004993146
      ],
      [
        "rain",
        -10.13429950814322
      ],
      [
        "views",
        -10.13504332920888
      ],
      [
        "candidates",
        -10.135782773043454
      ],
      [
        "zero",
        -10.136432092662298
      ],
      [
        "originally",
        -10.136788446835428
      ],
      [
        "whom",
        -10.136833160880965
      ],
      [
        "classic",
        -10.1372643308935
      ],
      [
        "increasing",
        -10.137445339158146
      ],
      [
        "offering",
        -10.13878698771378
      ],
      [
        "visual",
        -10.140689188621414
      ],
      [
        "willing",
        -10.140715373808336
      ],
      [
        "regime",
        -10.140799022316244
      ],
      [
        "specifically",
        -10.141127102246768
      ],
      [
        "appeal",
        -10.141207357518546
      ],
      [
        "toronto",
        -10.141556028417316
      ],
      [
        "ocean",
        -10.142662712164746
      ],
      [
        "expensive",
        -10.142678014834814
      ],
      [
        "steve",
        -10.143469611263573
      ],
      [
        "05",
        -10.144635479630136
      ],
      [
        "discuss",
        -10.1451353946828
      ],
      [
        "files",
        -10.145383369100845
      ],
      [
        "losing",
        -10.146674802920378
      ],
      [
        "located",
        -10.14753958272398
      ],
      [
        "slightly",
        -10.147896155573026
      ],
      [
        "perform",
        -10.148957821720447
      ],
      [
        "relatively",
        -10.150971710359585
      ],
      [
        "amendment",
        -10.15174326862405
      ],
      [
        "measures",
        -10.151791834128828
      ],
      [
        "58",
        -10.151927409135665
      ],
      [
        "panel",
        -10.1525374279079
      ],
      [
        "award",
        -10.153650811338029
      ],
      [
        "elected",
        -10.15429561618918
      ],
      [
        "volume",
        -10.154347246499578
      ],
      [
        "alex",
        -10.154416780658533
      ],
      [
        "harm",
        -10.155004231096653
      ],
      [
        "blame",
        -10.155587397014358
      ],
      [
        "paying",
        -10.15667353375541
      ],
      [
        "cells",
        -10.15777995419172
      ],
      [
        "basically",
        -10.158138125315164
      ],
      [
        "combat",
        -10.158482181264608
      ],
      [
        "arms",
        -10.159591530186455
      ],
      [
        "fly",
        -10.159651118824662
      ],
      [
        "determine",
        -10.159717138361772
      ],
      [
        "royal",
        -10.160260189387795
      ],
      [
        "arrived",
        -10.16080782865168
      ],
      [
        "weapon",
        -10.162092793183271
      ],
      [
        "taxes",
        -10.16308463009518
      ],
      [
        "variety",
        -10.163116509143492
      ],
      [
        "experts",
        -10.164453402103106
      ],
      [
        "66",
        -10.165377452247284
      ],
      [
        "bigger",
        -10.16606169627786
      ],
      [
        "ven",
        -10.16749160944764
      ],
      [
        "broken",
        -10.168166555745604
      ],
      [
        "apply",
        -10.168718843670696
      ],
      [
        "runs",
        -10.168781195097896
      ],
      [
        "violent",
        -10.169245876986182
      ],
      [
        "2004",
        -10.170286125384344
      ],
      [
        "rating",
        -10.173103923898635
      ],
      [
        "regarding",
        -10.174274671104149
      ],
      [
        "correct",
        -10.17441931541976
      ],
      [
        "tim",
        -10.175080618407174
      ],
      [
        "elements",
        -10.175758558674335
      ],
      [
        "youtube",
        -10.175968584475855
      ],
      [
        "conduct",
        -10.17763336994556
      ],
      [
        "lived",
        -10.178283482465538
      ],
      [
        "shut",
        -10.1783455429844
      ],
      [
        "uses",
        -10.17853480515477
      ],
      [
        "kid",
        -10.178918233947622
      ],
      [
        "happening",
        -10.179333002122778
      ],
      [
        "pur",
        -10.179714856649047
      ],
      [
        "qu",
        -10.179735971028212
      ],
      [
        "impossible",
        -10.18018999106197
      ],
      [
        "85",
        -10.180208548990144
      ],
      [
        "mag",
        -10.181338536568903
      ],
      [
        "filed",
        -10.181475301484909
      ],
      [
        "chairman",
        -10.18195996387697
      ],
      [
        "jump",
        -10.182359436250971
      ],
      [
        "parliament",
        -10.18241480263384
      ],
      [
        "privacy",
        -10.182552565580078
      ],
      [
        "owners",
        -10.182730236470269
      ],
      [
        "forest",
        -10.182888614197635
      ],
      [
        "favor",
        -10.185211053972845
      ],
      [
        "kar",
        -10.18533188478354
      ],
      [
        "youth",
        -10.187047807850394
      ],
      [
        "emergency",
        -10.187693899864854
      ],
      [
        "jim",
        -10.1877730454402
      ],
      [
        "deliver",
        -10.188960114386973
      ],
      [
        "seeking",
        -10.189561531772362
      ],
      [
        "ight",
        -10.189711088401165
      ],
      [
        "intended",
        -10.190026833879015
      ],
      [
        "sitting",
        -10.190356732675871
      ],
      [
        "motion",
        -10.1912745148496
      ],
      [
        "funds",
        -10.19142822915004
      ],
      [
        "revenue",
        -10.192154502778482
      ],
      [
        "yeah",
        -10.192218720413022
      ],
      [
        "bur",
        -10.193103153968051
      ],
      [
        "australian",
        -10.193134199139882
      ],
      [
        "transition",
        -10.193674536715244
      ],
      [
        "capacity",
        -10.19384637417146
      ],
      [
        "tournament",
        -10.194245775904026
      ],
      [
        "grant",
        -10.194561196381745
      ],
      [
        "()",
        -10.194595957601091
      ],
      [
        "facing",
        -10.194974544249945
      ],
      [
        "developers",
        -10.195189687985096
      ],
      [
        "chain",
        -10.19587403658835
      ],
      [
        "twice",
        -10.19618352749259
      ],
      [
        "honor",
        -10.196716444952305
      ],
      [
        "urban",
        -10.196925391040107
      ],
      [
        "figures",
        -10.196964600781117
      ],
      [
        "resolution",
        -10.19711331167658
      ],
      [
        "famous",
        -10.197192675256597
      ],
      [
        "kim",
        -10.199431349166757
      ],
      [
        "helping",
        -10.199868383183183
      ],
      [
        "voting",
        -10.200106025067807
      ],
      [
        "soldiers",
        -10.200159117398664
      ],
      [
        "williams",
        -10.200282594527728
      ],
      [
        "67",
        -10.200482430352803
      ],
      [
        "rape",
        -10.20090791814662
      ],
      [
        "getty",
        -10.201102736798436
      ],
      [
        "//",
        -10.201135545200469
      ],
      [
        "express",
        -10.20137656234492
      ],
      [
        "ably",
        -10.201974897528933
      ],
      [
        "creation",
        -10.20221155922364
      ],
      [
        "default",
        -10.202240092293971
      ],
      [
        "chair",
        -10.20230910200298
      ],
      [
        "fixed",
        -10.202571688190758
      ],
      [
        "carried",
        -10.203303389481368
      ],
      [
        "sport",
        -10.204790505725862
      ],
      [
        "increasingly",
        -10.204797585544505
      ],
      [
        "yards",
        -10.205265055094545
      ],
      [
        "sold",
        -10.205409722181365
      ],
      [
        "covered",
        -10.20682434006101
      ],
      [
        "boston",
        -10.208675864800512
      ],
      [
        "treat",
        -10.209919694595966
      ],
      [
        "client",
        -10.210164780659907
      ],
      [
        "studio",
        -10.213543958674284
      ],
      [
        "rising",
        -10.213563652293768
      ],
      [
        "developing",
        -10.213794422054695
      ],
      [
        "weak",
        -10.213860237870726
      ],
      [
        "04",
        -10.21459740486413
      ],
      [
        "col",
        -10.214814165258408
      ],
      [
        "bringing",
        -10.214892041434664
      ],
      [
        "dropped",
        -10.215379487398923
      ],
      [
        "profit",
        -10.216042421429062
      ],
      [
        "entry",
        -10.216326288464398
      ],
      [
        "becomes",
        -10.216560676012827
      ],
      [
        "bound",
        -10.216630519921598
      ],
      [
        "ries",
        -10.217585441123765
      ],
      [
        "unfortunately",
        -10.218629653587842
      ],
      [
        "flat",
        -10.21872527693538
      ],
      [
        "talent",
        -10.219180958259493
      ],
      [
        "02",
        -10.2197738348972
      ],
      [
        "shadow",
        -10.220534362367443
      ],
      [
        "cas",
        -10.220606051969066
      ],
      [
        "percentage",
        -10.22098496883296
      ],
      [
        "steps",
        -10.221588609492905
      ],
      [
        "creative",
        -10.221861371450313
      ],
      [
        "edition",
        -10.222255788907788
      ],
      [
        "responsibility",
        -10.222407684695156
      ],
      [
        "bear",
        -10.222439675901128
      ],
      [
        "ruling",
        -10.22270790008709
      ],
      [
        "possibility",
        -10.222716960893782
      ],
      [
        "deck",
        -10.222725706451756
      ],
      [
        "worry",
        -10.22276852788822
      ],
      [
        "fired",
        -10.224222689160523
      ],
      [
        "mill",
        -10.224551636726195
      ],
      [
        "convention",
        -10.224896798355616
      ],
      [
        "agencies",
        -10.224916270583936
      ],
      [
        "sounds",
        -10.225326202638213
      ],
      [
        "license",
        -10.22599957591422
      ],
      [
        "considering",
        -10.226112537316292
      ],
      [
        "08",
        -10.226450748886238
      ],
      [
        "millions",
        -10.226633398624282
      ],
      [
        "treated",
        -10.227005000027004
      ],
      [
        "pac",
        -10.2277019561497
      ],
      [
        "giant",
        -10.22788250174191
      ],
      [
        "standards",
        -10.22958449393282
      ],
      [
        "angel",
        -10.230179826256586
      ],
      [
        "finish",
        -10.230200291498956
      ],
      [
        "eric",
        -10.230429818530627
      ],
      [
        "seek",
        -10.231345476923249
      ],
      [
        "welcome",
        -10.23136449082975
      ],
      [
        "expression",
        -10.231431070764335
      ],
      [
        "estimated",
        -10.232380711507966
      ],
      [
        "seriously",
        -10.233468258575096
      ],
      [
        "glass",
        -10.233788090470776
      ],
      [
        "turkey",
        -10.234545314039767
      ],
      [
        "models",
        -10.234553754011127
      ],
      [
        "prepared",
        -10.234565094236002
      ],
      [
        "manage",
        -10.23494231637648
      ],
      [
        "shoot",
        -10.235674443288612
      ],
      [
        "infrastructure",
        -10.237378823637332
      ],
      [
        "alleged",
        -10.23753001532651
      ],
      [
        "connected",
        -10.23765027511052
      ],
      [
        "stadium",
[...]
