{
  "version": "1.0",
  "truncation": null,
  "padding": {
    "strategy": {
      "Fixed": 14
    },
    "direction": "Right",
    "pad_to_multiple_of": null,
    "pad_id": 3,
    "pad_type_id": 0,
    "pad_token": "<pad>"
  },
  "added_tokens": [
    {
      "id": 0,
      "content": "<unk>",
      "single_word": false,
      "lstrip": false,
      "rstrip": false,
      "normalized": false,
      "special": true
    },
    {
      "id": 1,
      "content": "<s>",
      "single_word": false,
      "lstrip": false,
      "rstrip": false,
      "normalized": false,
      "special": true
    },
    {
      "id": 2,
      "content": "</s>",
      "single_word": false,
      "lstrip": false,
      "rstrip": false,
      "normalized": false,
      "special": true
    },
    {
      "id": 3,
      "content": "<pad>",
      "single_word": false,
      "lstrip": false,
      "rstrip": false,
      "normalized": false,
      "special": true
    }
  ],
  "normalizer": {
    "type": "Sequence",
    "normalizers": [
      {
        "type": "NFD"
      },
      {
        "type": "Lowercase"
      },
      {
        "type": "StripAccents"
      }
    ]
  },
  "pre_tokenizer": {
    "type": "Whitespace"
  },
  "post_processor": {
    "type": "TemplateProcessing",
    "single": [
      {
        "SpecialToken": {
          "id": "<s>",
          "type_id": 0
        }
      },
      {
        "Sequence": {
          "id": "A",
          "type_id": 0
        }
      },
      {
        "SpecialToken": {
          "id": "</s>",
          "type_id": 0
        }
      }
    ],
    "pair": [
      {
        "SpecialToken": {
          "id": "<s>",
          "type_id": 0
        }
      },
      {
        "Sequence": {
          "id": "A",
          "type_id": 0
        }
      },
      {
        "SpecialToken": {
          "id": "</s>",
          "type_id": 0
        }
      },
      {
        "SpecialToken": {
          "id": "<s>",
          "type_id": 0
        }
      },
      {
        "Sequence": {
          "id": "B",
          "type_id": 0
        }
      },
      {
        "SpecialToken": {
          "id": "</s>",
          "type_id": 0
        }
      }
    ],
    "special_tokens": {
      "</s>": {
        "id": "</s>",
        "ids": [
          2
        ],
        "tokens": [
          "</s>"
        ]
      },
      "<s>": {
        "id": "<s>",
        "ids": [
          1
        ],
        "tokens": [
          "<s>"
        ]
      }
    }
  },
  "decoder": null,
  "model": {
    "type": "WordPiece",
    "unk_token": "<unk>",
    "continuing_subword_prefix": "##",
    "max_input_chars_per_word": 100,
    "vocab": {
      "<unk>": 0,
      "<s>": 1,
      "</s>": 2,
      "<pad>": 3,
      "!": 4,
      "\"": 5,
      "#": 6,
      "%": 7,
      "'": 8,
      ",": 9,
      "-": 10,
      ".": 11,
      "0": 12,
      "1": 13,
      "2": 14,
      "3": 15,
      "4": 16,
      "5": 17,
      "6": 18,
      "7": 19,
      "8": 20,
      "9": 21,
      "?": 22,
      "_": 23,
      "a": 24,
      "b": 25,
      "c": 26,
      "d": 27,
      "e": 28,
      "f": 29,
      "g": 30,
      "h": 31,
      "i": 32,
      "j": 33,
      "k": 34,
      "l": 35,
      "m": 36,
      "n": 37,
      "o": 38,
      "p": 39,
      "q": 40,
      "r": 41,
      "s": 42,
      "t": 43,
      "u": 44,
      "v": 45,
      "w": 46,
      "x": 47,
      "y": 48,
      "z": 49,
      "the": 50,
      "of": 51,
      "and": 52,
      "in": 53,
      "to": 54,
      "was": 55,
      "he": 56,
      "is": 57,
      "as": 58,
      "for": 59,
      "on": 60,
      "with": 61,
      "that": 62,
      "it": 63,
      "his": 64,
      "by": 65,
      "at": 66,
      "from": 67,
      "her": 68,
      "##s": 69,
      "she": 70,
      "you": 71,
      "had": 72,
      "an": 73,
      "were": 74,
      "but": 75,
      "be": 76,
      "this": 77,
      "are": 78,
      "not": 79,
      "my": 80,
      "they": 81,
      "one": 82,
      "which": 83,
      "or": 84,
      "have": 85,
      "him": 86,
      "me": 87,
      "first": 88,
      "all": 89,
      "also": 90,
      "their": 91,
      "has": 92,
      "up": 93,
      "who": 94,
      "out": 95,
      "been": 96,
      "when": 97,
      "after": 98,
      "there": 99,
      "into": 100,
      "new": 101,
      "two": 102,
      "its": 103,
      "##a": 104,
      "time": 105,
      "would": 106,
      "no": 107,
      "what": 108,
      "about": 109,
      "said": 110,
      "we": 111,
      "over": 112,
      "then": 113,
      "other": 114,
      "so": 115,
      "more": 116,
      "##e": 117,
      "can": 118,
      "if": 119,
      "like": 120,
      "back": 121,
      "them": 122,
      "only": 123,
      "some": 124,
      "could": 125,
      "##i": 126,
      "where": 127,
      "just": 128,
      "##ing": 129,
      "during": 130,
      "before": 131,
      "##n": 132,
      "do": 133,
      "##o": 134,
      "made": 135,
      "school": 136,
      "through": 137,
      "than": 138,
      "now": 139,
      "years": 140,
      "most": 141,
      "world": 142,
      "may": 143,
      "between": 144,
      "down": 145,
      "well": 146,
      "three": 147,
      "##d": 148,
      "year": 149,
      "while": 150,
      "will": 151,
      "##ed": 152,
      "##r": 153,
      "##y": 154,
      "later": 155,
      "##t": 156,
      "city": 157,
      "under": 158,
      "around": 159,
      "did": 160,
      "such": 161,
      "being": 162,
      "used": 163,
      "state": 164,
      "people": 165,
      "part": 166,
      "know": 167,
      "against": 168,
      "your": 169,
      "many": 170,
      "second": 171,
      "university": 172,
      "both": 173,
      "national": 174,
      "##er": 175,
      "these": 176,
      "don": 177,
      "known": 178,
      "off": 179,
      "way": 180,
      "until": 181,
      "re": 182,
      "how": 183,
      "even": 184,
      "get": 185,
      "head": 186,
      "...": 187,
      "didn": 188,
      "##ly": 189,
      "team": 190,
      "american": 191,
      "because": 192,
      "de": 193,
      "##l": 194,
      "born": 195,
      "united": 196,
      "film": 197,
      "since": 198,
      "still": 199,
      "long": 200,
      "work": 201,
      "south": 202,
      "us": 203,
      "became": 204,
      "any": 205,
      "high": 206,
      "again": 207,
      "day": 208,
      "family": 209,
      "see": 210,
      "right": 211,
      "man": 212,
      "eyes": 213,
      "house": 214,
      "season": 215,
      "war": 216,
      "states": 217,
      "including": 218,
      "took": 219,
      "life": 220,
      "north": 221,
      "same": 222,
      "each": 223,
      "called": 224,
      "name": 225,
      "much": 226,
      "place": 227,
      "however": 228,
      "go": 229,
      "four": 230,
      "group": 231,
      "another": 232,
      "found": 233,
      "won": 234,
      "area": 235,
      "here": 236,
      "going": 237,
      "10": 238,
      "away": 239,
      "series": 240,
      "left": 241,
      "home": 242,
      "music": 243,
      "best": 244,
      "make": 245,
      "hand": 246,
      "number": 247,
      "company": 248,
      "several": 249,
      "never": 250,
      "last": 251,
      "john": 252,
      "000": 253,
      "very": 254,
      "album": 255,
      "take": 256,
      "end": 257,
      "good": 258,
      "too": 259,
      "following": 260,
      "released": 261,
      "game": 262,
      "played": 263,
      "little": 264,
      "began": 265,
      "district": 266,
      "##m": 267,
      "old": 268,
      "want": 269,
      "those": 270,
      "side": 271,
      "held": 272,
      "own": 273,
      "early": 274,
      "county": 275,
      "ll": 276,
      "league": 277,
      "use": 278,
      "west": 279,
      "##u": 280,
      "face": 281,
      "think": 282,
      "##es": 283,
      "2010": 284,
      "government": 285,
      "##h": 286,
      "march": 287,
      "came": 288,
      "small": 289,
      "general": 290,
      "town": 291,
      "june": 292,
      "##on": 293,
      "line": 294,
      "based": 295,
      "something": 296,
      "##k": 297,
      "september": 298,
      "thought": 299,
      "looked": 300,
      "along": 301,
      "international": 302,
      "2011": 303,
      "air": 304,
      "july": 305,
      "club": 306,
      "went": 307,
      "january": 308,
      "october": 309,
      "our": 310,
      "august": 311,
      "april": 312,
      "york": 313,
      "12": 314,
      "few": 315,
      "2012": 316,
      "2008": 317,
      "east": 318,
      "show": 319,
      "member": 320,
      "college": 321,
      "2009": 322,
      "father": 323,
      "public": 324,
      "##us": 325,
      "come": 326,
      "men": 327,
      "five": 328,
      "set": 329,
      "station": 330,
      "church": 331,
      "##c": 332,
      "next": 333,
      "former": 334,
      "november": 335,
      "room": 336,
      "party": 337,
      "located": 338,
      "december": 339,
      "2013": 340,
      "age": 341,
      "got": 342,
      "2007": 343,
      "##g": 344,
      "system": 345,
      "let": 346,
      "love": 347,
      "2006": 348,
      "though": 349,
      "every": 350,
      "2014": 351,
      "look": 352,
      "song": 353,
      "water": 354,
      "century": 355,
      "without": 356,
      "body": 357,
      "black": 358,
      "night": 359,
      "within": 360,
      "great": 361,
      "women": 362,
      "single": 363,
      "ve": 364,
      "building": 365,
      "large": 366,
      "population": 367,
      "river": 368,
      "named": 369,
      "band": 370,
      "white": 371,
      "started": 372,
      "##an": 373,
      "once": 374,
      "15": 375,
      "20": 376,
      "should": 377,
      "18": 378,
      "2015": 379,
      "service": 380,
      "top": 381,
      "built": 382,
      "british": 383,
      "open": 384,
      "death": 385,
      "king": 386,
      "moved": 387,
      "local": 388,
      "times": 389,
      "children": 390,
      "february": 391,
      "book": 392,
      "why": 393,
      "11": 394,
      "door": 395,
      "need": 396,
      "president": 397,
      "order": 398,
      "final": 399,
      "road": 400,
      "wasn": 401,
      "although": 402,
      "due": 403,
      "major": 404,
      "died": 405,
      "village": 406,
      "third": 407,
      "knew": 408,
      "2016": 409,
      "asked": 410,
      "turned": 411,
      "st": 412,
      "wanted": 413,
      "say": 414,
      "##p": 415,
      "together": 416,
      "received": 417,
      "main": 418,
      "son": 419,
      "served": 420,
      "different": 421,
      "##en": 422,
      "behind": 423,
      "himself": 424,
      "felt": 425,
      "members": 426,
      "power": 427,
      "football": 428,
      "law": 429,
      "voice": 430,
      "play": 431,
      "##in": 432,
      "near": 433,
      "park": 434,
      "history": 435,
      "30": 436,
      "having": 437,
      "2005": 438,
      "16": 439,
      "##man": 440,
      "saw": 441,
      "mother": 442,
      "##al": 443,
      "army": 444,
      "point": 445,
      "front": 446,
      "help": 447,
      "english": 448,
      "street": 449,
      "art": 450,
      "late": 451,
      "hands": 452,
      "games": 453,
      "award": 454,
      "##ia": 455,
      "young": 456,
      "14": 457,
      "put": 458,
      "published": 459,
      "country": 460,
      "division": 461,
      "across": 462,
      "told": 463,
      "13": 464,
      "often": 465,
      "ever": 466,
      "french": 467,
      "london": 468,
      "center": 469,
      "six": 470,
      "red": 471,
      "2017": 472,
      "led": 473,
      "days": 474,
      "include": 475,
      "light": 476,
      "25": 477,
      "find": 478,
      "tell": 479,
      "among": 480,
      "species": 481,
      "really": 482,
      "according": 483,
      "central": 484,
      "half": 485,
      "2004": 486,
      "form": 487,
      "original": 488,
      "gave": 489,
      "office": 490,
      "making": 491,
      "enough": 492,
      "lost": 493,
      "full": 494,
      "opened": 495,
      "must": 496,
      "included": 497,
      "live": 498,
      "given": 499,
      "german": 500,
      "player": 501,
      "run": 502,
      "business": 503,
      "woman": 504,
      "community": 505,
      "cup": 506,
      "might": 507,
      "million": 508,
      "land": 509,
      "2000": 510,
      "court": 511,
      "development": 512,
      "17": 513,
      "short": 514,
      "round": 515,
      "ii": 516,
      "km": 517,
      "seen": 518,
      "class": 519,
      "story": 520,
      "always": 521,
      "become": 522,
      "sure": 523,
      "research": 524,
      "almost": 525,
      "director": 526,
      "council": 527,
      "la": 528,
      "##2": 529,
      "career": 530,
      "things": 531,
      "using": 532,
      "island": 533,
      "##z": 534,
      "couldn": 535,
      "car": 536,
      "##is": 537,
      "24": 538,
      "close": 539,
      "force": 540,
      "##1": 541,
      "better": 542,
      "free": 543,
      "support": 544,
      "control": 545,
      "field": 546,
      "students": 547,
      "2003": 548,
      "education": 549,
      "married": 550,
      "##b": 551,
      "nothing": 552,
      "worked": 553,
      "others": 554,
      "record": 555,
      "big": 556,
      "inside": 557,
      "level": 558,
      "anything": 559,
      "continued": 560,
      "give": 561,
      "james": 562,
      "##3": 563,
      "military": 564,
      "established": 565,
      "non": 566,
      "returned": 567,
      "feel": 568,
      "does": 569,
      "title": 570,
      "written": 571,
      "thing": 572,
      "feet": 573,
      "william": 574,
      "far": 575,
      "co": 576,
      "association": 577,
      "hard": 578,
      "already": 579,
      "2002": 580,
      "##ra": 581,
      "championship": 582,
      "human": 583,
      "western": 584,
      "100": 585,
      "##na": 586,
      "department": 587,
      "hall": 588,
      "role": 589,
      "various": 590,
      "production": 591,
      "21": 592,
      "19": 593,
      "heart": 594,
      "2001": 595,
      "living": 596,
      "fire": 597,
      "version": 598,
      "##ers": 599,
      "##f": 600,
      "television": 601,
      "royal": 602,
      "##4": 603,
      "produced": 604,
      "working": 605,
      "act": 606,
      "case": 607,
      "society": 608,
      "region": 609,
      "present": 610,
      "radio": 611,
      "period": 612,
      "looking": 613,
      "least": 614,
      "total": 615,
      "keep": 616,
      "england": 617,
      "wife": 618,
      "program": 619,
      "per": 620,
      "brother": 621,
      "mind": 622,
      "special": 623,
      "22": 624,
      "##le": 625,
      "am": 626,
      "works": 627,
      "soon": 628,
      "##6": 629,
      "political": 630,
      "george": 631,
      "services": 632,
      "taken": 633,
      "created": 634,
      "##7": 635,
      "further": 636,
      "able": 637,
      "reached": 638,
      "david": 639,
      "union": 640,
      "joined": 641,
      "upon": 642,
      "done": 643,
      "important": 644,
      "social": 645,
      "information": 646,
      "either": 647,
      "##ic": 648,
      "##x": 649,
      "appeared": 650,
      "position": 651,
      "ground": 652,
      "lead": 653,
      "rock": 654,
      "dark": 655,
      "election": 656,
      "23": 657,
      "board": 658,
      "france": 659,
      "hair": 660,
      "course": 661,
      "arms": 662,
      "site": 663,
      "police": 664,
      "girl": 665,
      "instead": 666,
      "real": 667,
      "sound": 668,
      "##v": 669,
      "words": 670,
      "moment": 671,
      "##te": 672,
      "someone": 673,
      "##8": 674,
      "summer": 675,
      "project": 676,
      "announced": 677,
      "san": 678,
      "less": 679,
      "wrote": 680,
      "past": 681,
      "followed": 682,
      "##5": 683,
      "blue": 684,
      "founded": 685,
      "al": 686,
      "finally": 687,
      "india": 688,
      "taking": 689,
      "records": 690,
      "america": 691,
      "##ne": 692,
      "1999": 693,
      "design": 694,
      "considered": 695,
      "northern": 696,
      "god": 697,
      "stop": 698,
      "battle": 699,
      "toward": 700,
      "european": 701,
      "outside": 702,
      "described": 703,
      "track": 704,
      "today": 705,
      "playing": 706,
      "language": 707,
      "28": 708,
      "call": 709,
      "26": 710,
      "heard": 711,
      "professional": 712,
      "low": 713,
      "australia": 714,
      "miles": 715,
      "california": 716,
      "win": 717,
      "yet": 718,
      "green": 719,
      "##ie": 720,
      "trying": 721,
      "blood": 722,
      "##ton": 723,
      "southern": 724,
      "science": 725,
      "maybe": 726,
      "everything": 727,
      "match": 728,
      "square": 729,
      "27": 730,
      "mouth": 731,
      "video": 732,
      "race": 733,
      "recorded": 734,
      "leave": 735,
      "above": 736,
      "##9": 737,
      "daughter": 738,
      "points": 739,
      "space": 740,
      "1998": 741,
      "museum": 742,
      "change": 743,
      "middle": 744,
      "common": 745,
      "##0": 746,
      "move": 747,
      "tv": 748,
      "post": 749,
      "##ta": 750,
      "lake": 751,
      "seven": 752,
      "tried": 753,
      "elected": 754,
      "closed": 755,
      "ten": 756,
      "paul": 757,
      "minister": 758,
      "##th": 759,
      "months": 760,
      "start": 761,
      "chief": 762,
      "return": 763,
      "canada": 764,
      "person": 765,
      "sea": 766,
      "release": 767,
      "similar": 768,
      "modern": 769,
      "brought": 770,
      "rest": 771,
      "hit": 772,
      "formed": 773,
      "mr": 774,
      "##la": 775,
      "1997": 776,
      "floor": 777,
      "event": 778,
      "doing": 779,
      "thomas": 780,
      "1996": 781,
      "robert": 782,
      "care": 783,
      "killed": 784,
      "training": 785,
      "star": 786,
      "week": 787,
      "needed": 788,
      "turn": 789,
      "finished": 790,
      "railway": 791,
      "rather": 792,
      "news": 793,
      "health": 794,
      "sent": 795,
      "example": 796,
      "ran": 797,
      "term": 798,
      "michael": 799,
      "coming": 800,
      "currently": 801,
      "yes": 802,
      "forces": 803,
      "despite": 804,
      "gold": 805,
      "areas": 806,
      "50": 807,
      "stage": 808,
      "fact": 809,
      "29": 810,
      "dead": 811,
      "says": 812,
      "popular": 813,
      "2018": 814,
      "originally": 815,
      "germany": 816,
      "probably": 817,
      "developed": 818,
      "result": 819,
      "pulled": 820,
      "friend": 821,
      "stood": 822,
      "money": 823,
      "running": 824,
      "mi": 825,
      "signed": 826,
      "word": 827,
      "songs": 828,
      "child": 829,
      "eventually": 830,
      "met": 831,
      "tour": 832,
      "average": 833,
      "teams": 834,
      "minutes": 835,
      "festival": 836,
      "current": 837,
      "deep": 838,
      "kind": 839,
      "1995": 840,
      "decided": 841,
      "usually": 842,
      "eastern": 843,
      "seemed": 844,
      "##ness": 845,
      "episode": 846,
      "bed": 847,
      "added": 848,
      "table": 849,
      "indian": 850,
      "private": 851,
      "charles": 852,
      "route": 853,
      "available": 854,
      "idea": 855,
      "throughout": 856,
      "centre": 857,
      "addition": 858,
      "appointed": 859,
      "style": 860,
      "1994": 861,
      "books": 862,
      "eight": 863,
      "construction": 864,
      "press": 865,
      "mean": 866,
      "wall": 867,
      "friends": 868,
      "remained": 869,
      "schools": 870,
      "study": 871,
      "##ch": 872,
      "##um": 873,
      "institute": 874,
      "oh": 875,
      "chinese": 876,
      "sometimes": 877,
      "events": 878,
      "possible": 879,
      "1992": 880,
      "australian": 881,
      "type": 882,
      "brown": 883,
      "forward": 884,
      "talk": 885,
      "process": 886,
      "food": 887,
      "debut": 888,
      "seat": 889,
      "performance": 890,
      "committee": 891,
      "features": 892,
      "character": 893,
      "arts": 894,
      "herself": 895,
      "else": 896,
      "lot": 897,
      "strong": 898,
      "russian": 899,
      "range": 900,
      "hours": 901,
      "peter": 902,
      "arm": 903,
      "##da": 904,
      "morning": 905,
      "dr": 906,
      "sold": 907,
      "##ry": 908,
      "quickly": 909,
      "directed": 910,
      "1993": 911,
      "guitar": 912,
      "china": 913,
      "##w": 914,
      "31": 915,
      "list": 916,
      "##ma": 917,
      "performed": 918,
      "media": 919,
      "uk": 920,
      "players": 921,
      "smile": 922,
      "##rs": 923,
      "myself": 924,
      "40": 925,
      "placed": 926,
      "coach": 927,
      "province": 928,
      "towards": 929,
      "wouldn": 930,
      "leading": 931,
      "whole": 932,
      "boy": 933,
      "official": 934,
      "designed": 935,
      "grand": 936,
      "census": 937,
      "##el": 938,
      "europe": 939,
      "attack": 940,
      "japanese": 941,
      "henry": 942,
      "1991": 943,
      "##re": 944,
      "##os": 945,
      "cross": 946,
      "getting": 947,
      "alone": 948,
      "action": 949,
      "lower": 950,
      "network": 951,
      "wide": 952,
      "washington": 953,
      "japan": 954,
      "1990": 955,
      "hospital": 956,
      "believe": 957,
      "changed": 958,
      "sister": 959,
      "##ar": 960,
      "hold": 961,
      "gone": 962,
      "sir": 963,
      "hadn": 964,
      "ship": 965,
      "##ka": 966,
      "studies": 967,
      "academy": 968,
      "shot": 969,
      "rights": 970,
      "below": 971,
      "base": 972,
      "bad": 973,
      "involved": 974,
      "kept": 975,
      "largest": 976,
      "##ist": 977,
      "bank": 978,
      "future": 979,
      "especially": 980,
      "beginning": 981,
      "mark": 982,
      "movement": 983,
      "section": 984,
      "female": 985,
      "magazine": 986,
      "plan": 987,
      "professor": 988,
      "lord": 989,
      "longer": 990,
      "##ian": 991,
      "sat": 992,
      "walked": 993,
      "hill": 994,
      "actually": 995,
      "civil": 996,
      "energy": 997,
      "model": 998,
      "families": 999,
      "size": 1000,
      "thus": 1001,
      "aircraft": 1002,
      "completed": 1003,
      "includes": 1004,
      "data": 1005,
      "captain": 1006,
      "##or": 1007,
      "fight": 1008,
      "vocals": 1009,
      "featured": 1010,
      "richard": 1011,
      "bridge": 1012,
      "fourth": 1013,
      "1989": 1014,
      "officer": 1015,
      "stone": 1016,
      "hear": 1017,
      "##ism": 1018,
      "means": 1019,
      "medical": 1020,
      "groups": 1021,
      "management": 1022,
      "self": 1023,
      "lips": 1024,
      "competition": 1025,
      "entire": 1026,
      "lived": 1027,
      "technology": 1028,
      "leaving": 1029,
      "federal": 1030,
      "tournament": 1031,
      "bit": 1032,
      "passed": 1033,
      "hot": 1034,
      "independent": 1035,
      "awards": 1036,
      "kingdom": 1037,
      "mary": 1038,
      "spent": 1039,
      "fine": 1040,
      "doesn": 1041,
      "reported": 1042,
      "##ling": 1043,
      "jack": 1044,
      "fall": 1045,
      "raised": 1046,
      "itself": 1047,
      "stay": 1048,
      "true": 1049,
      "studio": 1050,
      "1988": 1051,
      "sports": 1052,
      "replaced": 1053,
      "paris": 1054,
      "systems": 1055,
      "saint": 1056,
      "leader": 1057,
      "theatre": 1058,
      "whose": 1059,
      "market": 1060,
      "capital": 1061,
      "parents": 1062,
      "spanish": 1063,
      "canadian": 1064,
      "earth": 1065,
      "##ity": 1066,
      "cut": 1067,
      "degree": 1068,
      "writing": 1069,
      "bay": 1070,
      "christian": 1071,
      "awarded": 1072,
      "natural": 1073,
      "higher": 1074,
      "bill": 1075,
      "##as": 1076,
      "coast": 1077,
      "provided": 1078,
      "previous": 1079,
      "senior": 1080,
      "ft": 1081,
      "valley": 1082,
      "organization": 1083,
      "stopped": 1084,
      "onto": 1085,
      "countries": 1086,
      "parts": 1087,
      "conference": 1088,
      "queen": 1089,
      "security": 1090,
      "interest": 1091,
      "saying": 1092,
      "allowed": 1093,
      "master": 1094,
      "earlier": 1095,
      "phone": 1096,
      "matter": 1097,
      "smith": 1098,
      "winning": 1099,
      "try": 1100,
      "happened": 1101,
      "moving": 1102,
      "campaign": 1103,
      "los": 1104,
      "##ley": 1105,
      "breath": 1106,
      "nearly": 1107,
      "mid": 1108,
      "1987": 1109,
      "certain": 1110,
      "girls": 1111,
      "date": 1112,
      "italian": 1113,
      "african": 1114,
      "standing": 1115,
      "fell": 1116,
      "artist": 1117,
      "##ted": 1118,
      "shows": 1119,
      "deal": 1120,
      "mine": 1121,
      "industry": 1122,
      "1986": 1123,
      "##ng": 1124,
      "everyone": 1125,
      "republic": 1126,
      "provide": 1127,
      "collection": 1128,
      "library": 1129,
      "student": 1130,
      "##ville": 1131,
      "primary": 1132,
      "owned": 1133,
      "older": 1134,
      "via": 1135,
      "heavy": 1136,
      "1st": 1137,
      "makes": 1138,
      "##able": 1139,
      "attention": 1140,
      "anyone": 1141,
      "africa": 1142,
      "##ri": 1143,
      "stated": 1144,
      "length": 1145,
      "ended": 1146,
      "fingers": 1147,
      "command": 1148,
      "staff": 1149,
      "skin": 1150,
      "foreign": 1151,
      "opening": 1152,
      "governor": 1153,
      "okay": 1154,
      "medal": 1155,
      "kill": 1156,
      "sun": 1157,
      "cover": 1158,
      "job": 1159,
      "1985": 1160,
      "introduced": 1161,
      "chest": 1162,
      "hell": 1163,
      "feeling": 1164,
      "##ies": 1165,
      "success": 1166,
      "meet": 1167,
      "reason": 1168,
      "standard": 1169,
      "meeting": 1170,
      "novel": 1171,
      "1984": 1172,
      "trade": 1173,
      "source": 1174,
      "buildings": 1175,
      "##land": 1176,
      "rose": 1177,
      "guy": 1178,
      "goal": 1179,
      "##ur": 1180,
      "chapter": 1181,
      "native": 1182,
      "husband": 1183,
      "previously": 1184,
      "unit": 1185,
      "limited": 1186,
      "entered": 1187,
      "weeks": 1188,
      "producer": 1189,
      "operations": 1190,
      "mountain": 1191,
      "takes": 1192,
      "covered": 1193,
      "forced": 1194,
      "related": 1195,
      "roman": 1196,
      "complete": 1197,
      "successful": 1198,
      "key": 1199,
      "texas": 1200,
      "cold": 1201,
      "##ya": 1202,
      "channel": 1203,
      "1980": 1204,
      "traditional": 1205,
      "films": 1206,
      "dance": 1207,
      "clear": 1208,
      "approximately": 1209,
      "500": 1210,
      "nine": 1211,
      "van": 1212,
      "prince": 1213,
      "question": 1214,
      "active": 1215,
      "tracks": 1216,
      "ireland": 1217,
      "regional": 1218,
      "silver": 1219,
      "author": 1220,
      "personal": 1221,
      "sense": 1222,
      "operation": 1223,
      "##ine": 1224,
      "economic": 1225,
      "1983": 1226,
      "holding": 1227,
      "twenty": 1228,
      "isbn": 1229,
      "additional": 1230,
      "speed": 1231,
      "hour": 1232,
      "edition": 1233,
      "regular": 1234,
      "historic": 1235,
      "places": 1236,
      "whom": 1237,
      "shook": 1238,
      "movie": 1239,
      "secretary": 1240,
      "prior": 1241,
      "report": 1242,
      "chicago": 1243,
      "read": 1244,
      "foundation": 1245,
      "view": 1246,
      "engine": 1247,
      "scored": 1248,
      "1982": 1249,
      "units": 1250,
      "ask": 1251,
      "airport": 1252,
      "property": 1253,
      "ready": 1254,
      "immediately": 1255,
      "lady": 1256,
      "month": 1257,
      "listed": 1258,
      "contract": 1259,
      "##de": 1260,
      "manager": 1261,
      "themselves": 1262,
      "lines": 1263,
      "##ki": 1264,
      "navy": 1265,
      "writer": 1266,
      "meant": 1267,
      "##ts": 1268,
      "runs": 1269,
      "##ro": 1270,
      "practice": 1271,
      "championships": 1272,
      "singer": 1273,
      "glass": 1274,
      "commission": 1275,
      "required": 1276,
      "forest": 1277,
      "starting": 1278,
      "culture": 1279,
      "generally": 1280,
      "giving": 1281,
      "access": 1282,
      "attended": 1283,
      "test": 1284,
      "couple": 1285,
      "stand": 1286,
      "catholic": 1287,
      "martin": 1288,
      "caught": 1289,
      "executive": 1290,
      "##less": 1291,
      "eye": 1292,
      "##ey": 1293,
      "thinking": 1294,
      "chair": 1295,
      "quite": 1296,
      "shoulder": 1297,
      "1979": 1298,
      "hope": 1299,
      "decision": 1300,
      "plays": 1301,
      "defeated": 1302,
      "municipality": 1303,
      "whether": 1304,
      "structure": 1305,
      "offered": 1306,
      "slowly": 1307,
      "pain": 1308,
      "ice": 1309,
      "direction": 1310,
      "##ion": 1311,
      "paper": 1312,
      "mission": 1313,
      "1981": 1314,
      "mostly": 1315,
      "200": 1316,
      "noted": 1317,
      "individual": 1318,
      "managed": 1319,
      "nature": 1320,
      "lives": 1321,
      "plant": 1322,
      "##ha": 1323,
      "helped": 1324,
      "except": 1325,
      "studied": 1326,
      "computer": 1327,
      "figure": 1328,
      "relationship": 1329,
      "issue": 1330,
      "significant": 1331,
      "loss": 1332,
      "die": 1333,
      "smiled": 1334,
      "gun": 1335,
      "ago": 1336,
      "highest": 1337,
      "1972": 1338,
      "##am": 1339,
      "male": 1340,
      "bring": 1341,
      "goals": 1342,
      "mexico": 1343,
      "problem": 1344,
      "distance": 1345,
      "commercial": 1346,
      "completely": 1347,
      "location": 1348,
      "annual": 1349,
      "famous": 1350,
      "drive": 1351,
      "1976": 1352,
      "neck": 1353,
      "1978": 1354,
      "surface": 1355,
      "caused": 1356,
      "italy": 1357,
      "understand": 1358,
      "greek": 1359,
      "highway": 1360,
      "wrong": 1361,
      "hotel": 1362,
      "comes": 1363,
      "appearance": 1364,
      "joseph": 1365,
      "double": 1366,
      "issues": 1367,
      "musical": 1368,
      "companies": 1369,
      "castle": 1370,
      "income": 1371,
      "review": 1372,
      "assembly": 1373,
      "bass": 1374,
      "initially": 1375,
      "parliament": 1376,
      "artists": 1377,
      "experience": 1378,
      "1974": 1379,
      "particular": 1380,
      "walk": 1381,
      "foot": 1382,
      "engineering": 1383,
      "talking": 1384,
      "window": 1385,
      "dropped": 1386,
      "##ter": 1387,
      "miss": 1388,
      "baby": 1389,
      "boys": 1390,
      "break": 1391,
      "1975": 1392,
      "stars": 1393,
      "edge": 1394,
      "remember": 1395,
      "policy": 1396,
      "carried": 1397,
      "train": 1398,
      "stadium": 1399,
      "bar": 1400,
      "sex": 1401,
      "angeles": 1402,
      "evidence": 1403,
      "##ge": 1404,
      "becoming": 1405,
      "assistant": 1406,
      "soviet": 1407,
      "1977": 1408,
      "upper": 1409,
      "step": 1410,
      "wing": 1411,
      "1970": 1412,
      "youth": 1413,
      "financial": 1414,
      "reach": 1415,
      "##ll": 1416,
      "actor": 1417,
      "numerous": 1418,
      "##se": 1419,
      "##st": 1420,
      "nodded": 1421,
      "arrived": 1422,
      "##ation": 1423,
      "minute": 1424,
      "##nt": 1425,
      "believed": 1426,
      "sorry": 1427,
      "complex": 1428,
      "beautiful": 1429,
      "victory": 1430,
      "associated": 1431,
      "temple": 1432,
      "1968": 1433,
      "1973": 1434,
      "chance": 1435,
      "perhaps": 1436,
      "metal": 1437,
      "##son": 1438,
      "1945": 1439,
      "bishop": 1440,
      "##et": 1441,
      "lee": 1442,
      "launched": 1443,
      "particularly": 1444,
      "tree": 1445,
      "le": 1446,
      "retired": 1447,
      "subject": 1448,
      "prize": 1449,
      "contains": 1450,
      "yeah": 1451,
      "theory": 1452,
      "empire": 1453,
      "##ce": 1454,
      "suddenly": 1455,
      "waiting": 1456,
      "trust": 1457,
      "recording": 1458,
      "##to": 1459,
      "happy": 1460,
      "terms": 1461,
      "camp": 1462,
      "champion": 1463,
      "1971": 1464,
      "religious": 1465,
      "pass": 1466,
      "zealand": 1467,
      "names": 1468,
      "2nd": 1469,
      "port": 1470,
      "ancient": 1471,
      "tom": 1472,
      "corner": 1473,
      "represented": 1474,
      "watch": 1475,
      "legal": 1476,
      "anti": 1477,
      "justice": 1478,
      "cause": 1479,
      "watched": 1480,
      "brothers": 1481,
      "45": 1482,
      "material": 1483,
      "changes": 1484,
      "simply": 1485,
      "response": 1486,
      "louis": 1487,
      "fast": 1488,
      "##ting": 1489,
      "answer": 1490,
      "60": 1491,
      "historical": 1492,
      "1969": 1493,
      "stories": 1494,
      "straight": 1495,
      "create": 1496,
      "feature": 1497,
      "increased": 1498,
      "rate": 1499,
      "administration": 1500,
      "virginia": 1501,
      "el": 1502,
      "activities": 1503,
      "cultural": 1504,
      "overall": 1505,
      "winner": 1506,
      "programs": 1507,
      "basketball": 1508,
      "legs": 1509,
      "guard": 1510,
      "beyond": 1511,
      "cast": 1512,
      "doctor": 1513,
      "mm": 1514,
      "flight": 1515,
      "results": 1516,
      "remains": 1517,
      "cost": 1518,
      "effect": 1519,
      "winter": 1520,
      "##ble": 1521,
      "larger": 1522,
      "islands": 1523,
      "problems": 1524,
      "chairman": 1525,
      "grew": 1526,
      "commander": 1527,
      "isn": 1528,
      "1967": 1529,
      "pay": 1530,
      "failed": 1531,
      "selected": 1532,
      "hurt": 1533,
      "fort": 1534,
      "box": 1535,
      "regiment": 1536,
      "majority": 1537,
      "journal": 1538,
      "35": 1539,
      "edward": 1540,
      "plans": 1541,
      "##ke": 1542,
      "##ni": 1543,
      "shown": 1544,
      "pretty": 1545,
      "irish": 1546,
      "characters": 1547,
      "directly": 1548,
      "scene": 1549,
      "likely": 1550,
      "operated": 1551,
      "allow": 1552,
      "spring": 1553,
      "##j": 1554,
      "junior": 1555,
      "matches": 1556,
      "looks": 1557,
      "mike": 1558,
      "houses": 1559,
      "fellow": 1560,
      "##tion": 1561,
      "beach": 1562,
      "marriage": 1563,
      "##ham": 1564,
      "##ive": 1565,
      "rules": 1566,
      "oil": 1567,
      "65": 1568,
      "florida": 1569,
      "expected": 1570,
      "nearby": 1571,
      "congress": 1572,
      "sam": 1573,
      "peace": 1574,
      "recent": 1575,
      "iii": 1576,
      "wait": 1577,
      "subsequently": 1578,
      "cell": 1579,
      "##do": 1580,
      "variety": 1581,
      "serving": 1582,
      "agreed": 1583,
      "please": 1584,
      "poor": 1585,
      "joe": 1586,
      "pacific": 1587,
      "attempt": 1588,
      "wood": 1589,
      "democratic": 1590,
      "piece": 1591,
      "prime": 1592,
      "##ca": 1593,
      "rural": 1594,
      "mile": 1595,
      "touch": 1596,
      "appears": 1597,
      "township": 1598,
      "1964": 1599,
      "1966": 1600,
      "soldiers": 1601,
      "##men": 1602,
      "##ized": 1603,
      "1965": 1604,
      "pennsylvania": 1605,
      "closer": 1606,
      "fighting": 1607,
      "claimed": 1608,
      "score": 1609,
      "jones": 1610,
      "physical": 1611,
      "editor": 1612,
      "##ous": 1613,
      "filled": 1614,
      "genus": 1615,
      "specific": 1616,
      "sitting": 1617,
      "super": 1618,
      "mom": 1619,
      "##va": 1620,
      "therefore": 1621,
      "supported": 1622,
      "status": 1623,
      "fear": 1624,
      "cases": 1625,
      "store": 1626,
      "meaning": 1627,
      "wales": 1628,
      "minor": 1629,
      "spain": 1630,
      "tower": 1631,
      "focus": 1632,
      "vice": 1633,
      "frank": 1634,
      "follow": 1635,
      "parish": 1636,
      "separate": 1637,
      "golden": 1638,
      "horse": 1639,
      "fifth": 1640,
      "remaining": 1641,
      "branch": 1642,
      "32": 1643,
      "presented": 1644,
      "stared": 1645,
      "##id": 1646,
      "uses": 1647,
      "secret": 1648,
      "forms": 1649,
      "##co": 1650,
      "baseball": 1651,
      "exactly": 1652,
      "##ck": 1653,
      "choice": 1654,
      "note": 1655,
      "discovered": 1656,
      "travel": 1657,
      "composed": 1658,
      "truth": 1659,
      "russia": 1660,
      "ball": 1661,
      "color": 1662,
      "kiss": 1663,
      "dad": 1664,
      "wind": 1665,
      "continue": 1666,
      "ring": 1667,
      "referred": 1668,
      "numbers": 1669,
      "digital": 1670,
      "greater": 1671,
      "##ns": 1672,
      "metres": 1673,
      "slightly": 1674,
      "direct": 1675,
      "increase": 1676,
      "1960": 1677,
      "responsible": 1678,
      "crew": 1679,
      "rule": 1680,
      "trees": 1681,
      "troops": 1682,
      "##no": 1683,
      "broke": 1684,
      "goes": 1685,
      "individuals": 1686,
      "hundred": 1687,
      "weight": 1688,
      "creek": 1689,
      "sleep": 1690,
      "memory": 1691,
      "defense": 1692,
      "provides": 1693,
      "ordered": 1694,
      "code": 1695,
      "value": 1696,
      "jewish": 1697,
      "windows": 1698,
      "1944": 1699,
      "safe": 1700,
      "judge": 1701,
      "whatever": 1702,
      "corps": 1703,
      "realized": 1704,
      "growing": 1705,
      "pre": 1706,
      "##ga": 1707,
      "cities": 1708,
      "alexander": 1709,
      "gaze": 1710,
      "lies": 1711,
      "spread": 1712,
      "scott": 1713,
      "letter": 1714,
      "showed": 1715,
      "situation": 1716,
      "mayor": 1717,
      "transport": 1718,
      "watching": 1719,
      "workers": 1720,
      "extended": 1721,
      "##li": 1722,
      "expression": 1723,
      "normal": 1724,
      "##ment": 1725,
      "chart": 1726,
      "multiple": 1727,
      "border": 1728,
      "##ba": 1729,
      "host": 1730,
      "##ner": 1731,
      "daily": 1732,
      "mrs": 1733,
      "walls": 1734,
      "piano": 1735,
      "##ko": 1736,
      "heat": 1737,
      "cannot": 1738,
      "##ate": 1739,
      "earned": 1740,
      "products": 1741,
      "drama": 1742,
      "era": 1743,
      "authority": 1744,
      "seasons": 1745,
      "join": 1746,
      "grade": 1747,
      "##io": 1748,
      "sign": 1749,
      "difficult": 1750,
      "machine": 1751,
      "1963": 1752,
      "territory": 1753,
      "mainly": 1754,
      "##wood": 1755,
      "stations": 1756,
      "squadron": 1757,
      "1962": 1758,
      "stepped": 1759,
      "iron": 1760,
      "19th": 1761,
      "##led": 1762,
      "serve": 1763,
      "appear": 1764,
      "sky": 1765,
      "speak": 1766,
      "broken": 1767,
      "charge": 1768,
      "knowledge": 1769,
      "kilometres": 1770,
      "removed": 1771,
      "ships": 1772,
      "article": 1773,
      "campus": 1774,
      "simple": 1775,
      "##ty": 1776,
      "pushed": 1777,
      "britain": 1778,
      "##ve": 1779,
      "leaves": 1780,
      "recently": 1781,
      "cd": 1782,
      "soft": 1783,
      "boston": 1784,
      "latter": 1785,
      "easy": 1786,
      "acquired": 1787,
      "poland": 1788,
      "##sa": 1789,
      "quality": 1790,
      "officers": 1791,
      "presence": 1792,
      "planned": 1793,
      "nations": 1794,
      "mass": 1795,
      "broadcast": 1796,
      "jean": 1797,
      "share": 1798,
      "image": 1799,
      "influence": 1800,
      "wild": 1801,
      "offer": 1802,
      "emperor": 1803,
      "electric": 1804,
      "reading": 1805,
      "headed": 1806,
      "ability": 1807,
      "promoted": 1808,
      "yellow": 1809,
      "ministry": 1810,
      "1942": 1811,
      "throat": 1812,
      "smaller": 1813,
      "politician": 1814,
      "##by": 1815,
      "latin": 1816,
      "spoke": 1817,
      "cars": 1818,
      "williams": 1819,
      "males": 1820,
      "lack": 1821,
      "pop": 1822,
      "80": 1823,
      "##ier": 1824,
      "acting": 1825,
      "seeing": 1826,
      "consists": 1827,
      "##ti": 1828,
      "estate": 1829,
      "1961": 1830,
      "pressure": 1831,
      "johnson": 1832,
      "newspaper": 1833,
      "jr": 1834,
      "chris": 1835,
      "olympics": 1836,
      "online": 1837,
      "conditions": 1838,
      "beat": 1839,
      "elements": 1840,
      "walking": 1841,
      "vote": 1842,
      "##field": 1843,
      "needs": 1844,
      "carolina": 1845,
      "text": 1846,
      "featuring": 1847,
      "global": 1848,
      "block": 1849,
      "shirt": 1850,
      "levels": 1851,
      "francisco": 1852,
      "purpose": 1853,
      "females": 1854,
      "et": 1855,
      "dutch": 1856,
      "duke": 1857,
      "ahead": 1858,
      "gas": 1859,
      "twice": 1860,
      "safety": 1861,
      "serious": 1862,
      "turning": 1863,
      "highly": 1864,
      "lieutenant": 1865,
      "firm": 1866,
      "maria": 1867,
      "amount": 1868,
      "mixed": 1869,
      "daniel": 1870,
      "proposed": 1871,
      "perfect": 1872,
      "agreement": 1873,
      "affairs": 1874,
      "3rd": 1875,
      "seconds": 1876,
      "contemporary": 1877,
      "paid": 1878,
      "1943": 1879,
      "prison": 1880,
      "save": 1881,
      "kitchen": 1882,
      "label": 1883,
      "administrative": 1884,
      "intended": 1885,
      "constructed": 1886,
      "academic": 1887,
      "nice": 1888,
      "teacher": 1889,
      "races": 1890,
      "1956": 1891,
      "formerly": 1892,
      "corporation": 1893,
      "ben": 1894,
      "nation": 1895,
      "issued": 1896,
      "shut": 1897,
      "1958": 1898,
      "drums": 1899,
      "housing": 1900,
      "victoria": 1901,
      "seems": 1902,
      "opera": 1903,
      "1959": 1904,
      "graduated": 1905,
      "function": 1906,
      "von": 1907,
      "mentioned": 1908,
      "picked": 1909,
      "build": 1910,
      "recognized": 1911,
      "shortly": 1912,
      "protection": 1913,
      "picture": 1914,
      "notable": 1915,
      "exchange": 1916,
      "elections": 1917,
      "1980s": 1918,
      "loved": 1919,
      "percent": 1920,
      "racing": 1921,
      "fish": 1922,
      "elizabeth": 1923,
      "garden": 1924,
      "volume": 1925,
      "hockey": 1926,
      "1941": 1927,
      "beside": 1928,
      "settled": 1929,
      "##ford": 1930,
      "1940": 1931,
      "competed": 1932,
      "replied": 1933,
      "drew": 1934,
      "1948": 1935,
      "actress": 1936,
      "marine": 1937,
      "scotland": 1938,
      "steel": 1939,
      "glanced": 1940,
      "farm": 1941,
      "steve": 1942,
      "1957": 1943,
      "risk": 1944,
      "tonight": 1945,
      "positive": 1946,
      "magic": 1947,
      "singles": 1948,
      "effects": 1949,
      "gray": 1950,
      "screen": 1951,
      "dog": 1952,
      "##ja": 1953,
      "residents": 1954,
      "bus": 1955,
      "sides": 1956,
      "none": 1957,
      "secondary": 1958,
      "literature": 1959,
      "polish": 1960,
      "destroyed": 1961,
      "flying": 1962,
      "founder": 1963,
      "households": 1964,
      "1939": 1965,
      "lay": 1966,
      "reserve": 1967,
      "usa": 1968,
      "gallery": 1969,
      "##ler": 1970,
      "1946": 1971,
      "industrial": 1972,
      "younger": 1973,
      "approach": 1974,
      "appearances": 1975,
      "urban": 1976,
      "ones": 1977,
      "1950": 1978,
      "finish": 1979,
      "avenue": 1980,
      "powerful": 1981,
      "fully": 1982,
      "growth": 1983,
      "page": 1984,
      "honor": 1985,
      "jersey": 1986,
      "projects": 1987,
      "advanced": 1988,
      "revealed": 1989,
      "basic": 1990,
      "90": 1991,
      "infantry": 1992,
      "pair": 1993,
      "equipment": 1994,
      "visit": 1995,
      "33": 1996,
      "evening": 1997,
      "search": 1998,
      "grant": 1999,
      "effort": 2000,
      "solo": 2001,
      "treatment": 2002,
      "buried": 2003,
      "republican": 2004,
      "primarily": 2005,
      "bottom": 2006,
      "owner": 2007,
      "1970s": 2008,
      "israel": 2009,
      "gives": 2010,
      "jim": 2011,
      "dream": 2012,
      "bob": 2013,
      "remain": 2014,
      "spot": 2015,
      "70": 2016,
      "notes": 2017,
      "produce": 2018,
      "champions": 2019,
      "contact": 2020,
      "ed": 2021,
      "soul": 2022,
      "accepted": 2023,
      "ways": 2024,
      "del": 2025,
      "##ally": 2026,
      "losing": 2027,
      "split": 2028,
      "price": 2029,
      "capacity": 2030,
      "basis": 2031,
      "trial": 2032,
      "questions": 2033,
      "##ina": 2034,
      "1955": 2035,
      "20th": 2036,
      "guess": 2037,
      "officially": 2038,
      "memorial": 2039,
      "naval": 2040,
      "initial": 2041,
      "##ization": 2042,
      "whispered": 2043,
      "median": 2044,
      "engineer": 2045,
      "##ful": 2046,
      "sydney": 2047,
      "##go": 2048,
      "columbia": 2049,
      "strength": 2050,
      "300": 2051,
      "1952": 2052,
      "tears": 2053,
      "senate": 2054,
      "00": 2055,
      "card": 2056,
      "asian": 2057,
      "agent": 2058,
      "1947": 2059,
      "software": 2060,
      "44": 2061,
      "draw": 2062,
      "warm": 2063,
      "supposed": 2064,
      "com": 2065,
      "pro": 2066,
      "##il": 2067,
      "transferred": 2068,
      "leaned": 2069,
      "##at": 2070,
      "candidate": 2071,
      "escape": 2072,
      "mountains": 2073,
      "asia": 2074,
      "potential": 2075,
      "activity": 2076,
      "entertainment": 2077,
      "seem": 2078,
      "traffic": 2079,
      "jackson": 2080,
      "murder": 2081,
      "36": 2082,
      "slow": 2083,
      "product": 2084,
      "orchestra": 2085,
      "haven": 2086,
      "agency": 2087,
      "bbc": 2088,
      "taught": 2089,
      "website": 2090,
      "comedy": 2091,
      "unable": 2092,
      "storm": 2093,
      "planning": 2094,
      "albums": 2095,
      "rugby": 2096,
      "environment": 2097,
      "scientific": 2098,
      "grabbed": 2099,
      "protect": 2100,
      "##hi": 2101,
      "boat": 2102,
      "typically": 2103,
      "1954": 2104,
      "1953": 2105,
      "damage": 2106,
      "principal": 2107,
      "divided": 2108,
      "dedicated": 2109,
      "mount": 2110,
      "ohio": 2111,
      "##berg": 2112,
      "pick": 2113,
      "fought": 2114,
      "driver": 2115,
      "##der": 2116,
      "empty": 2117,
      "shoulders": 2118,
      "sort": 2119,
      "thank": 2120,
      "berlin": 2121,
      "prominent": 2122,
      "account": 2123,
      "freedom": 2124,
      "necessary": 2125,
      "efforts": 2126,
      "alex": 2127,
      "headquarters": 2128,
      "follows": 2129,
      "alongside": 2130,
      "des": 2131,
      "simon": 2132,
      "andrew": 2133,
      "suggested": 2134,
      "operating": 2135,
      "learning": 2136,
      "steps": 2137,
      "1949": 2138,
      "sweet": 2139,
      "technical": 2140,
      "begin": 2141,
      "easily": 2142,
      "34": 2143,
      "teeth": 2144,
      "speaking": 2145,
      "settlement": 2146,
      "scale": 2147,
      "##sh": 2148,
      "renamed": 2149,
      "ray": 2150,
      "max": 2151,
      "enemy": 2152,
      "semi": 2153,
      "joint": 2154,
      "compared": 2155,
      "##rd": 2156,
      "scottish": 2157,
      "leadership": 2158,
      "analysis": 2159,
      "offers": 2160,
      "georgia": 2161,
      "pieces": 2162,
      "captured": 2163,
      "animal": 2164,
      "deputy": 2165,
      "guest": 2166,
      "organized": 2167,
      "##lin": 2168,
      "tony": 2169,
      "combined": 2170,
      "method": 2171,
      "challenge": 2172,
      "1960s": 2173,
      "huge": 2174,
      "wants": 2175,
      "battalion": 2176,
      "sons": 2177,
      "rise": 2178,
      "crime": 2179,
      "types": 2180,
      "facilities": 2181,
      "telling": 2182,
      "path": 2183,
      "1951": 2184,
      "platform": 2185,
      "sit": 2186,
      "1990s": 2187,
      "##lo": 2188,
      "tells": 2189,
      "assigned": 2190,
      "rich": 2191,
      "pull": 2192,
      "##ot": 2193,
      "commonly": 2194,
      "alive": 2195,
      "##za": 2196,
      "letters": 2197,
      "concept": 2198,
      "conducted": 2199,
      "wearing": 2200,
      "happen": 2201,
      "bought": 2202,
      "becomes": 2203,
      "holy": 2204,
      "gets": 2205,
      "ocean": 2206,
      "defeat": 2207,
      "languages": 2208,
      "purchased": 2209,
      "coffee": 2210,
      "occurred": 2211,
      "titled": 2212,
      "##q": 2213,
      "declared": 2214,
      "applied": 2215,
      "sciences": 2216,
      "concert": 2217,
      "sounds": 2218,
      "jazz": 2219,
      "brain": 2220,
      "##me": 2221,
      "painting": 2222,
      "fleet": 2223,
      "tax": 2224,
      "nick": 2225,
      "##ius": 2226,
      "michigan": 2227,
      "count": 2228,
      "animals": 2229,
      "leaders": 2230,
      "episodes": 2231,
      "##line": 2232,
      "content": 2233,
      "##den": 2234,
      "birth": 2235,
      "##it": 2236,
      "clubs": 2237,
      "64": 2238,
      "palace": 2239,
      "critical": 2240,
      "refused": 2241,
      "fair": 2242,
      "leg": 2243,
      "laughed": 2244,
      "returning": 2245,
      "surrounding": 2246,
      "participated": 2247,
      "formation": 2248,
      "lifted": 2249,
      "pointed": 2250,
      "connected": 2251,
      "rome": 2252,
      "medicine": 2253,
      "laid": 2254,
      "taylor": 2255,
      "santa": 2256,
      "powers": 2257,
      "adam": 2258,
      "tall": 2259,
      "shared": 2260,
      "focused": 2261,
      "knowing": 2262,
      "yards": 2263,
      "entrance": 2264,
      "falls": 2265,
      "##wa": 2266,
      "calling": 2267,
      "##ad": 2268,
      "sources": 2269,
      "chosen": 2270,
      "beneath": 2271,
      "resources": 2272,
      "yard": 2273,
      "##ite": 2274,
      "nominated": 2275,
      "silence": 2276,
      "zone": 2277,
      "defined": 2278,
      "##que": 2279,
      "gained": 2280,
      "thirty": 2281,
      "38": 2282,
      "bodies": 2283,
      "moon": 2284,
      "##ard": 2285,
      "adopted": 2286,
      "christmas": 2287,
      "widely": 2288,
      "register": 2289,
      "apart": 2290,
      "iran": 2291,
      "premier": 2292,
      "serves": 2293,
      "du": 2294,
      "unknown": 2295,
      "parties": 2296,
      "##les": 2297,
      "generation": 2298,
      "##ff": 2299,
      "continues": 2300,
      "quick": 2301,
      "fields": 2302,
      "brigade": 2303,
      "quiet": 2304,
      "teaching": 2305,
      "clothes": 2306,
      "impact": 2307,
      "weapons": 2308,
      "partner": 2309,
      "flat": 2310,
      "theater": 2311,
      "supreme": 2312,
      "1938": 2313,
      "37": 2314,
      "relations": 2315,
      "##tor": 2316,
      "plants": 2317,
      "suffered": 2318,
      "1936": 2319,
      "wilson": 2320,
      "kids": 2321,
      "begins": 2322,
      "##age": 2323,
      "1918": 2324,
      "seats": 2325,
      "armed": 2326,
      "internet": 2327,
      "models": 2328,
      "worth": 2329,
      "laws": 2330,
      "400": 2331,
      "communities": 2332,
      "classes": 2333,
      "background": 2334,
      "knows": 2335,
      "thanks": 2336,
      "quarter": 2337,
      "reaching": 2338,
      "humans": 2339,
      "carry": 2340,
      "killing": 2341,
      "format": 2342,
      "kong": 2343,
      "hong": 2344,
      "setting": 2345,
      "75": 2346,
      "architecture": 2347,
      "disease": 2348,
      "railroad": 2349,
      "inc": 2350,
      "possibly": 2351,
      "wish": 2352,
      "arthur": 2353,
      "thoughts": 2354,
      "harry": 2355,
      "doors": 2356,
      "density": 2357,
      "##di": 2358,
      "crowd": 2359,
      "illinois": 2360,
      "stomach": 2361,
      "tone": 2362,
      "unique": 2363,
      "reports": 2364,
      "anyway": 2365,
      "##ir": 2366,
      "liberal": 2367,
      "der": 2368,
      "vehicle": 2369,
      "thick": 2370,
      "dry": 2371,
      "drug": 2372,
      "faced": 2373,
      "largely": 2374,
      "facility": 2375,
      "theme": 2376,
      "holds": 2377,
      "creation": 2378,
      "strange": 2379,
      "colonel": 2380,
      "##mi": 2381,
      "revolution": 2382,
      "bell": 2383,
      "politics": 2384,
      "turns": 2385,
      "silent": 2386,
      "rail": 2387,
      "relief": 2388,
      "independence": 2389,
      "combat": 2390,
      "shape": 2391,
      "write": 2392,
      "determined": 2393,
      "sales": 2394,
      "learned": 2395,
      "4th": 2396,
      "finger": 2397,
      "oxford": 2398,
      "providing": 2399,
      "1937": 2400,
      "heritage": 2401,
      "fiction": 2402,
      "situated": 2403,
      "designated": 2404,
      "allowing": 2405,
      "distribution": 2406,
      "hosted": 2407,
      "##est": 2408,
      "sight": 2409,
      "interview": 2410,
      "estimated": 2411,
      "reduced": 2412,
      "##ria": 2413,
      "toronto": 2414,
      "footballer": 2415,
      "keeping": 2416,
      "guys": 2417,
      "damn": 2418,
      "claim": 2419,
      "motion": 2420,
      "sport": 2421,
      "sixth": 2422,
      "stayed": 2423,
      "##ze": 2424,
      "en": 2425,
      "rear": 2426,
      "receive": 2427,
      "handed": 2428,
      "twelve": 2429,
      "dress": 2430,
      "audience": 2431,
      "granted": 2432,
      "brazil": 2433,
      "##well": 2434,
      "spirit": 2435,
      "##ated": 2436,
      "noticed": 2437,
      "etc": 2438,
      "olympic": 2439,
      "representative": 2440,
      "eric": 2441,
      "tight": 2442,
      "trouble": 2443,
      "reviews": 2444,
      "drink": 2445,
      "vampire": 2446,
      "missing": 2447,
      "roles": 2448,
      "ranked": 2449,
      "newly": 2450,
      "household": 2451,
      "finals": 2452,
      "wave": 2453,
      "critics": 2454,
      "##ee": 2455,
      "phase": 2456,
      "massachusetts": 2457,
      "pilot": 2458,
      "unlike": 2459,
      "philadelphia": 2460,
      "bright": 2461,
      "guns": 2462,
      "crown": 2463,
      "organizations": 2464,
      "roof": 2465,
      "42": 2466,
      "respectively": 2467,
      "clearly": 2468,
      "tongue": 2469,
      "marked": 2470,
      "circle": 2471,
      "fox": 2472,
      "korea": 2473,
      "bronze": 2474,
      "brian": 2475,
      "expanded": 2476,
      "sexual": 2477,
      "supply": 2478,
      "yourself": 2479,
      "inspired": 2480,
      "labour": 2481,
      "fc": 2482,
      "##ah": 2483,
      "reference": 2484,
      "vision": 2485,
      "draft": 2486,
      "connection": 2487,
      "brand": 2488,
      "reasons": 2489,
      "1935": 2490,
      "classic": 2491,
      "driving": 2492,
      "trip": 2493,
      "jesus": 2494,
      "cells": 2495,
      "entry": 2496,
      "1920": 2497,
      "neither": 2498,
      "trail": 2499,
      "claims": 2500,
      "atlantic": 2501,
      "orders": 2502,
      "labor": 2503,
      "nose": 2504,
      "afraid": 2505,
      "identified": 2506,
      "intelligence": 2507,
      "calls": 2508,
      "cancer": 2509,
      "attacked": 2510,
      "passing": 2511,
      "stephen": 2512,
      "positions": 2513,
      "imperial": 2514,
      "grey": 2515,
      "jason": 2516,
      "39": 2517,
      "sunday": 2518,
      "48": 2519,
      "swedish": 2520,
      "avoid": 2521,
      "extra": 2522,
      "uncle": 2523,
      "message": 2524,
      "covers": 2525,
      "allows": 2526,
      "surprise": 2527,
      "materials": 2528,
      "fame": 2529,
      "hunter": 2530,
      "##ji": 2531,
      "1930": 2532,
      "citizens": 2533,
      "figures": 2534,
      "davis": 2535,
      "environmental": 2536,
      "confirmed": 2537,
      "shit": 2538,
      "titles": 2539,
      "di": 2540,
      "performing": 2541,
      "difference": 2542,
      "acts": 2543,
      "attacks": 2544,
      "##ov": 2545,
      "existing": 2546,
      "votes": 2547,
      "opportunity": 2548,
      "nor": 2549,
      "shop": 2550,
      "entirely": 2551,
      "trains": 2552,
      "opposite": 2553,
      "pakistan": 2554,
      "##pa": 2555,
      "develop": 2556,
      "resulted": 2557,
      "representatives": 2558,
      "actions": 2559,
      "reality": 2560,
      "pressed": 2561,
      "##ish": 2562,
      "barely": 2563,
      "wine": 2564,
      "conversation": 2565,
      "faculty": 2566,
      "northwest": 2567,
      "ends": 2568,
      "documentary": 2569,
      "nuclear": 2570,
      "stock": 2571,
      "grace": 2572,
      "sets": 2573,
      "eat": 2574,
      "alternative": 2575,
      "##ps": 2576,
      "bag": 2577,
      "resulting": 2578,
      "creating": 2579,
      "surprised": 2580,
      "cemetery": 2581,
      "1919": 2582,
      "drop": 2583,
      "finding": 2584,
      "sarah": 2585,
      "cricket": 2586,
      "streets": 2587,
      "tradition": 2588,
      "ride": 2589,
      "1933": 2590,
      "exhibition": 2591,
      "target": 2592,
      "ear": 2593,
      "explained": 2594,
      "rain": 2595,
      "composer": 2596,
      "injury": 2597,
      "apartment": 2598,
      "municipal": 2599,
      "educational": 2600,
      "occupied": 2601,
      "netherlands": 2602,
      "clean": 2603,
      "billion": 2604,
      "constitution": 2605,
      "learn": 2606,
      "1914": 2607,
      "maximum": 2608,
      "classical": 2609,
      "francis": 2610,
      "lose": 2611,
      "opposition": 2612,
      "jose": 2613,
      "ontario": 2614,
      "bear": 2615,
      "core": 2616,
      "hills": 2617,
      "rolled": 2618,
      "ending": 2619,
      "drawn": 2620,
      "permanent": 2621,
      "fun": 2622,
      "##tes": 2623,
      "##lla": 2624,
      "lewis": 2625,
      "sites": 2626,
      "chamber": 2627,
      "ryan": 2628,
      "##way": 2629,
      "scoring": 2630,
      "height": 2631,
      "1934": 2632,
      "##house": 2633,
      "lyrics": 2634,
      "staring": 2635,
      "55": 2636,
      "officials": 2637,
      "1917": 2638,
      "snow": 2639,
      "oldest": 2640,
      "##tic": 2641,
      "orange": 2642,
      "##ger": 2643,
      "qualified": 2644,
      "interior": 2645,
      "apparently": 2646,
      "succeeded": 2647,
      "thousand": 2648,
      "dinner": 2649,
      "lights": 2650,
      "existence": 2651,
      "fans": 2652,
      "heavily": 2653,
      "41": 2654,
      "greatest": 2655,
      "conservative": 2656,
      "send": 2657,
      "bowl": 2658,
      "plus": 2659,
      "enter": 2660,
      "catch": 2661,
      "##un": 2662,
      "economy": 2663,
      "duty": 2664,
      "1929": 2665,
      "speech": 2666,
      "authorities": 2667,
      "princess": 2668,
      "performances": 2669,
      "versions": 2670,
      "shall": 2671,
      "graduate": 2672,
      "pictures": 2673,
      "effective": 2674,
      "remembered": 2675,
      "poetry": 2676,
      "desk": 2677,
      "crossed": 2678,
      "starring": 2679,
      "starts": 2680,
      "passenger": 2681,
      "sharp": 2682,
      "##ant": 2683,
      "acres": 2684,
      "ass": 2685,
      "weather": 2686,
      "falling": 2687,
      "rank": 2688,
      "fund": 2689,
      "supporting": 2690,
      "check": 2691,
      "adult": 2692,
      "publishing": 2693,
      "heads": 2694,
      "cm": 2695,
      "southeast": 2696,
      "lane": 2697,
      "##burg": 2698,
      "application": 2699,
      "bc": 2700,
      "##ura": 2701,
      "les": 2702,
      "condition": 2703,
      "transfer": 2704,
      "prevent": 2705,
      "display": 2706,
      "ex": 2707,
      "regions": 2708,
      "earl": 2709,
      "federation": 2710,
      "cool": 2711,
      "relatively": 2712,
      "answered": 2713,
      "besides": 2714,
      "1928": 2715,
      "obtained": 2716,
      "portion": 2717,
      "##town": 2718,
      "mix": 2719,
      "##ding": 2720,
      "reaction": 2721,
      "liked": 2722,
      "dean": 2723,
      "express": 2724,
      "peak": 2725,
      "1932": 2726,
      "##tte": 2727,
      "counter": 2728,
      "religion": 2729,
      "chain": 2730,
      "rare": 2731,
      "miller": 2732,
      "convention": 2733,
      "aid": 2734,
      "lie": 2735,
      "vehicles": 2736,
      "mobile": 2737,
      "perform": 2738,
      "squad": 2739,
      "wonder": 2740,
      "lying": 2741,
      "crazy": 2742,
      "sword": 2743,
      "##ping": 2744,
      "attempted": 2745,
      "centuries": 2746,
      "weren": 2747,
      "philosophy": 2748,
      "category": 2749,
      "##ize": 2750,
      "anna": 2751,
      "interested": 2752,
      "47": 2753,
      "sweden": 2754,
      "wolf": 2755,
      "frequently": 2756,
      "abandoned": 2757,
      "kg": 2758,
      "literary": 2759,
      "alliance": 2760,
      "task": 2761,
      "entitled": 2762,
      "##ay": 2763,
      "threw": 2764,
      "promotion": 2765,
      "factory": 2766,
      "tiny": 2767,
      "soccer": 2768,
      "visited": 2769,
      "matt": 2770,
      "fm": 2771,
      "achieved": 2772,
      "52": 2773,
      "defence": 2774,
      "internal": 2775,
      "persian": 2776,
      "43": 2777,
      "methods": 2778,
      "##ging": 2779,
      "arrested": 2780,
      "otherwise": 2781,
      "cambridge": 2782,
      "programming": 2783,
      "villages": 2784,
      "elementary": 2785,
      "districts": 2786,
      "rooms": 2787,
      "criminal": 2788,
      "conflict": 2789,
      "worry": 2790,
      "trained": 2791,
      "1931": 2792,
      "attempts": 2793,
      "waited": 2794,
      "signal": 2795,
      "bird": 2796,
      "truck": 2797,
      "subsequent": 2798,
      "programme": 2799,
      "##ol": 2800,
      "ad": 2801,
      "49": 2802,
      "communist": 2803,
      "details": 2804,
      "faith": 2805,
      "sector": 2806,
      "patrick": 2807,
      "carrying": 2808,
      "laugh": 2809,
      "##ss": 2810,
      "controlled": 2811,
      "korean": 2812,
      "showing": 2813,
      "origin": 2814,
      "fuel": 2815,
      "evil": 2816,
      "1927": 2817,
      "##ent": 2818,
      "brief": 2819,
      "identity": 2820,
      "darkness": 2821,
      "address": 2822,
      "pool": 2823,
      "missed": 2824,
      "publication": 2825,
      "web": 2826,
      "planet": 2827,
      "ian": 2828,
      "anne": 2829,
      "wings": 2830,
      "invited": 2831,
      "##tt": 2832,
      "briefly": 2833,
      "standards": 2834,
      "kissed": 2835,
      "##be": 2836,
      "ideas": 2837,
      "climate": 2838,
      "causing": 2839,
      "walter": 2840,
      "worse": 2841,
      "albert": 2842,
      "articles": 2843,
      "winners": 2844,
      "desire": 2845,
      "aged": 2846,
      "northeast": 2847,
      "dangerous": 2848,
      "gate": 2849,
      "doubt": 2850,
      "1922": 2851,
      "wooden": 2852,
      "multi": 2853,
      "##ky": 2854,
      "poet": 2855,
      "rising": 2856,
      "funding": 2857,
      "46": 2858,
      "communications": 2859,
      "communication": 2860,
      "violence": 2861,
      "copies": 2862,
      "prepared": 2863,
      "ford": 2864,
      "investigation": 2865,
      "skills": 2866,
      "1924": 2867,
      "pulling": 2868,
      "electronic": 2869,
      "##ak": 2870,
      "##ial": 2871,
      "##han": 2872,
      "containing": 2873,
      "ultimately": 2874,
      "offices": 2875,
      "singing": 2876,
      "understanding": 2877,
      "restaurant": 2878,
      "tomorrow": 2879,
      "fashion": 2880,
      "christ": 2881,
      "ward": 2882,
      "da": 2883,
      "pope": 2884,
      "stands": 2885,
      "5th": 2886,
      "flow": 2887,
      "studios": 2888,
      "aired": 2889,
      "commissioned": 2890,
      "contained": 2891,
      "exist": 2892,
      "fresh": 2893,
      "americans": 2894,
      "##per": 2895,
      "wrestling": 2896,
      "approved": 2897,
      "kid": 2898,
      "employed": 2899,
      "respect": 2900,
      "suit": 2901,
      "1925": 2902,
      "angel": 2903,
      "asking": 2904,
      "increasing": 2905,
      "frame": 2906,
      "angry": 2907,
      "selling": 2908,
      "1950s": 2909,
      "thin": 2910,
      "finds": 2911,
      "##nd": 2912,
      "temperature": 2913,
      "statement": 2914,
      "ali": 2915,
      "explain": 2916,
      "inhabitants": 2917,
      "towns": 2918,
      "extensive": 2919,
      "narrow": 2920,
      "51": 2921,
      "jane": 2922,
      "flowers": 2923,
      "images": 2924,
      "promise": 2925,
      "somewhere": 2926,
      "object": 2927,
      "fly": 2928,
      "closely": 2929,
      "##ls": 2930,
      "1912": 2931,
      "bureau": 2932,
      "cape": 2933,
      "1926": 2934,
      "weekly": 2935,
      "presidential": 2936,
      "legislative": 2937,
      "1921": 2938,
      "##ai": 2939,
      "##au": 2940,
      "launch": 2941,
      "founding": 2942,
      "##ny": 2943,
      "978": 2944,
      "##ring": 2945,
      "artillery": 2946,
      "strike": 2947,
      "un": 2948,
      "institutions": 2949,
      "roll": 2950,
      "writers": 2951,
      "landing": 2952,
      "chose": 2953,
      "kevin": 2954,
      "anymore": 2955,
      "pp": 2956,
      "##ut": 2957,
      "attorney": 2958,
      "fit": 2959,
      "dan": 2960,
      "billboard": 2961,
      "receiving": 2962,
      "agricultural": 2963,
      "breaking": 2964,
      "sought": 2965,
      "dave": 2966,
      "admitted": 2967,
      "lands": 2968,
      "mexican": 2969,
      "##bury": 2970,
      "charlie": 2971,
      "specifically": 2972,
      "hole": 2973,
      "iv": 2974,
      "howard": 2975,
      "credit": 2976,
      "moscow": 2977,
      "roads": 2978,
      "accident": 2979,
      "1923": 2980,
      "proved": 2981,
      "wear": 2982,
      "struck": 2983,
      "hey": 2984,
      "guards": 2985,
      "stuff": 2986,
      "slid": 2987,
      "expansion": 2988,
      "1915": 2989,
      "cat": 2990,
      "anthony": 2991,
      "##kin": 2992,
      "melbourne": 2993,
      "opposed": 2994,
      "sub": 2995,
      "southwest": 2996,
      "architect": 2997,
      "failure": 2998,
      "plane": 2999,
      "1916": 3000,
      "##ron": 3001,
      "map": 3002,
      "camera": 3003,
      "tank": 3004,
      "listen": 3005,
      "regarding": 3006,
      "wet": 3007,
      "introduction": 3008,
      "metropolitan": 3009,
      "link": 3010,
      "ep": 3011,
      "fighter": 3012,
      "inch": 3013,
      "grown": 3014,
      "gene": 3015,
      "anger": 3016,
      "fixed": 3017,
      "buy": 3018,
      "dvd": 3019,
      "khan": 3020,
      "domestic": 3021,
      "worldwide": 3022,
      "chapel": 3023,
      "mill": 3024,
      "functions": 3025,
      "examples": 3026,
      "##head": 3027,
      "developing": 3028,
      "1910": 3029,
      "turkey": 3030,
      "hits": 3031,
      "pocket": 3032,
      "antonio": 3033,
      "papers": 3034,
      "grow": 3035,
      "unless": 3036,
      "circuit": 3037,
      "18th": 3038,
      "concerned": 3039,
      "attached": 3040,
      "journalist": 3041,
      "selection": 3042,
      "journey": 3043,
      "converted": 3044,
      "provincial": 3045,
      "painted": 3046,
      "hearing": 3047,
      "aren": 3048,
      "bands": 3049,
      "negative": 3050,
      "aside": 3051,
      "wondered": 3052,
      "knight": 3053,
      "lap": 3054,
      "survey": 3055,
      "ma": 3056,
      "##ow": 3057,
      "noise": 3058,
      "billy": 3059,
      "##ium": 3060,
      "shooting": 3061,
      "guide": 3062,
      "bedroom": 3063,
      "priest": 3064,
      "resistance": 3065,
      "motor": 3066,
      "homes": 3067,
      "sounded": 3068,
      "giant": 3069,
      "##mer": 3070,
      "150": 3071,
      "scenes": 3072,
      "equal": 3073,
      "comic": 3074,
      "patients": 3075,
      "hidden": 3076,
      "solid": 3077,
      "actual": 3078,
      "bringing": 3079,
      "afternoon": 3080,
      "touched": 3081,
      "funds": 3082,
      "wedding": 3083,
      "consisted": 3084,
      "marie": 3085,
      "canal": 3086,
      "sr": 3087,
      "kim": 3088,
      "treaty": 3089,
      "turkish": 3090,
      "recognition": 3091,
      "residence": 3092,
      "cathedral": 3093,
      "broad": 3094,
      "knees": 3095,
      "incident": 3096,
      "shaped": 3097,
      "fired": 3098,
      "norwegian": 3099,
      "handle": 3100,
      "cheek": 3101,
      "contest": 3102,
      "represent": 3103,
      "##pe": 3104,
      "representing": 3105,
      "beauty": 3106,
      "##sen": 3107,
      "birds": 3108,
      "advantage": 3109,
      "emergency": 3110,
      "wrapped": 3111,
      "drawing": 3112,
      "notice": 3113,
      "pink": 3114,
      "broadcasting": 3115,
      "##ong": 3116,
      "somehow": 3117,
      "bachelor": 3118,
      "seventh": 3119,
      "collected": 3120,
      "registered": 3121,
      "establishment": 3122,
      "alan": 3123,
      "assumed": 3124,
      "chemical": 3125,
      "personnel": 3126,
      "roger": 3127,
      "retirement": 3128,
      "jeff": 3129,
      "portuguese": 3130,
      "wore": 3131,
      "tied": 3132,
      "device": 3133,
      "threat": 3134,
      "progress": 3135,
      "advance": 3136,
      "##ised": 3137,
      "banks": 3138,
      "hired": 3139,
      "manchester": 3140,
      "nfl": 3141,
      "teachers": 3142,
      "structures": 3143,
      "forever": 3144,
      "##bo": 3145,
      "tennis": 3146,
      "helping": 3147,
      "saturday": 3148,
      "sale": 3149,
      "applications": 3150,
      "junction": 3151,
      "hip": 3152,
      "incorporated": 3153,
      "neighborhood": 3154,
      "dressed": 3155,
      "ceremony": 3156,
      "##ds": 3157,
      "influenced": 3158,
      "hers": 3159,
      "visual": 3160,
      "stairs": 3161,
      "decades": 3162,
      "inner": 3163,
      "kansas": 3164,
      "hung": 3165,
      "hoped": 3166,
      "gain": 3167,
      "scheduled": 3168,
      "downtown": 3169,
      "engaged": 3170,
      "austria": 3171,
      "clock": 3172,
      "norway": 3173,
      "certainly": 3174,
      "pale": 3175,
      "protected": 3176,
      "1913": 3177,
      "victor": 3178,
      "employees": 3179,
      "plate": 3180,
      "putting": 3181,
      "surrounded": 3182,
      "##ists": 3183,
      "finishing": 3184,
      "blues": 3185,
      "tropical": 3186,
      "##ries": 3187,
      "minnesota": 3188,
      "consider": 3189,
      "philippines": 3190,
      "accept": 3191,
      "54": 3192,
      "retrieved": 3193,
      "1900": 3194,
      "concern": 3195,
      "anderson": 3196,
      "properties": 3197,
      "institution": 3198,
      "gordon": 3199,
      "successfully": 3200,
      "vietnam": 3201,
      "##dy": 3202,
      "backing": 3203,
      "outstanding": 3204,
      "muslim": 3205,
      "crossing": 3206,
      "folk": 3207,
      "producing": 3208,
      "usual": 3209,
      "demand": 3210,
      "occurs": 3211,
      "observed": 3212,
      "lawyer": 3213,
      "educated": 3214,
      "##ana": 3215,
      "kelly": 3216,
      "string": 3217,
      "pleasure": 3218,
      "budget": 3219,
      "items": 3220,
      "quietly": 3221,
      "colorado": 3222,
      "philip": 3223,
      "typical": 3224,
      "##worth": 3225,
      "derived": 3226,
      "600": 3227,
      "survived": 3228,
      "asks": 3229,
      "mental": 3230,
      "##ide": 3231,
      "56": 3232,
      "jake": 3233,
      "jews": 3234,
      "distinguished": 3235,
      "ltd": 3236,
      "1911": 3237,
      "sri": 3238,
      "extremely": 3239,
      "53": 3240,
      "athletic": 3241,
      "loud": 3242,
      "thousands": 3243,
      "worried": 3244,
      "shadow": 3245,
      "transportation": 3246,
      "horses": 3247,
      "weapon": 3248,
      "arena": 3249,
      "importance": 3250,
      "users": 3251,
      "tim": 3252,
      "objects": 3253,
      "contributed": 3254,
      "dragon": 3255,
      "douglas": 3256,
      "aware": 3257,
      "senator": 3258,
      "johnny": 3259,
      "jordan": 3260,
      "sisters": 3261,
      "engines": 3262,
      "flag": 3263,
      "investment": 3264,
      "samuel": 3265,
      "shock": 3266,
      "capable": 3267,
      "clark": 3268,
      "row": 3269,
      "wheel": 3270,
      "refers": 3271,
      "session": 3272,
      "familiar": 3273,
      "biggest": 3274,
      "wins": 3275,
      "hate": 3276,
      "maintained": 3277,
      "drove": 3278,
      "hamilton": 3279,
      "request": 3280,
      "expressed": 3281,
      "injured": 3282,
      "underground": 3283,
      "churches": 3284,
      "walker": 3285,
      "wars": 3286,
      "tunnel": 3287,
      "passes": 3288,
      "stupid": 3289,
      "agriculture": 3290,
      "softly": 3291,
      "cabinet": 3292,
      "regarded": 3293,
      "joining": 3294,
      "indiana": 3295,
      "##ea": 3296,
      "##ms": 3297,
      "push": 3298,
      "dates": 3299,
      "spend": 3300,
      "behavior": 3301,
      "woods": 3302,
      "protein": 3303,
      "gently": 3304,
      "chase": 3305,
      "morgan": 3306,
      "mention": 3307,
      "burning": 3308,
      "wake": 3309,
      "combination": 3310,
      "occur": 3311,
      "mirror": 3312,
      "leads": 3313,
      "jimmy": 3314,
      "indeed": 3315,
      "impossible": 3316,
      "singapore": 3317,
      "paintings": 3318,
      "covering": 3319,
      "##nes": 3320,
      "soldier": 3321,
      "locations": 3322,
      "attendance": 3323,
      "sell": 3324,
      "historian": 3325,
      "wisconsin": 3326,
      "invasion": 3327,
      "argued": 3328,
      "painter": 3329,
      "diego": 3330,
      "changing": 3331,
      "egypt": 3332,
      "##don": 3333,
      "experienced": 3334,
      "inches": 3335,
      "##ku": 3336,
      "missouri": 3337,
      "vol": 3338,
      "grounds": 3339,
      "spoken": 3340,
      "switzerland": 3341,
      "##gan": 3342,
      "reform": 3343,
      "rolling": 3344,
      "ha": 3345,
      "forget": 3346,
      "massive": 3347,
      "resigned": 3348,
      "burned": 3349,
      "allen": 3350,
      "tennessee": 3351,
      "locked": 3352,
      "values": 3353,
      "improved": 3354,
      "##mo": 3355,
      "wounded": 3356,
      "universe": 3357,
      "sick": 3358,
      "dating": 3359,
      "facing": 3360,
      "pack": 3361,
      "purchase": 3362,
      "user": 3363,
      "##pur": 3364,
      "moments": 3365,
      "##ul": 3366,
      "merged": 3367,
      "anniversary": 3368,
      "1908": 3369,
      "coal": 3370,
      "brick": 3371,
      "understood": 3372,
      "causes": 3373,
      "dynasty": 3374,
      "queensland": 3375,
      "establish": 3376,
      "stores": 3377,
      "crisis": 3378,
      "promote": 3379,
      "hoping": 3380,
      "views": 3381,
      "cards": 3382,
      "referee": 3383,
      "extension": 3384,
      "##si": 3385,
      "raise": 3386,
      "arizona": 3387,
      "improve": 3388,
      "colonial": 3389,
      "formal": 3390,
      "charged": 3391,
      "##rt": 3392,
      "palm": 3393,
      "lucky": 3394,
      "hide": 3395,
      "rescue": 3396,
      "faces": 3397,
      "95": 3398,
      "feelings": 3399,
      "candidates": 3400,
      "juan": 3401,
      "##ell": 3402,
      "goods": 3403,
      "6th": 3404,
      "courses": 3405,
      "weekend": 3406,
      "59": 3407,
      "luke": 3408,
      "cash": 3409,
      "fallen": 3410,
      "##om": 3411,
      "delivered": 3412,
      "affected": 3413,
      "installed": 3414,
      "carefully": 3415,
      "tries": 3416,
      "swiss": 3417,
      "hollywood": 3418,
      "costs": 3419,
      "lincoln": 3420,
      "responsibility": 3421,
      "##he": 3422,
      "shore": 3423,
      "file": 3424,
      "proper": 3425,
      "normally": 3426,
      "maryland": 3427,
      "assistance": 3428,
      "jump": 3429,
      "constant": 3430,
      "offering": 3431,
      "friendly": 3432,
      "waters": 3433,
      "persons": 3434,
      "realize": 3435,
      "contain": 3436,
      "trophy": 3437,
      "800": 3438,
      "partnership": 3439,
      "factor": 3440,
      "58": 3441,
      "musicians": 3442,
      "cry": 3443,
      "bound": 3444,
      "oregon": 3445,
      "indicated": 3446,
      "hero": 3447,
      "houston": 3448,
      "medium": 3449,
      "##ure": 3450,
      "consisting": 3451,
      "somewhat": 3452,
      "##ara": 3453,
      "57": 3454,
      "cycle": 3455,
      "##che": 3456,
      "beer": 3457,
      "moore": 3458,
      "frederick": 3459,
      "gotten": 3460,
      "eleven": 3461,
      "worst": 3462,
      "weak": 3463,
      "approached": 3464,
      "arranged": 3465,
      "chin": 3466,
      "loan": 3467,
      "universal": 3468,
      "bond": 3469,
      "fifteen": 3470,
      "pattern": 3471,
      "disappeared": 3472,
      "##ney": 3473,
      "translated": 3474,
      "##zed": 3475,
      "lip": 3476,
      "arab": 3477,
      "capture": 3478,
      "interests": 3479,
      "insurance": 3480,
      "##chi": 3481,
      "shifted": 3482,
      "cave": 3483,
      "prix": 3484,
      "warning": 3485,
      "sections": 3486,
      "courts": 3487,
      "coat": 3488,
      "plot": 3489,
      "smell": 3490,
      "feed": 3491,
      "golf": 3492,
      "favorite": 3493,
      "maintain": 3494,
      "knife": 3495,
      "vs": 3496,
      "voted": 3497,
      "degrees": 3498,
      "finance": 3499,
      "quebec": 3500,
      "opinion": 3501,
      "translation": 3502,
      "manner": 3503,
      "ruled": 3504,
      "operate": 3505,
      "productions": 3506,
      "choose": 3507,
      "musician": 3508,
      "discovery": 3509,
      "confused": 3510,
      "tired": 3511,
      "separated": 3512,
      "stream": 3513,
      "techniques": 3514,
      "committed": 3515,
      "attend": 3516,
      "ranking": 3517,
      "kings": 3518,
      "throw": 3519,
      "passengers": 3520,
      "measure": 3521,
      "horror": 3522,
      "fan": 3523,
      "mining": 3524,
      "sand": 3525,
      "danger": 3526,
      "salt": 3527,
      "calm": 3528,
      "decade": 3529,
      "dam": 3530,
      "require": 3531,
      "runner": 3532,
      "##ik": 3533,
      "rush": 3534,
      "associate": 3535,
      "greece": 3536,
      "##ker": 3537,
      "rivers": 3538,
      "consecutive": 3539,
      "matthew": 3540,
      "##ski": 3541,
      "sighed": 3542,
      "sq": 3543,
      "documents": 3544,
      "steam": 3545,
      "edited": 3546,
      "closing": 3547,
      "tie": 3548,
      "accused": 3549,
      "1905": 3550,
      "##ini": 3551,
      "islamic": 3552,
      "distributed": 3553,
      "directors": 3554,
      "organisation": 3555,
      "bruce": 3556,
      "7th": 3557,
      "breathing": 3558,
      "mad": 3559,
      "lit": 3560,
      "arrival": 3561,
      "concrete": 3562,
      "taste": 3563,
      "08": 3564,
      "composition": 3565,
      "shaking": 3566,
      "faster": 3567,
      "amateur": 3568,
      "adjacent": 3569,
      "stating": 3570,
      "1906": 3571,
      "twin": 3572,
      "flew": 3573,
      "##ran": 3574,
      "tokyo": 3575,
      "publications": 3576,
      "##tone": 3577,
      "obviously": 3578,
      "ridge": 3579,
      "storage": 3580,
      "1907": 3581,
      "carl": 3582,
      "pages": 3583,
      "concluded": 3584,
      "desert": 3585,
      "driven": 3586,
      "universities": 3587,
      "ages": 3588,
      "terminal": 3589,
      "sequence": 3590,
      "borough": 3591,
      "250": 3592,
      "constituency": 3593,
      "creative": 3594,
      "cousin": 3595,
      "economics": 3596,
      "dreams": 3597,
      "margaret": 3598,
      "notably": 3599,
      "reduce": 3600,
      "montreal": 3601,
      "mode": 3602,
      "17th": 3603,
      "ears": 3604,
      "saved": 3605,
      "jan": 3606,
      "vocal": 3607,
      "##ica": 3608,
      "1909": 3609,
      "andy": 3610,
      "##jo": 3611,
      "riding": 3612,
      "roughly": 3613,
      "threatened": 3614,
      "##ise": 3615,
      "meters": 3616,
      "meanwhile": 3617,
      "landed": 3618,
      "compete": 3619,
      "repeated": 3620,
      "grass": 3621,
      "czech": 3622,
      "regularly": 3623,
      "charges": 3624,
      "tea": 3625,
      "sudden": 3626,
      "appeal": 3627,
      "##ung": 3628,
      "solution": 3629,
      "describes": 3630,
      "pierre": 3631,
      "classification": 3632,
      "glad": 3633,
      "parking": 3634,
      "##ning": 3635,
      "belt": 3636,
      "physics": 3637,
      "99": 3638,
      "rachel": 3639,
      "add": 3640,
      "hungarian": 3641,
      "participate": 3642,
      "expedition": 3643,
      "damaged": 3644,
      "gift": 3645,
      "childhood": 3646,
      "85": 3647,
      "fifty": 3648,
      "##red": 3649,
      "mathematics": 3650,
      "jumped": 3651,
      "letting": 3652,
      "defensive": 3653,
      "mph": 3654,
      "##ux": 3655,
      "##gh": 3656,
      "testing": 3657,
      "##hip": 3658,
      "hundreds": 3659,
      "shoot": 3660,
      "owners": 3661,
      "matters": 3662,
      "smoke": 3663,
      "israeli": 3664,
      "kentucky": 3665,
      "dancing": 3666,
      "mounted": 3667,
      "grandfather": 3668,
      "emma": 3669,
      "designs": 3670,
      "profit": 3671,
      "argentina": 3672,
      "##gs": 3673,
      "truly": 3674,
      "li": 3675,
      "lawrence": 3676,
      "cole": 3677,
      "begun": 3678,
      "detroit": 3679,
      "willing": 3680,
      "branches": 3681,
      "smiling": 3682,
      "decide": 3683,
      "miami": 3684,
      "enjoyed": 3685,
      "recordings": 3686,
      "##dale": 3687,
      "poverty": 3688,
      "ethnic": 3689,
      "gay": 3690,
      "##bi": 3691,
      "gary": 3692,
      "arabic": 3693,
      "09": 3694,
      "accompanied": 3695,
      "##one": 3696,
      "##ons": 3697,
      "fishing": 3698,
      "determine": 3699,
      "residential": 3700,
      "acid": 3701,
      "##ary": 3702,
      "alice": 3703,
      "returns": 3704,
      "starred": 3705,
      "mail": 3706,
      "##ang": 3707,
      "jonathan": 3708,
      "strategy": 3709,
      "##ue": 3710,
      "net": 3711,
      "forty": 3712,
      "cook": 3713,
      "businesses": 3714,
      "equivalent": 3715,
      "commonwealth": 3716,
      "distinct": 3717,
      "ill": 3718,
      "##cy": 3719,
      "seriously": 3720,
      "##ors": 3721,
      "##ped": 3722,
      "shift": 3723,
      "harris": 3724,
      "replace": 3725,
      "rio": 3726,
      "imagine": 3727,
      "formula": 3728,
      "ensure": 3729,
      "##ber": 3730,
      "additionally": 3731,
      "scheme": 3732,
      "conservation": 3733,
      "occasionally": 3734,
      "purposes": 3735,
      "feels": 3736,
      "favor": 3737,
      "##and": 3738,
      "##ore": 3739,
      "1930s": 3740,
      "contrast": 3741,
      "hanging": 3742,
      "hunt": 3743,
      "movies": 3744,
      "1904": 3745,
      "instruments": 3746,
      "victims": 3747,
      "danish": 3748,
      "christopher": 3749,
      "busy": 3750,
      "demon": 3751,
      "sugar": 3752,
      "earliest": 3753,
      "colony": 3754,
      "studying": 3755,
      "balance": 3756,
      "duties": 3757,
      "##ks": 3758,
      "belgium": 3759,
      "slipped": 3760,
      "carter": 3761,
      "05": 3762,
      "visible": 3763,
      "stages": 3764,
      "iraq": 3765,
      "fifa": 3766,
      "##im": 3767,
      "commune": 3768,
      "forming": 3769,
      "zero": 3770,
      "07": 3771,
      "continuing": 3772,
      "talked": 3773,
      "counties": 3774,
      "legend": 3775,
      "bathroom": 3776,
      "option": 3777,
      "tail": 3778,
      "clay": 3779,
      "daughters": 3780,
      "afterwards": 3781,
      "severe": 3782,
      "jaw": 3783,
      "visitors": 3784,
      "##ded": 3785,
      "devices": 3786,
      "aviation": 3787,
      "russell": 3788,
      "kate": 3789,
      "##vi": 3790,
      "entering": 3791,
      "subjects": 3792,
      "##ino": 3793,
      "temporary": 3794,
      "swimming": 3795,
      "forth": 3796,
      "smooth": 3797,
      "ghost": 3798,
      "audio": 3799,
      "bush": 3800,
      "operates": 3801,
      "rocks": 3802,
      "movements": 3803,
      "signs": 3804,
      "eddie": 3805,
      "##tz": 3806,
      "ann": 3807,
      "voices": 3808,
      "honorary": 3809,
      "06": 3810,
      "memories": 3811,
      "dallas": 3812,
      "pure": 3813,
      "measures": 3814,
      "racial": 3815,
      "promised": 3816,
      "66": 3817,
      "harvard": 3818,
      "ceo": 3819,
      "16th": 3820,
      "parliamentary": 3821,
      "indicate": 3822,
      "benefit": 3823,
      "flesh": 3824,
      "dublin": 3825,
      "louisiana": 3826,
      "1902": 3827,
      "1901": 3828,
      "patient": 3829,
      "sleeping": 3830,
      "1903": 3831,
      "membership": 3832,
      "coastal": 3833,
      "medieval": 3834,
      "wanting": 3835,
      "element": 3836,
      "scholars": 3837,
      "rice": 3838,
      "62": 3839,
      "limit": 3840,
      "survive": 3841,
      "makeup": 3842,
      "rating": 3843,
      "definitely": 3844,
      "collaboration": 3845,
      "obvious": 3846,
      "##tan": 3847,
      "boss": 3848,
      "ms": 3849,
      "baron": 3850,
      "birthday": 3851,
      "linked": 3852,
      "soil": 3853,
      "diocese": 3854,
      "##lan": 3855,
      "ncaa": 3856,
      "##mann": 3857,
      "offensive": 3858,
      "shell": 3859,
      "shouldn": 3860,
      "waist": 3861,
      "##tus": 3862,
      "plain": 3863,
      "ross": 3864,
      "organ": 3865,
      "resolution": 3866,
      "manufacturing": 3867,
      "adding": 3868,
      "relative": 3869,
      "kennedy": 3870,
      "98": 3871,
      "whilst": 3872,
      "moth": 3873,
      "marketing": 3874,
      "gardens": 3875,
      "crash": 3876,
      "72": 3877,
      "heading": 3878,
      "partners": 3879,
      "credited": 3880,
      "carlos": 3881,
      "moves": 3882,
      "cable": 3883,
      "##zi": 3884,
      "marshall": 3885,
      "##out": 3886,
      "depending": 3887,
      "bottle": 3888,
      "represents": 3889,
      "rejected": 3890,
      "responded": 3891,
      "existed": 3892,
      "04": 3893,
      "jobs": 3894,
      "denmark": 3895,
      "lock": 3896,
      "##ating": 3897,
      "treated": 3898,
      "graham": 3899,
      "routes": 3900,
      "talent": 3901,
      "commissioner": 3902,
      "drugs": 3903,
      "secure": 3904,
      "tests": 3905,
      "reign": 3906,
      "restored": 3907,
      "photography": 3908,
      "##gi": 3909,
      "contributions": 3910,
      "oklahoma": 3911,
      "designer": 3912,
      "disc": 3913,
      "grin": 3914,
      "seattle": 3915,
      "robin": 3916,
      "paused": 3917,
      "atlanta": 3918,
      "unusual": 3919,
      "##gate": 3920,
      "praised": 3921,
      "las": 3922,
      "laughing": 3923,
      "satellite": 3924,
      "hungary": 3925,
      "visiting": 3926,
      "##sky": 3927,
      "interesting": 3928,
      "factors": 3929,
      "deck": 3930,
      "poems": 3931,
      "norman": 3932,
      "##water": 3933,
      "stuck": 3934,
      "speaker": 3935,
      "rifle": 3936,
      "domain": 3937,
      "premiered": 3938,
      "##her": 3939,
      "dc": 3940,
      "comics": 3941,
      "actors": 3942,
      "01": 3943,
      "reputation": 3944,
      "eliminated": 3945,
      "8th": 3946,
      "ceiling": 3947,
      "prisoners": 3948,
      "script": 3949,
      "##nce": 3950,
      "leather": 3951,
      "austin": 3952,
      "mississippi": 3953,
      "rapidly": 3954,
      "admiral": 3955,
      "parallel": 3956,
      "charlotte": 3957,
      "guilty": 3958,
      "tools": 3959,
      "gender": 3960,
      "divisions": 3961,
      "fruit": 3962,
      "##bs": 3963,
      "laboratory": 3964,
      "nelson": 3965,
      "fantasy": 3966,
      "marry": 3967,
      "rapid": 3968,
      "aunt": 3969,
      "tribe": 3970,
      "requirements": 3971,
      "aspects": 3972,
      "suicide": 3973,
      "amongst": 3974,
      "adams": 3975,
      "bone": 3976,
      "ukraine": 3977,
      "abc": 3978,
      "kick": 3979,
      "sees": 3980,
      "edinburgh": 3981,
      "clothing": 3982,
      "column": 3983,
      "rough": 3984,
      "gods": 3985,
      "hunting": 3986,
      "broadway": 3987,
      "gathered": 3988,
      "concerns": 3989,
      "##ek": 3990,
      "spending": 3991,
      "ty": 3992,
      "12th": 3993,
      "snapped": 3994,
      "requires": 3995,
      "solar": 3996,
      "bones": 3997,
      "cavalry": 3998,
      "##tta": 3999,
      "iowa": 4000,
      "drinking": 4001,
      "waste": 4002,
      "index": 4003,
      "franklin": 4004,
      "charity": 4005,
      "thompson": 4006,
      "stewart": 4007,
      "tip": 4008,
      "flash": 4009,
      "landscape": 4010,
      "friday": 4011,
      "enjoy": 4012,
      "singh": 4013,
      "poem": 4014,
      "listening": 4015,
      "##back": 4016,
      "eighth": 4017,
      "fred": 4018,
      "differences": 4019,
      "adapted": 4020,
      "bomb": 4021,
      "ukrainian": 4022,
      "surgery": 4023,
      "corporate": 4024,
      "masters": 4025,
      "anywhere": 4026,
      "##more": 4027,
      "waves": 4028,
      "odd": 4029,
      "sean": 4030,
      "portugal": 4031,
      "orleans": 4032,
      "dick": 4033,
      "debate": 4034,
      "kent": 4035,
      "eating": 4036,
      "puerto": 4037,
      "cleared": 4038,
      "96": 4039,
      "expect": 4040,
      "cinema": 4041,
      "97": 4042,
      "guitarist": 4043,
      "blocks": 4044,
      "electrical": 4045,
      "agree": 4046,
      "involving": 4047,
      "depth": 4048,
      "dying": 4049,
      "panel": 4050,
      "struggle": 4051,
      "##ged": 4052,
      "peninsula": 4053,
      "adults": 4054,
      "novels": 4055,
      "emerged": 4056,
      "vienna": 4057,
      "metro": 4058,
      "debuted": 4059,
      "shoes": 4060,
      "tamil": 4061,
      "songwriter": 4062,
      "meets": 4063,
      "prove": 4064,
      "beating": 4065,
      "instance": 4066,
      "heaven": 4067,
      "scared": 4068,
      "sending": 4069,
      "marks": 4070,
      "artistic": 4071,
      "passage": 4072,
      "superior": 4073,
      "03": 4074,
      "significantly": 4075,
      "shopping": 4076,
      "##tive": 4077,
      "retained": 4078,
      "##izing": 4079,
      "malaysia": 4080,
      "technique": 4081,
      "cheeks": 4082,
      "##ola": 4083,
      "warren": 4084,
      "maintenance": 4085,
      "destroy": 4086,
      "extreme": 4087,
      "allied": 4088,
      "120": 4089,
      "appearing": 4090,
      "##yn": 4091,
      "fill": 4092,
      "advice": 4093,
      "alabama": 4094,
      "qualifying": 4095,
      "policies": 4096,
      "cleveland": 4097,
      "hat": 4098,
      "battery": 4099,
      "smart": 4100,
      "authors": 4101,
      "10th": 4102,
      "soundtrack": 4103,
      "acted": 4104,
      "dated": 4105,
      "lb": 4106,
      "glance": 4107,
      "equipped": 4108,
      "coalition": 4109,
      "funny": 4110,
      "outer": 4111,
      "ambassador": 4112,
      "roy": 4113,
      "possibility": 4114,
      "couples": 4115,
      "campbell": 4116,
      "dna": 4117,
      "loose": 4118,
      "ethan": 4119,
      "supplies": 4120,
      "1898": 4121,
      "gonna": 4122,
      "88": 4123,
      "monster": 4124,
      "##res": 4125,
      "shake": 4126,
      "agents": 4127,
      "frequency": 4128,
      "springs": 4129,
      "dogs": 4130,
      "practices": 4131,
      "61": 4132,
      "gang": 4133,
      "plastic": 4134,
      "easier": 4135,
      "suggests": 4136,
      "gulf": 4137,
      "blade": 4138,
      "exposed": 4139,
      "colors": 4140,
      "industries": 4141,
      "markets": 4142,
      "pan": 4143,
      "nervous": 4144,
      "electoral": 4145,
      "charts": 4146,
      "legislation": 4147,
      "ownership": 4148,
      "##idae": 4149,
      "mac": 4150,
      "appointment": 4151,
      "shield": 4152,
      "copy": 4153,
      "assault": 4154,
      "socialist": 4155,
      "abbey": 4156,
      "monument": 4157,
      "license": 4158,
      "throne": 4159,
      "employment": 4160,
      "jay": 4161,
      "93": 4162,
      "replacement": 4163,
      "charter": 4164,
      "cloud": 4165,
      "powered": 4166,
      "suffering": 4167,
      "accounts": 4168,
      "oak": 4169,
      "connecticut": 4170,
      "strongly": 4171,
      "wright": 4172,
      "colour": 4173,
      "crystal": 4174,
      "13th": 4175,
      "context": 4176,
      "welsh": 4177,
      "networks": 4178,
      "voiced": 4179,
      "gabriel": 4180,
      "jerry": 4181,
      "##cing": 4182,
      "forehead": 4183,
      "mp": 4184,
      "##ens": 4185,
      "manage": 4186,
      "schedule": 4187,
      "totally": 4188,
      "remix": 4189,
      "##ii": 4190,
      "forests": 4191,
      "occupation": 4192,
      "print": 4193,
      "nicholas": 4194,
      "brazilian": 4195,
      "strategic": 4196,
      "vampires": 4197,
      "engineers": 4198,
      "76": 4199,
      "roots": 4200,
      "seek": 4201,
      "correct": 4202,
      "instrumental": 4203,
      "und": 4204,
      "alfred": 4205,
      "backed": 4206,
      "hop": 4207,
      "##des": 4208,
      "stanley": 4209,
      "robinson": 4210,
      "traveled": 4211,
      "wayne": 4212,
      "welcome": 4213,
      "austrian": 4214,
      "achieve": 4215,
      "67": 4216,
      "exit": 4217,
      "rates": 4218,
      "1899": 4219,
      "strip": 4220,
      "whereas": 4221,
      "##cs": 4222,
      "sing": 4223,
      "deeply": 4224,
      "adventure": 4225,
      "bobby": 4226,
      "rick": 4227,
      "jamie": 4228,
      "careful": 4229,
      "components": 4230,
      "cap": 4231,
      "useful": 4232,
      "personality": 4233,
      "knee": 4234,
      "##shi": 4235,
      "pushing": 4236,
      "hosts": 4237,
      "02": 4238,
      "protest": 4239,
      "ca": 4240,
      "ottoman": 4241,
      "symphony": 4242,
      "##sis": 4243,
      "63": 4244,
      "boundary": 4245,
      "1890": 4246,
      "processes": 4247,
      "considering": 4248,
      "considerable": 4249,
      "tons": 4250,
      "##work": 4251,
      "##ft": 4252,
      "##nia": 4253,
      "cooper": 4254,
      "trading": 4255,
      "dear": 4256,
      "conduct": 4257,
      "91": 4258,
      "illegal": 4259,
      "apple": 4260,
      "revolutionary": 4261,
      "holiday": 4262,
      "definition": 4263,
      "harder": 4264,
      "##van": 4265,
      "jacob": 4266,
      "circumstances": 4267,
      "destruction": 4268,
      "##lle": 4269,
      "popularity": 4270,
      "grip": 4271,
      "classified": 4272,
      "liverpool": 4273,
      "donald": 4274,
      "baltimore": 4275,
      "flows": 4276,
      "seeking": 4277,
      "honour": 4278,
      "approval": 4279,
      "92": 4280,
      "mechanical": 4281,
      "till": 4282,
      "happening": 4283,
      "statue": 4284,
      "critic": 4285,
      "increasingly": 4286,
      "immediate": 4287,
      "describe": 4288,
      "commerce": 4289,
      "stare": 4290,
      "##ster": 4291,
      "indonesia": 4292,
      "meat": 4293,
      "rounds": 4294,
      "boats": 4295,
      "baker": 4296,
      "orthodox": 4297,
      "depression": 4298,
      "formally": 4299,
      "worn": 4300,
      "naked": 4301,
      "claire": 4302,
      "muttered": 4303,
      "sentence": 4304,
      "11th": 4305,
      "emily": 4306,
      "document": 4307,
      "77": 4308,
      "criticism": 4309,
      "wished": 4310,
      "vessel": 4311,
      "spiritual": 4312,
      "bent": 4313,
      "virgin": 4314,
      "parker": 4315,
      "minimum": 4316,
      "murray": 4317,
      "lunch": 4318,
      "danny": 4319,
      "printed": 4320,
      "compilation": 4321,
      "keyboards": 4322,
      "false": 4323,
      "blow": 4324,
      "belonged": 4325,
      "68": 4326,
      "raising": 4327,
      "78": 4328,
      "cutting": 4329,
      "##board": 4330,
      "pittsburgh": 4331,
      "##up": 4332,
      "9th": 4333,
      "shadows": 4334,
      "81": 4335,
      "hated": 4336,
      "indigenous": 4337,
      "jon": 4338,
      "15th": 4339,
      "barry": 4340,
      "scholar": 4341,
      "ah": 4342,
      "##zer": 4343,
      "oliver": 4344,
      "##gy": 4345,
      "stick": 4346,
      "susan": 4347,
      "meetings": 4348,
      "attracted": 4349,
      "spell": 4350,
      "romantic": 4351,
      "##ver": 4352,
      "ye": 4353,
      "1895": 4354,
      "photo": 4355,
      "demanded": 4356,
      "customers": 4357,
      "##ac": 4358,
      "1896": 4359,
      "logan": 4360,
      "revival": 4361,
      "keys": 4362,
      "modified": 4363,
      "commanded": 4364,
      "jeans": 4365,
      "##ious": 4366,
      "upset": 4367,
      "raw": 4368,
      "phil": 4369,
      "detective": 4370,
      "hiding": 4371,
      "resident": 4372,
      "vincent": 4373,
      "##bly": 4374,
      "experiences": 4375,
      "diamond": 4376,
      "defeating": 4377,
      "coverage": 4378,
      "lucas": 4379,
      "external": 4380,
      "parks": 4381,
      "franchise": 4382,
      "helen": 4383,
      "bible": 4384,
      "successor": 4385,
      "percussion": 4386,
      "celebrated": 4387,
      "il": 4388,
      "lift": 4389,
      "profile": 4390,
      "clan": 4391,
      "romania": 4392,
      "##ied": 4393,
      "mills": 4394,
      "##su": 4395,
      "nobody": 4396,
      "achievement": 4397,
      "shrugged": 4398,
      "fault": 4399,
      "1897": 4400,
      "rhythm": 4401,
      "initiative": 4402,
      "breakfast": 4403,
      "carbon": 4404,
      "700": 4405,
      "69": 4406,
      "lasted": 4407,
      "violent": 4408,
      "74": 4409,
      "wound": 4410,
      "ken": 4411,
      "killer": 4412,
      "gradually": 4413,
      "filmed": 4414,
      "dollars": 4415,
      "processing": 4416,
      "94": 4417,
      "remove": 4418,
      "criticized": 4419,
      "guests": 4420,
      "sang": 4421,
      "chemistry": 4422,
      "##vin": 4423,
      "legislature": 4424,
      "disney": 4425,
      "##bridge": 4426,
      "uniform": 4427,
      "escaped": 4428,
      "integrated": 4429,
      "proposal": 4430,
      "purple": 4431,
      "denied": 4432,
      "liquid": 4433,
      "karl": 4434,
      "influential": 4435,
      "morris": 4436,
      "nights": 4437,
      "stones": 4438,
      "intense": 4439,
      "experimental": 4440,
      "twisted": 4441,
      "71": 4442,
      "84": 4443,
      "##ld": 4444,
      "pace": 4445,
      "nazi": 4446,
      "mitchell": 4447,
      "ny": 4448,
      "blind": 4449,
      "reporter": 4450,
      "newspapers": 4451,
      "14th": 4452,
      "centers": 4453,
      "burn": 4454,
      "basin": 4455,
      "forgotten": 4456,
      "surviving": 4457,
      "filed": 4458,
      "collections": 4459,
      "monastery": 4460,
      "losses": 4461,
      "manual": 4462,
      "couch": 4463,
      "description": 4464,
      "appropriate": 4465,
      "merely": 4466,
      "tag": 4467,
      "missions": 4468,
      "sebastian": 4469,
      "restoration": 4470,
      "replacing": 4471,
      "triple": 4472,
      "73": 4473,
      "elder": 4474,
      "julia": 4475,
      "warriors": 4476,
      "benjamin": 4477,
      "julian": 4478,
      "convinced": 4479,
      "stronger": 4480,
      "amazing": 4481,
      "declined": 4482,
      "versus": 4483,
      "merchant": 4484,
      "happens": 4485,
      "output": 4486,
      "finland": 4487,
      "bare": 4488,
      "barbara": 4489,
      "absence": 4490,
      "ignored": 4491,
      "dawn": 4492,
      "injuries": 4493,
      "##port": 4494,
      "producers": 4495,
      "##ram": 4496,
      "82": 4497,
      "luis": 4498,
      "##ities": 4499,
      "kw": 4500,
      "admit": 4501,
      "expensive": 4502,
      "electricity": 4503,
      "nba": 4504,
      "exception": 4505,
      "symbol": 4506,
      "##ving": 4507,
      "ladies": 4508,
      "shower": 4509,
      "sheriff": 4510,
      "characteristics": 4511,
      "##je": 4512,
      "aimed": 4513,
      "button": 4514,
      "ratio": 4515,
      "effectively": 4516,
      "summit": 4517,
      "angle": 4518,
      "jury": 4519,
      "bears": 4520,
      "foster": 4521,
      "vessels": 4522,
      "pants": 4523,
      "executed": 4524,
      "evans": 4525,
      "dozen": 4526,
      "advertising": 4527,
      "kicked": 4528,
      "patrol": 4529,
      "1889": 4530,
      "competitions": 4531,
      "lifetime": 4532,
      "principles": 4533,
      "athletics": 4534,
      "##logy": 4535,
      "birmingham": 4536,
      "sponsored": 4537,
      "89": 4538,
      "rob": 4539,
      "nomination": 4540,
      "1893": 4541,
      "acoustic": 4542,
      "##sm": 4543,
      "creature": 4544,
      "longest": 4545,
      "##tra": 4546,
      "credits": 4547,
      "harbor": 4548,
      "dust": 4549,
      "josh": 4550,
      "##so": 4551,
      "territories": 4552,
      "milk": 4553,
      "infrastructure": 4554,
      "completion": 4555,
      "thailand": 4556,
      "indians": 4557,
      "leon": 4558,
      "archbishop": 4559,
      "##sy": 4560,
      "assist": 4561,
      "pitch": 4562,
      "blake": 4563,
      "arrangement": 4564,
      "girlfriend": 4565,
      "serbian": 4566,
      "operational": 4567,
      "hence": 4568,
      "sad": 4569,
      "scent": 4570,
      "fur": 4571,
      "dj": 4572,
      "sessions": 4573,
      "hp": 4574,
      "refer": 4575,
      "rarely": 4576,
      "##ora": 4577,
      "exists": 4578,
      "1892": 4579,
      "##ten": 4580,
      "scientists": 4581,
      "dirty": 4582,
      "penalty": 4583,
      "burst": 4584,
      "portrait": 4585,
      "seed": 4586,
      "79": 4587,
      "pole": 4588,
      "limits": 4589,
      "rival": 4590,
      "1894": 4591,
      "stable": 4592,
      "alpha": 4593,
      "grave": 4594,
      "constitutional": 4595,
      "alcohol": 4596,
      "arrest": 4597,
      "flower": 4598,
      "mystery": 4599,
      "devil": 4600,
      "architectural": 4601,
      "relationships": 4602,
      "greatly": 4603,
      "habitat": 4604,
      "##istic": 4605,
      "larry": 4606,
      "progressive": 4607,
      "remote": 4608,
      "cotton": 4609,
      "##ics": 4610,
      "##ok": 4611,
      "preserved": 4612,
      "reaches": 4613,
      "##ming": 4614,
      "cited": 4615,
      "86": 4616,
      "vast": 4617,
      "scholarship": 4618,
      "decisions": 4619,
      "cbs": 4620,
      "joy": 4621,
      "teach": 4622,
      "1885": 4623,
      "editions": 4624,
      "knocked": 4625,
      "eve": 4626,
      "searching": 4627,
      "partly": 4628,
      "participation": 4629,
      "gap": 4630,
      "animated": 4631,
      "fate": 4632,
      "excellent": 4633,
      "##ett": 4634,
      "na": 4635,
      "87": 4636,
      "alternate": 4637,
      "saints": 4638,
      "youngest": 4639,
      "##ily": 4640,
      "climbed": 4641,
      "##ita": 4642,
      "##tors": 4643,
      "suggest": 4644,
      "##ct": 4645,
      "discussion": 4646,
      "staying": 4647,
      "choir": 4648,
      "lakes": 4649,
      "jacket": 4650,
      "revenue": 4651,
      "nevertheless": 4652,
      "peaked": 4653,
      "instrument": 4654,
      "wondering": 4655,
      "annually": 4656,
      "managing": 4657,
      "neil": 4658,
      "1891": 4659,
      "signing": 4660,
      "terry": 4661,
      "##ice": 4662,
      "apply": 4663,
      "clinical": 4664,
      "brooklyn": 4665,
      "aim": 4666,
      "catherine": 4667,
      "fuck": 4668,
      "farmers": 4669,
      "figured": 4670,
      "ninth": 4671,
      "pride": 4672,
      "hugh": 4673,
      "evolution": 4674,
      "ordinary": 4675,
      "involvement": 4676,
      "comfortable": 4677,
      "shouted": 4678,
      "tech": 4679,
      "encouraged": 4680,
      "taiwan": 4681,
      "representation": 4682,
      "sharing": 4683,
      "##lia": 4684,
      "##em": 4685,
      "panic": 4686,
      "exact": 4687,
      "cargo": 4688,
      "competing": 4689,
      "fat": 4690,
      "cried": 4691,
      "83": 4692,
      "1920s": 4693,
      "occasions": 4694,
      "pa": 4695,
      "cabin": 4696,
      "borders": 4697,
      "utah": 4698,
      "marcus": 4699,
      "##isation": 4700,
      "badly": 4701,
      "muscles": 4702,
      "##ance": 4703,
      "victorian": 4704,
      "transition": 4705,
      "warner": 4706,
      "bet": 4707,
      "permission": 4708,
      "##rin": 4709,
      "slave": 4710,
      "terrible": 4711,
      "similarly": 4712,
      "shares": 4713,
      "seth": 4714,
      "uefa": 4715,
      "possession": 4716,
      "medals": 4717,
      "benefits": 4718,
      "colleges": 4719,
      "lowered": 4720,
      "perfectly": 4721,
      "mall": 4722,
      "transit": 4723,
      "##ye": 4724,
      "##kar": 4725,
      "publisher": 4726,
      "##ened": 4727,
      "harrison": 4728,
      "deaths": 4729,
      "elevation": 4730,
      "##ae": 4731,
      "asleep": 4732,
      "machines": 4733,
      "sigh": 4734,
      "ash": 4735,
      "hardly": 4736,
      "argument": 4737,
      "occasion": 4738,
      "parent": 4739,
      "leo": 4740,
      "decline": 4741,
      "1888": 4742,
      "contribution": 4743,
      "##ua": 4744,
      "concentration": 4745,
      "1000": 4746,
      "opportunities": 4747,
      "hispanic": 4748,
      "guardian": 4749,
      "extent": 4750,
      "emotions": 4751,
      "hips": 4752,
      "mason": 4753,
      "volumes": 4754,
      "bloody": 4755,
      "controversy": 4756,
      "diameter": 4757,
      "steady": 4758,
      "mistake": 4759,
      "phoenix": 4760,
      "identify": 4761,
      "violin": 4762,
      "##sk": 4763,
      "departure": 4764,
      "richmond": 4765,
      "spin": 4766,
      "funeral": 4767,
      "enemies": 4768,
      "1864": 4769,
      "gear": 4770,
      "literally": 4771,
      "connor": 4772,
      "random": 4773,
      "sergeant": 4774,
      "grab": 4775,
      "confusion": 4776,
      "1865": 4777,
      "transmission": 4778,
      "informed": 4779,
      "op": 4780,
      "leaning": 4781,
      "sacred": 4782,
      "suspended": 4783,
      "thinks": 4784,
      "gates": 4785,
      "portland": 4786,
      "luck": 4787,
      "agencies": 4788,
      "yours": 4789,
      "hull": 4790,
      "expert": 4791,
      "muscle": 4792,
      "layer": 4793,
      "practical": 4794,
      "sculpture": 4795,
      "jerusalem": 4796,
      "latest": 4797,
      "lloyd": 4798,
      "statistics": 4799,
      "deeper": 4800,
      "recommended": 4801,
      "warrior": 4802,
      "arkansas": 4803,
      "mess": 4804,
      "supports": 4805,
      "greg": 4806,
      "eagle": 4807,
      "1880": 4808,
      "recovered": 4809,
      "rated": 4810,
      "concerts": 4811,
      "rushed": 4812,
      "##ano": 4813,
      "stops": 4814,
      "eggs": 4815,
      "files": 4816,
      "premiere": 4817,
      "keith": 4818,
      "##vo": 4819,
      "delhi": 4820,
      "turner": 4821,
      "pit": 4822,
      "affair": 4823,
      "belief": 4824,
      "paint": 4825,
      "##zing": 4826,
      "mate": 4827,
      "##ach": 4828,
      "##ev": 4829,
      "victim": 4830,
      "##ology": 4831,
      "withdrew": 4832,
      "bonus": 4833,
      "styles": 4834,
      "fled": 4835,
      "##ud": 4836,
      "glasgow": 4837,
      "technologies": 4838,
      "funded": 4839,
      "nbc": 4840,
      "adaptation": 4841,
      "##ata": 4842,
      "portrayed": 4843,
      "cooperation": 4844,
      "supporters": 4845,
      "judges": 4846,
      "bernard": 4847,
      "justin": 4848,
      "hallway": 4849,
      "ralph": 4850,
      "##ick": 4851,
      "graduating": 4852,
      "controversial": 4853,
      "distant": 4854,
      "continental": 4855,
      "spider": 4856,
      "bite": 4857,
      "##ho": 4858,
      "recognize": 4859,
      "intention": 4860,
      "mixing": 4861,
      "##ese": 4862,
      "egyptian": 4863,
      "bow": 4864,
      "tourism": 4865,
      "suppose": 4866,
      "claiming": 4867,
      "tiger": 4868,
      "dominated": 4869,
      "participants": 4870,
      "vi": 4871,
      "##ru": 4872,
      "nurse": 4873,
      "partially": 4874,
      "tape": 4875,
      "##rum": 4876,
      "psychology": 4877,
      "##rn": 4878,
      "essential": 4879,
      "touring": 4880,
      "duo": 4881,
      "voting": 4882,
      "civilian": 4883,
      "emotional": 4884,
      "channels": 4885,
      "##king": 4886,
      "apparent": 4887,
      "hebrew": 4888,
      "1887": 4889,
      "tommy": 4890,
      "carrier": 4891,
      "intersection": 4892,
      "beast": 4893,
      "hudson": 4894,
      "##gar": 4895,
      "##zo": 4896,
      "lab": 4897,
      "nova": 4898,
      "bench": 4899,
      "discuss": 4900,
      "costa": 4901,
      "##ered": 4902,
      "detailed": 4903,
      "behalf": 4904,
      "drivers": 4905,
      "unfortunately": 4906,
      "obtain": 4907,
      "##lis": 4908,
      "rocky": 4909,
      "##dae": 4910,
      "siege": 4911,
      "friendship": 4912,
      "honey": 4913,
      "##rian": 4914,
      "1861": 4915,
      "amy": 4916,
      "hang": 4917,
      "posted": 4918,
      "governments": 4919,
      "collins": 4920,
      "respond": 4921,
      "wildlife": 4922,
      "preferred": 4923,
      "operator": 4924,
      "##po": 4925,
      "laura": 4926,
      "pregnant": 4927,
      "videos": 4928,
      "dennis": 4929,
      "suspected": 4930,
      "boots": 4931,
      "instantly": 4932,
      "weird": 4933,
      "automatic": 4934,
      "businessman": 4935,
      "alleged": 4936,
      "placing": 4937,
      "throwing": 4938,
      "ph": 4939,
      "mood": 4940,
      "1862": 4941,
      "perry": 4942,
      "venue": 4943,
      "jet": 4944,
      "remainder": 4945,
      "##lli": 4946,
      "##ci": 4947,
      "passion": 4948,
      "biological": 4949,
      "boyfriend": 4950,
      "1863": 4951,
      "dirt": 4952,
      "buffalo": 4953,
      "ron": 4954,
      "segment": 4955,
      "fa": 4956,
      "abuse": 4957,
      "##era": 4958,
      "genre": 4959,
      "thrown": 4960,
      "stroke": 4961,
      "colored": 4962,
      "stress": 4963,
      "exercise": 4964,
      "displayed": 4965,
      "##gen": 4966,
      "struggled": 4967,
      "##tti": 4968,
      "abroad": 4969,
      "dramatic": 4970,
      "wonderful": 4971,
      "thereafter": 4972,
      "madrid": 4973,
      "component": 4974,
      "widespread": 4975,
      "##sed": 4976,
      "tale": 4977,
      "citizen": 4978,
      "todd": 4979,
      "monday": 4980,
      "1886": 4981,
      "vancouver": 4982,
      "overseas": 4983,
      "forcing": 4984,
      "crying": 4985,
      "descent": 4986,
      "##ris": 4987,
      "discussed": 4988,
      "substantial": 4989,
      "ranks": 4990,
      "regime": 4991,
      "1870": 4992,
      "provinces": 4993,
      "switch": 4994,
      "drum": 4995,
      "zane": 4996,
      "ted": 4997,
      "tribes": 4998,
      "proof": 4999,
      "lp": 5000,
      "cream": 5001,
      "researchers": 5002,
      "volunteer": 5003,
      "manor": 5004,
      "silk": 5005,
      "milan": 5006,
      "donated": 5007,
      "allies": 5008,
      "venture": 5009,
      "principle": 5010,
      "delivery": 5011,
      "enterprise": 5012,
      "##ves": 5013,
      "##ans": 5014,
      "bars": 5015,
      "traditionally": 5016,
      "witch": 5017,
      "reminded": 5018,
      "copper": 5019,
      "##uk": 5020,
      "pete": 5021,
      "inter": 5022,
      "links": 5023,
      "colin": 5024,
      "grinned": 5025,
      "elsewhere": 5026,
      "competitive": 5027,
      "frequent": 5028,
      "##oy": 5029,
      "scream": 5030,
      "##hu": 5031,
      "tension": 5032,
      "texts": 5033,
      "submarine": 5034,
      "finnish": 5035,
      "defending": 5036,
      "defend": 5037,
      "pat": 5038,
      "detail": 5039,
      "1884": 5040,
      "affiliated": 5041,
      "stuart": 5042,
      "themes": 5043,
      "villa": 5044,
      "periods": 5045,
      "tool": 5046,
      "belgian": 5047,
      "ruling": 5048,
      "crimes": 5049,
      "answers": 5050,
      "folded": 5051,
      "licensed": 5052,
      "resort": 5053,
      "demolished": 5054,
      "hans": 5055,
      "lucy": 5056,
      "1881": 5057,
      "lion": 5058,
      "traded": 5059,
      "photographs": 5060,
      "writes": 5061,
      "craig": 5062,
      "##fa": 5063,
      "trials": 5064,
      "generated": 5065,
      "beth": 5066,
      "noble": 5067,
      "debt": 5068,
      "percentage": 5069,
      "yorkshire": 5070,
      "erected": 5071,
      "ss": 5072,
      "viewed": 5073,
      "grades": 5074,
      "confidence": 5075,
      "ceased": 5076,
      "islam": 5077,
      "telephone": 5078,
      "retail": 5079,
      "##ible": 5080,
      "chile": 5081,
      "roberts": 5082,
      "sixteen": 5083,
      "##ich": 5084,
      "commented": 5085,
      "hampshire": 5086,
      "innocent": 5087,
      "dual": 5088,
      "pounds": 5089,
      "checked": 5090,
      "regulations": 5091,
      "afghanistan": 5092,
      "sung": 5093,
      "rico": 5094,
      "liberty": 5095,
      "assets": 5096,
      "bigger": 5097,
      "options": 5098,
      "angels": 5099,
      "relegated": 5100,
      "tribute": 5101,
      "wells": 5102,
      "attending": 5103,
      "leaf": 5104,
      "##yan": 5105,
      "butler": 5106,
      "romanian": 5107,
      "forum": 5108,
      "monthly": 5109,
      "lisa": 5110,
      "patterns": 5111,
      "gmina": 5112,
      "##tory": 5113,
      "madison": 5114,
      "hurricane": 5115,
      "rev": 5116,
      "##ians": 5117,
      "bristol": 5118,
      "##ula": 5119,
      "elite": 5120,
      "valuable": 5121,
      "disaster": 5122,
      "democracy": 5123,
      "awareness": 5124,
      "germans": 5125,
      "freyja": 5126,
      "##ins": 5127,
      "loop": 5128,
      "absolutely": 5129,
      "paying": 5130,
      "populations": 5131,
      "maine": 5132,
      "sole": 5133,
      "prayer": 5134,
      "spencer": 5135,
      "releases": 5136,
      "doorway": 5137,
      "bull": 5138,
      "##ani": 5139,
      "lover": 5140,
      "midnight": 5141,
      "conclusion": 5142,
      "##sson": 5143,
      "thirteen": 5144,
      "lily": 5145,
      "mediterranean": 5146,
      "##lt": 5147,
      "nhl": 5148,
      "proud": 5149,
      "sample": 5150,
      "##hill": 5151,
      "drummer": 5152,
      "guinea": 5153,
      "##ova": 5154,
      "murphy": 5155,
      "climb": 5156,
      "##ston": 5157,
      "instant": 5158,
      "attributed": 5159,
      "horn": 5160,
      "ain": 5161,
      "railways": 5162,
      "steven": 5163,
      "##ao": 5164,
      "autumn": 5165,
      "ferry": 5166,
      "opponent": 5167,
      "root": 5168,
      "traveling": 5169,
      "secured": 5170,
      "corridor": 5171,
      "stretched": 5172,
      "tales": 5173,
      "sheet": 5174,
      "trinity": 5175,
      "cattle": 5176,
      "helps": 5177,
      "indicates": 5178,
      "manhattan": 5179,
      "murdered": 5180,
      "fitted": 5181,
      "1882": 5182,
      "gentle": 5183,
      "grandmother": 5184,
      "mines": 5185,
      "shocked": 5186,
      "vegas": 5187,
      "produces": 5188,
      "##light": 5189,
      "caribbean": 5190,
      "##ou": 5191,
      "belong": 5192,
      "continuous": 5193,
      "desperate": 5194,
      "drunk": 5195,
      "historically": 5196,
      "trio": 5197,
      "waved": 5198,
      "raf": 5199,
      "dealing": 5200,
      "nathan": 5201,
      "bat": 5202,
      "murmured": 5203,
      "interrupted": 5204,
      "residing": 5205,
      "scientist": 5206,
      "pioneer": 5207,
      "harold": 5208,
      "aaron": 5209,
      "##net": 5210,
      "delta": 5211,
      "attempting": 5212,
      "minority": 5213,
      "mini": 5214,
      "believes": 5215,
      "chorus": 5216,
      "tend": 5217,
      "lots": 5218,
      "eyed": 5219,
      "indoor": 5220,
      "load": 5221,
      "shots": 5222,
      "updated": 5223,
      "jail": 5224,
      "##llo": 5225,
      "concerning": 5226,
      "connecting": 5227,
      "wealth": 5228,
      "##ved": 5229,
      "slaves": 5230,
      "arrive": 5231,
      "rangers": 5232,
      "sufficient": 5233,
      "rebuilt": 5234,
      "##wick": 5235,
      "cardinal": 5236,
      "flood": 5237,
      "muhammad": 5238,
      "whenever": 5239,
      "relation": 5240,
      "runners": 5241,
      "moral": 5242,
      "repair": 5243,
      "viewers": 5244,
      "arriving": 5245,
      "revenge": 5246,
      "punk": 5247,
      "assisted": 5248,
      "bath": 5249,
      "fairly": 5250,
      "breathe": 5251,
      "lists": 5252,
      "innings": 5253,
      "illustrated": 5254,
      "whisper": 5255,
      "nearest": 5256,
      "voters": 5257,
      "clinton": 5258,
      "ties": 5259,
      "ultimate": 5260,
      "screamed": 5261,
      "beijing": 5262,
      "lions": 5263,
      "andre": 5264,
      "fictional": 5265,
      "gathering": 5266,
      "comfort": 5267,
      "radar": 5268,
      "suitable": 5269,
      "dismissed": 5270,
      "hms": 5271,
      "ban": 5272,
      "pine": 5273,
      "wrist": 5274,
      "atmosphere": 5275,
      "voivodeship": 5276,
      "bid": 5277,
      "timber": 5278,
      "##ned": 5279,
      "##nan": 5280,
      "giants": 5281,
      "##ane": 5282,
      "cameron": 5283,
      "recovery": 5284,
      "uss": 5285,
      "identical": 5286,
      "categories": 5287,
      "switched": 5288,
      "serbia": 5289,
      "laughter": 5290,
      "noah": 5291,
      "ensemble": 5292,
      "therapy": 5293,
      "peoples": 5294,
      "touching": 5295,
      "##off": 5296,
      "locally": 5297,
      "pearl": 5298,
      "platforms": 5299,
      "everywhere": 5300,
      "ballet": 5301,
      "tables": 5302,
      "lanka": 5303,
      "herbert": 5304,
      "outdoor": 5305,
      "toured": 5306,
      "derek": 5307,
      "1883": 5308,
      "spaces": 5309,
      "contested": 5310,
      "swept": 5311,
      "1878": 5312,
      "exclusive": 5313,
      "slight": 5314,
      "connections": 5315,
      "##dra": 5316,
      "winds": 5317,
      "prisoner": 5318,
      "collective": 5319,
      "bangladesh": 5320,
      "tube": 5321,
      "publicly": 5322,
      "wealthy": 5323,
      "thai": 5324,
      "##ys": 5325,
      "isolated": 5326,
      "select": 5327,
      "##ric": 5328,
      "insisted": 5329,
      "pen": 5330,
      "fortune": 5331,
      "ticket": 5332,
      "spotted": 5333,
      "reportedly": 5334,
      "animation": 5335,
      "enforcement": 5336,
      "tanks": 5337,
      "110": 5338,
      "decides": 5339,
      "wider": 5340,
      "lowest": 5341,
      "owen": 5342,
      "##time": 5343,
      "nod": 5344,
      "hitting": 5345,
      "##hn": 5346,
      "gregory": 5347,
      "furthermore": 5348,
      "magazines": 5349,
      "fighters": 5350,
      "solutions": 5351,
      "##ery": 5352,
      "pointing": 5353,
      "requested": 5354,
      "peru": 5355,
      "reed": 5356,
      "chancellor": 5357,
      "knights": 5358,
      "mask": 5359,
      "worker": 5360,
      "eldest": 5361,
      "flames": 5362,
      "reduction": 5363,
      "1860": 5364,
      "volunteers": 5365,
      "##tis": 5366,
      "reporting": 5367,
      "##hl": 5368,
      "wire": 5369,
      "advisory": 5370,
      "endemic": 5371,
      "origins": 5372,
      "settlers": 5373,
      "pursue": 5374,
      "knock": 5375,
      "consumer": 5376,
      "1876": 5377,
      "eu": 5378,
      "compound": 5379,
      "creatures": 5380,
      "mansion": 5381,
      "sentenced": 5382,
      "ivan": 5383,
      "deployed": 5384,
      "guitars": 5385,
      "frowned": 5386,
      "involves": 5387,
      "mechanism": 5388,
      "kilometers": 5389,
      "perspective": 5390,
      "shops": 5391,
      "maps": 5392,
      "terminus": 5393,
      "duncan": 5394,
      "alien": 5395,
      "fist": 5396,
      "bridges": 5397,
      "##pers": 5398,
      "heroes": 5399,
      "fed": 5400,
      "derby": 5401,
      "swallowed": 5402,
      "##ros": 5403,
      "patent": 5404,
      "sara": 5405,
      "illness": 5406,
      "characterized": 5407,
      "adventures": 5408,
      "slide": 5409,
      "hawaii": 5410,
      "jurisdiction": 5411,
      "##op": 5412,
      "organised": 5413,
      "##side": 5414,
      "adelaide": 5415,
      "walks": 5416,
      "biology": 5417,
      "se": 5418,
      "##ties": 5419,
      "rogers": 5420,
      "swing": 5421,
      "tightly": 5422,
      "boundaries": 5423,
      "##rie": 5424,
      "prepare": 5425,
      "implementation": 5426,
      "stolen": 5427,
      "##sha": 5428,
      "certified": 5429,
      "colombia": 5430,
      "edwards": 5431,
      "garage": 5432,
      "##mm": 5433,
      "recalled": 5434,
      "##ball": 5435,
      "rage": 5436,
      "harm": 5437,
      "nigeria": 5438,
      "breast": 5439,
      "##ren": 5440,
      "furniture": 5441,
      "pupils": 5442,
      "settle": 5443,
      "##lus": 5444,
      "cuba": 5445,
      "balls": 5446,
      "client": 5447,
      "alaska": 5448,
      "21st": 5449,
      "linear": 5450,
      "thrust": 5451,
      "celebration": 5452,
      "latino": 5453,
      "genetic": 5454,
      "terror": 5455,
      "##cia": 5456,
      "##ening": 5457,
      "lightning": 5458,
      "fee": 5459,
      "witness": 5460,
      "lodge": 5461,
      "establishing": 5462,
      "skull": 5463,
      "##ique": 5464,
      "earning": 5465,
      "hood": 5466,
      "##ei": 5467,
      "rebellion": 5468,
      "wang": 5469,
      "sporting": 5470,
      "warned": 5471,
      "missile": 5472,
      "devoted": 5473,
      "activist": 5474,
      "porch": 5475,
      "worship": 5476,
      "fourteen": 5477,
      "package": 5478,
      "1871": 5479,
      "decorated": 5480,
      "##shire": 5481,
      "housed": 5482,
      "##ock": 5483,
      "chess": 5484,
      "sailed": 5485,
      "doctors": 5486,
      "oscar": 5487,
      "joan": 5488,
      "treat": 5489,
      "garcia": 5490,
      "harbour": 5491,
      "jeremy": 5492,
      "##ire": 5493,
      "traditions": 5494,
      "dominant": 5495,
      "jacques": 5496,
      "##gon": 5497,
      "##wan": 5498,
      "relocated": 5499,
      "1879": 5500,
      "amendment": 5501,
      "sized": 5502,
      "companion": 5503,
      "simultaneously": 5504,
      "volleyball": 5505,
      "spun": 5506,
      "acre": 5507,
      "increases": 5508,
      "stopping": 5509,
      "loves": 5510,
      "belongs": 5511,
      "affect": 5512,
      "drafted": 5513,
      "tossed": 5514,
      "scout": 5515,
      "battles": 5516,
      "1875": 5517,
      "filming": 5518,
      "shoved": 5519,
      "munich": 5520,
      "tenure": 5521,
      "vertical": 5522,
      "romance": 5523,
      "pc": 5524,
      "##cher": 5525,
      "argue": 5526,
      "##ical": 5527,
      "craft": 5528,
      "ranging": 5529,
      "www": 5530,
      "opens": 5531,
      "honest": 5532,
      "tyler": 5533,
      "yesterday": 5534,
      "virtual": 5535,
      "##let": 5536,
      "muslims": 5537,
      "reveal": 5538,
      "snake": 5539,
      "immigrants": 5540,
      "radical": 5541,
      "screaming": 5542,
      "speakers": 5543,
      "firing": 5544,
      "saving": 5545,
      "belonging": 5546,
      "ease": 5547,
      "lighting": 5548,
      "prefecture": 5549,
      "blame": 5550,
      "farmer": 5551,
      "hungry": 5552,
      "grows": 5553,
      "rubbed": 5554,
      "beam": 5555,
      "sur": 5556,
      "subsidiary": 5557,
      "##cha": 5558,
      "armenian": 5559,
      "sao": 5560,
      "dropping": 5561,
      "conventional": 5562,
      "##fer": 5563,
      "microsoft": 5564,
      "reply": 5565,
      "qualify": 5566,
      "spots": 5567,
      "1867": 5568,
      "sweat": 5569,
      "festivals": 5570,
      "##ken": 5571,
      "immigration": 5572,
      "physician": 5573,
      "discover": 5574,
      "exposure": 5575,
      "sandy": 5576,
      "explanation": 5577,
      "isaac": 5578,
      "implemented": 5579,
      "##fish": 5580,
      "hart": 5581,
      "initiated": 5582,
      "connect": 5583,
      "stakes": 5584,
      "presents": 5585,
      "heights": 5586,
      "householder": 5587,
      "pleased": 5588,
      "tourist": 5589,
      "regardless": 5590,
      "slip": 5591,
      "closest": 5592,
      "##ction": 5593,
      "surely": 5594,
      "sultan": 5595,
      "brings": 5596,
      "riley": 5597,
      "preparation": 5598,
      "aboard": 5599,
      "slammed": 5600,
      "baptist": 5601,
      "experiment": 5602,
      "ongoing": 5603,
      "interstate": 5604,
      "organic": 5605,
      "playoffs": 5606,
      "##ika": 5607,
      "1877": 5608,
      "130": 5609,
      "##tar": 5610,
      "hindu": 5611,
      "error": 5612,
      "tours": 5613,
      "tier": 5614,
      "plenty": 5615,
      "arrangements": 5616,
      "talks": 5617,
      "trapped": 5618,
      "excited": 5619,
      "sank": 5620,
      "ho": 5621,
      "athens": 5622,
      "1872": 5623,
      "denver": 5624,
      "welfare": 5625,
      "suburb": 5626,
      "athletes": 5627,
      "trick": 5628,
      "diverse": 5629,
      "belly": 5630,
      "exclusively": 5631,
      "yelled": 5632,
      "1868": 5633,
      "##med": 5634,
      "conversion": 5635,
      "##ette": 5636,
      "1874": 5637,
      "internationally": 5638,
      "computers": 5639,
      "conductor": 5640,
      "abilities": 5641,
      "sensitive": 5642,
      "hello": 5643,
      "dispute": 5644,
      "measured": 5645,
      "globe": 5646,
      "rocket": 5647,
      "prices": 5648,
      "amsterdam": 5649,
      "flights": 5650,
      "tigers": 5651,
      "inn": 5652,
      "municipalities": 5653,
      "emotion": 5654,
      "references": 5655,
      "3d": 5656,
      "##mus": 5657,
      "explains": 5658,
      "airlines": 5659,
      "manufactured": 5660,
      "pm": 5661,
      "archaeological": 5662,
      "1873": 5663,
      "interpretation": 5664,
      "devon": 5665,
      "comment": 5666,
      "##ites": 5667,
      "settlements": 5668,
      "kissing": 5669,
      "absolute": 5670,
      "improvement": 5671,
      "suite": 5672,
      "impressed": 5673,
      "barcelona": 5674,
      "sullivan": 5675,
      "jefferson": 5676,
      "towers": 5677,
      "jesse": 5678,
      "julie": 5679,
      "##tin": 5680,
      "##lu": 5681,
      "grandson": 5682,
      "hi": 5683,
      "gauge": 5684,
      "regard": 5685,
      "rings": 5686,
      "interviews": 5687,
      "trace": 5688,
      "raymond": 5689,
      "thumb": 5690,
      "departments": 5691,
      "burns": 5692,
      "serial": 5693,
      "bulgarian": 5694,
      "scores": 5695,
      "demonstrated": 5696,
      "##ix": 5697,
      "1866": 5698,
      "kyle": 5699,
      "alberta": 5700,
      "underneath": 5701,
      "romanized": 5702,
      "##ward": 5703,
      "relieved": 5704,
      "acquisition": 5705,
      "phrase": 5706,
      "cliff": 5707,
      "reveals": 5708,
      "han": 5709,
      "cuts": 5710,
      "merger": 5711,
      "custom": 5712,
      "##dar": 5713,
      "nee": 5714,
      "gilbert": 5715,
      "graduation": 5716,
      "##nts": 5717,
      "assessment": 5718,
      "cafe": 5719,
      "difficulty": 5720,
      "demands": 5721,
      "swung": 5722,
      "democrat": 5723,
      "jennifer": 5724,
      "commons": 5725,
      "1940s": 5726,
      "grove": 5727,
      "##yo": 5728,
      "completing": 5729,
      "focuses": 5730,
      "sum": 5731,
      "substitute": 5732,
      "bearing": 5733,
      "stretch": 5734,
      "reception": 5735,
      "##py": 5736,
      "reflected": 5737,
      "essentially": 5738,
      "destination": 5739,
      "pairs": 5740,
      "##ched": 5741,
      "survival": 5742,
      "resource": 5743,
      "##bach": 5744,
      "promoting": 5745,
      "doubles": 5746,
      "messages": 5747,
      "tear": 5748,
      "##down": 5749,
      "##fully": 5750,
      "parade": 5751,
      "florence": 5752,
      "harvey": 5753,
      "incumbent": 5754,
      "partial": 5755,
      "framework": 5756,
      "900": 5757,
      "pedro": 5758,
      "frozen": 5759,
      "procedure": 5760,
      "olivia": 5761,
      "controls": 5762,
      "##mic": 5763,
      "shelter": 5764,
      "personally": 5765,
      "temperatures": 5766,
      "##od": 5767,
      "brisbane": 5768,
      "tested": 5769,
      "sits": 5770,
      "marble": 5771,
      "comprehensive": 5772,
      "oxygen": 5773,
      "leonard": 5774,
      "##kov": 5775,
      "inaugural": 5776,
      "iranian": 5777,
      "referring": 5778,
      "quarters": 5779,
      "attitude": 5780,
      "##ivity": 5781,
      "mainstream": 5782,
      "lined": 5783,
      "mars": 5784,
      "dakota": 5785,
      "norfolk": 5786,
      "unsuccessful": 5787,
      "explosion": 5788,
      "helicopter": 5789,
      "congressional": 5790,
      "##sing": 5791,
      "inspector": 5792,
      "bitch": 5793,
      "seal": 5794,
      "departed": 5795,
      "divine": 5796,
      "##ters": 5797,
      "coaching": 5798,
      "examination": 5799,
      "punishment": 5800,
      "manufacturer": 5801,
      "sink": 5802,
      "columns": 5803,
      "unincorporated": 5804,
      "signals": 5805,
      "nevada": 5806,
      "squeezed": 5807,
      "dylan": 5808,
      "dining": 5809,
      "photos": 5810,
      "martial": 5811,
      "manuel": 5812,
      "eighteen": 5813,
      "elevator": 5814,
      "brushed": 5815,
      "plates": 5816,
      "ministers": 5817,
      "ivy": 5818,
      "congregation": 5819,
      "##len": 5820,
      "slept": 5821,
      "specialized": 5822,
      "taxes": 5823,
      "curve": 5824,
      "restricted": 5825,
      "negotiations": 5826,
      "likes": 5827,
      "statistical": 5828,
      "arnold": 5829,
      "inspiration": 5830,
      "execution": 5831,
      "bold": 5832,
      "intermediate": 5833,
      "significance": 5834,
      "margin": 5835,
      "ruler": 5836,
      "wheels": 5837,
      "gothic": 5838,
      "intellectual": 5839,
      "dependent": 5840,
      "listened": 5841,
      "eligible": 5842,
      "buses": 5843,
      "widow": 5844,
      "syria": 5845,
      "earn": 5846,
      "cincinnati": 5847,
      "collapsed": 5848,
      "recipient": 5849,
      "secrets": 5850,
      "accessible": 5851,
      "philippine": 5852,
      "maritime": 5853,
      "goddess": 5854,
      "clerk": 5855,
      "surrender": 5856,
      "breaks": 5857,
      "playoff": 5858,
      "database": 5859,
      "##ified": 5860,
      "##lon": 5861,
      "ideal": 5862,
      "beetle": 5863,
      "aspect": 5864,
      "soap": 5865,
      "regulation": 5866,
      "strings": 5867,
      "expand": 5868,
      "anglo": 5869,
      "shorter": 5870,
      "crosses": 5871,
      "retreat": 5872,
      "tough": 5873,
      "coins": 5874,
      "wallace": 5875,
      "directions": 5876,
      "pressing": 5877,
      "##oon": 5878,
      "shipping": 5879,
      "locomotives": 5880,
      "comparison": 5881,
      "topics": 5882,
      "nephew": 5883,
      "##mes": 5884,
      "distinction": 5885,
      "honors": 5886,
      "travelled": 5887,
      "sierra": 5888,
      "ibn": 5889,
      "##over": 5890,
      "fortress": 5891,
      "sa": 5892,
      "recognised": 5893,
      "carved": 5894,
      "1869": 5895,
      "clients": 5896,
      "##dan": 5897,
      "intent": 5898,
      "##mar": 5899,
      "coaches": 5900,
      "describing": 5901,
      "bread": 5902,
      "##ington": 5903,
      "beaten": 5904,
      "northwestern": 5905,
      "##ona": 5906,
      "merit": 5907,
      "youtube": 5908,
      "collapse": 5909,
      "challenges": 5910,
      "em": 5911,
      "historians": 5912,
      "objective": 5913,
      "submitted": 5914,
      "virus": 5915,
      "attacking": 5916,
      "drake": 5917,
      "assume": 5918,
      "##ere": 5919,
      "diseases": 5920,
      "marc": 5921,
      "stem": 5922,
      "leeds": 5923,
      "##cus": 5924,
      "##ab": 5925,
      "farming": 5926,
      "glasses": 5927,
      "##lock": 5928,
      "visits": 5929,
      "nowhere": 5930,
      "fellowship": 5931,
      "relevant": 5932,
      "carries": 5933,
      "restaurants": 5934,
      "experiments": 5935,
      "101": 5936,
      "constantly": 5937,
      "bases": 5938,
      "targets": 5939,
      "shah": 5940,
      "tenth": 5941,
      "opponents": 5942,
      "verse": 5943,
      "territorial": 5944,
      "##ira": 5945,
      "writings": 5946,
      "corruption": 5947,
      "##hs": 5948,
      "instruction": 5949,
      "inherited": 5950,
      "reverse": 5951,
      "emphasis": 5952,
      "##vic": 5953,
      "employee": 5954,
      "arch": 5955,
      "keeps": 5956,
      "rabbi": 5957,
      "watson": 5958,
      "payment": 5959,
      "uh": 5960,
      "##ala": 5961,
      "nancy": 5962,
      "##tre": 5963,
      "venice": 5964,
      "fastest": 5965,
      "sexy": 5966,
      "banned": 5967,
      "adrian": 5968,
      "properly": 5969,
      "ruth": 5970,
      "touchdown": 5971,
      "dollar": 5972,
      "boards": 5973,
      "metre": 5974,
      "circles": 5975,
      "edges": 5976,
      "favour": 5977,
      "comments": 5978,
      "ok": 5979,
      "travels": 5980,
      "liberation": 5981,
      "scattered": 5982,
      "firmly": 5983,
      "##ular": 5984,
      "holland": 5985,
      "permitted": 5986,
      "diesel": 5987,
      "kenya": 5988,
      "den": 5989,
      "originated": 5990,
      "##ral": 5991,
      "demons": 5992,
      "resumed": 5993,
      "dragged": 5994,
      "rider": 5995,
      "##rus": 5996,
      "servant": 5997,
      "blinked": 5998,
      "extend": 5999,
      "torn": 6000,
      "##ias": 6001,
      "##sey": 6002,
      "input": 6003,
      "meal": 6004,
      "everybody": 6005,
      "cylinder": 6006,
      "kinds": 6007,
      "camps": 6008,
      "##fe": 6009,
      "bullet": 6010,
      "logic": 6011,
      "##wn": 6012,
      "croatian": 6013,
      "evolved": 6014,
      "healthy": 6015,
      "fool": 6016,
      "chocolate": 6017,
      "wise": 6018,
      "preserve": 6019,
      "pradesh": 6020,
      "##ess": 6021,
      "respective": 6022,
      "1850": 6023,
      "##ew": 6024,
      "chicken": 6025,
      "artificial": 6026,
      "gross": 6027,
      "corresponding": 6028,
      "convicted": 6029,
      "cage": 6030,
      "caroline": 6031,
      "dialogue": 6032,
      "##dor": 6033,
      "narrative": 6034,
      "stranger": 6035,
      "mario": 6036,
      "br": 6037,
      "christianity": 6038,
      "failing": 6039,
      "trent": 6040,
      "commanding": 6041,
      "buddhist": 6042,
      "1848": 6043,
      "maurice": 6044,
      "focusing": 6045,
      "yale": 6046,
      "bike": 6047,
      "altitude": 6048,
      "##ering": 6049,
      "mouse": 6050,
      "revised": 6051,
      "##sley": 6052,
      "veteran": 6053,
      "##ig": 6054,
      "pulls": 6055,
      "theology": 6056,
      "crashed": 6057,
      "campaigns": 6058,
      "legion": 6059,
      "##ability": 6060,
      "drag": 6061,
      "excellence": 6062,
      "customer": 6063,
      "cancelled": 6064,
      "intensity": 6065,
      "excuse": 6066,
      "##lar": 6067,
      "liga": 6068,
      "participating": 6069,
      "contributing": 6070,
      "printing": 6071,
      "##burn": 6072,
      "variable": 6073,
      "##rk": 6074,
      "curious": 6075,
      "bin": 6076,
      "legacy": 6077,
      "renaissance": 6078,
      "##my": 6079,
      "symptoms": 6080,
      "binding": 6081,
      "vocalist": 6082,
      "dancer": 6083,
      "##nie": 6084,
      "grammar": 6085,
      "gospel": 6086,
      "democrats": 6087,
      "ya": 6088,
      "enters": 6089,
      "sc": 6090,
      "diplomatic": 6091,
      "hitler": 6092,
      "##ser": 6093,
      "clouds": 6094,
      "mathematical": 6095,
      "quit": 6096,
      "defended": 6097,
      "oriented": 6098,
      "##heim": 6099,
      "fundamental": 6100,
      "hardware": 6101,
      "impressive": 6102,
      "equally": 6103,
      "convince": 6104,
      "confederate": 6105,
      "guilt": 6106,
      "chuck": 6107,
      "sliding": 6108,
      "##ware": 6109,
      "magnetic": 6110,
      "narrowed": 6111,
      "petersburg": 6112,
      "bulgaria": 6113,
      "otto": 6114,
      "phd": 6115,
      "skill": 6116,
      "##ama": 6117,
      "reader": 6118,
      "hopes": 6119,
      "pitcher": 6120,
      "reservoir": 6121,
      "hearts": 6122,
      "automatically": 6123,
      "expecting": 6124,
      "mysterious": 6125,
      "bennett": 6126,
      "extensively": 6127,
      "imagined": 6128,
      "seeds": 6129,
      "monitor": 6130,
      "fix": 6131,
      "##ative": 6132,
      "journalism": 6133,
      "struggling": 6134,
      "signature": 6135,
      "ranch": 6136,
      "encounter": 6137,
      "photographer": 6138,
      "observation": 6139,
      "protests": 6140,
      "##pin": 6141,
      "influences": 6142,
      "##hr": 6143,
      "calendar": 6144,
      "##all": 6145,
      "cruz": 6146,
      "croatia": 6147,
      "locomotive": 6148,
      "hughes": 6149,
      "naturally": 6150,
      "shakespeare": 6151,
      "basement": 6152,
      "hook": 6153,
      "uncredited": 6154,
      "faded": 6155,
      "theories": 6156,
      "approaches": 6157,
      "dare": 6158,
      "phillips": 6159,
      "filling": 6160,
      "fury": 6161,
      "obama": 6162,
      "##ain": 6163,
      "efficient": 6164,
      "arc": 6165,
      "deliver": 6166,
      "min": 6167,
      "raid": 6168,
      "breeding": 6169,
      "inducted": 6170,
      "leagues": 6171,
      "efficiency": 6172,
      "axis": 6173,
      "montana": 6174,
      "eagles": 6175,
      "##ked": 6176,
      "supplied": 6177,
      "instructions": 6178,
      "karen": 6179,
      "picking": 6180,
      "indicating": 6181,
      "trap": 6182,
      "anchor": 6183,
      "practically": 6184,
      "christians": 6185,
      "tomb": 6186,
      "vary": 6187,
      "occasional": 6188,
      "electronics": 6189,
      "lords": 6190,
      "readers": 6191,
      "newcastle": 6192,
      "faint": 6193,
      "innovation": 6194,
      "collect": 6195,
      "situations": 6196,
      "engagement": 6197,
      "160": 6198,
      "claude": 6199,
      "mixture": 6200,
      "##feld": 6201,
      "peer": 6202,
      "tissue": 6203,
      "logo": 6204,
      "lean": 6205,
      "##ration": 6206,
      "floors": 6207,
      "##ven": 6208,
      "architects": 6209,
      "reducing": 6210,
      "##our": 6211,
      "##ments": 6212,
      "rope": 6213,
      "1859": 6214,
      "ottawa": 6215,
      "##har": 6216,
      "samples": 6217,
      "banking": 6218,
      "declaration": 6219,
      "proteins": 6220,
      "resignation": 6221,
      "francois": 6222,
      "saudi": 6223,
      "advocate": 6224,
      "exhibited": 6225,
      "armor": 6226,
      "twins": 6227,
      "divorce": 6228,
      "##ras": 6229,
      "abraham": 6230,
      "reviewed": 6231,
      "jo": 6232,
      "temporarily": 6233,
      "matrix": 6234,
      "physically": 6235,
      "pulse": 6236,
      "curled": 6237,
      "##ena": 6238,
      "difficulties": 6239,
      "bengal": 6240,
      "usage": 6241,
      "##ban": 6242,
      "annie": 6243,
      "riders": 6244,
      "certificate": 6245,
      "##pi": 6246,
      "holes": 6247,
      "warsaw": 6248,
      "distinctive": 6249,
      "jessica": 6250,
      "##mon": 6251,
      "mutual": 6252,
      "1857": 6253,
      "customs": 6254,
      "circular": 6255,
      "eugene": 6256,
      "removal": 6257,
      "loaded": 6258,
      "mere": 6259,
      "vulnerable": 6260,
      "depicted": 6261,
      "generations": 6262,
      "dame": 6263,
      "heir": 6264,
      "enormous": 6265,
      "lightly": 6266,
      "climbing": 6267,
      "pitched": 6268,
      "lessons": 6269,
      "pilots": 6270,
      "nepal": 6271,
      "ram": 6272,
      "google": 6273,
      "preparing": 6274,
      "brad": 6275,
      "louise": 6276,
      "renowned": 6277,
      "liam": 6278,
      "##ably": 6279,
      "plaza": 6280,
      "shaw": 6281,
      "sophie": 6282,
      "brilliant": 6283,
      "bills": 6284,
      "##bar": 6285,
      "##nik": 6286,
      "fucking": 6287,
      "mainland": 6288,
      "server": 6289,
      "pleasant": 6290,
      "seized": 6291,
      "veterans": 6292,
      "jerked": 6293,
      "fail": 6294,
      "beta": 6295,
      "brush": 6296,
      "radiation": 6297,
      "stored": 6298,
      "warmth": 6299,
      "southeastern": 6300,
      "nate": 6301,
      "sin": 6302,
      "raced": 6303,
      "berkeley": 6304,
      "joke": 6305,
      "athlete": 6306,
      "designation": 6307,
      "trunk": 6308,
      "##low": 6309,
      "roland": 6310,
      "qualification": 6311,
      "archives": 6312,
      "heels": 6313,
      "artwork": 6314,
      "receives": 6315,
      "judicial": 6316,
      "reserves": 6317,
      "##bed": 6318,
      "woke": 6319,
      "installation": 6320,
      "abu": 6321,
      "floating": 6322,
      "fake": 6323,
      "lesser": 6324,
      "excitement": 6325,
      "interface": 6326,
      "concentrated": 6327,
      "addressed": 6328,
      "characteristic": 6329,
      "amanda": 6330,
      "saxophone": 6331,
      "monk": 6332,
      "auto": 6333,
      "##bus": 6334,
      "releasing": 6335,
      "egg": 6336,
      "dies": 6337,
      "interaction": 6338,
      "defender": 6339,
      "ce": 6340,
      "outbreak": 6341,
      "glory": 6342,
      "loving": 6343,
      "##bert": 6344,
      "sequel": 6345,
      "consciousness": 6346,
      "http": 6347,
      "awake": 6348,
      "ski": 6349,
      "enrolled": 6350,
      "##ress": 6351,
      "handling": 6352,
      "rookie": 6353,
      "brow": 6354,
      "somebody": 6355,
      "biography": 6356,
      "warfare": 6357,
      "amounts": 6358,
      "contracts": 6359,
      "presentation": 6360,
      "fabric": 6361,
      "dissolved": 6362,
      "challenged": 6363,
      "meter": 6364,
      "psychological": 6365,
      "lt": 6366,
      "elevated": 6367,
      "rally": 6368,
      "accurate": 6369,
      "##tha": 6370,
      "hospitals": 6371,
      "undergraduate": 6372,
      "specialist": 6373,
      "venezuela": 6374,
      "exhibit": 6375,
      "shed": 6376,
      "nursing": 6377,
      "protestant": 6378,
      "fluid": 6379,
      "structural": 6380,
      "footage": 6381,
      "jared": 6382,
      "consistent": 6383,
      "prey": 6384,
      "##ska": 6385,
      "succession": 6386,
      "reflect": 6387,
      "exile": 6388,
      "lebanon": 6389,
      "wiped": 6390,
      "suspect": 6391,
      "shanghai": 6392,
      "resting": 6393,
      "integration": 6394,
      "preservation": 6395,
      "marvel": 6396,
      "variant": 6397,
      "pirates": 6398,
      "sheep": 6399,
      "rounded": 6400,
      "capita": 6401,
      "sailing": 6402,
      "colonies": 6403,
      "manuscript": 6404,
      "deemed": 6405,
      "variations": 6406,
      "clarke": 6407,
      "functional": 6408,
      "emerging": 6409,
      "boxing": 6410,
      "relaxed": 6411,
      "curse": 6412,
      "azerbaijan": 6413,
      "heavyweight": 6414,
      "nickname": 6415,
      "editorial": 6416,
      "rang": 6417,
      "grid": 6418,
      "tightened": 6419,
      "earthquake": 6420,
      "flashed": 6421,
      "miguel": 6422,
      "rushing": 6423,
      "##ches": 6424,
      "improvements": 6425,
      "boxes": 6426,
      "brooks": 6427,
      "180": 6428,
      "consumption": 6429,
      "molecular": 6430,
      "felix": 6431,
      "societies": 6432,
      "repeatedly": 6433,
      "variation": 6434,
      "aids": 6435,
      "civic": 6436,
      "graphics": 6437,
      "professionals": 6438,
      "realm": 6439,
      "autonomous": 6440,
      "receiver": 6441,
      "delayed": 6442,
      "workshop": 6443,
      "militia": 6444,
      "chairs": 6445,
      "trump": 6446,
      "canyon": 6447,
      "##point": 6448,
      "harsh": 6449,
      "extending": 6450,
      "lovely": 6451,
      "happiness": 6452,
      "##jan": 6453,
      "stake": 6454,
      "eyebrows": 6455,
      "embassy": 6456,
      "wellington": 6457,
      "hannah": 6458,
      "##ella": 6459,
      "sony": 6460,
      "corners": 6461,
      "bishops": 6462,
      "swear": 6463,
      "cloth": 6464,
      "contents": 6465,
      "xi": 6466,
      "namely": 6467,
      "commenced": 6468,
      "1854": 6469,
      "stanford": 6470,
      "nashville": 6471,
      "courage": 6472,
      "graphic": 6473,
      "commitment": 6474,
      "garrison": 6475,
      "##bin": 6476,
      "hamlet": 6477,
      "clearing": 6478,
      "rebels": 6479,
      "attraction": 6480,
      "literacy": 6481,
      "cooking": 6482,
      "ruins": 6483,
      "temples": 6484,
      "jenny": 6485,
      "humanity": 6486,
      "celebrate": 6487,
      "hasn": 6488,
      "freight": 6489,
      "sixty": 6490,
      "rebel": 6491,
      "bastard": 6492,
      "##art": 6493,
      "newton": 6494,
      "##ada": 6495,
      "deer": 6496,
      "##ges": 6497,
      "##ching": 6498,
      "smiles": 6499,
      "delaware": 6500,
      "singers": 6501,
      "##ets": 6502,
      "approaching": 6503,
      "assists": 6504,
      "flame": 6505,
      "##ph": 6506,
      "boulevard": 6507,
      "barrel": 6508,
      "planted": 6509,
      "##ome": 6510,
      "pursuit": 6511,
      "##sia": 6512,
      "consequences": 6513,
      "posts": 6514,
      "shallow": 6515,
      "invitation": 6516,
      "rode": 6517,
      "depot": 6518,
      "ernest": 6519,
      "kane": 6520,
      "rod": 6521,
      "concepts": 6522,
      "preston": 6523,
      "topic": 6524,
      "chambers": 6525,
      "striking": 6526,
      "blast": 6527,
      "arrives": 6528,
      "descendants": 6529,
      "montgomery": 6530,
      "ranges": 6531,
      "worlds": 6532,
      "##lay": 6533,
      "##ari": 6534,
      "span": 6535,
      "chaos": 6536,
      "praise": 6537,
      "##ag": 6538,
      "fewer": 6539,
      "1855": 6540,
      "sanctuary": 6541,
      "mud": 6542,
      "fbi": 6543,
      "##ions": 6544,
      "programmes": 6545,
      "maintaining": 6546,
      "unity": 6547,
      "harper": 6548,
      "bore": 6549,
      "handsome": 6550,
      "closure": 6551,
      "tournaments": 6552,
      "thunder": 6553,
      "nebraska": 6554,
      "linda": 6555,
      "facade": 6556,
      "puts": 6557,
      "satisfied": 6558,
      "argentine": 6559,
      "dale": 6560,
      "cork": 6561,
      "dome": 6562,
      "panama": 6563,
      "##yl": 6564,
      "1858": 6565,
      "tasks": 6566,
      "experts": 6567,
      "##ates": 6568,
      "feeding": 6569,
      "equation": 6570,
      "##las": 6571,
      "##ida": 6572,
      "##tu": 6573,
      "engage": 6574,
      "bryan": 6575,
      "##ax": 6576,
      "um": 6577,
      "quartet": 6578,
      "melody": 6579,
      "disbanded": 6580,
      "sheffield": 6581,
      "blocked": 6582,
      "gasped": 6583,
      "delay": 6584,
      "kisses": 6585,
      "maggie": 6586,
      "connects": 6587,
      "##non": 6588,
      "sts": 6589,
      "poured": 6590,
      "creator": 6591,
      "publishers": 6592,
      "##we": 6593,
      "guided": 6594,
      "ellis": 6595,
      "extinct": 6596,
      "hug": 6597,
      "gaining": 6598,
      "##ord": 6599,
      "complicated": 6600,
      "##bility": 6601,
      "poll": 6602,
      "clenched": 6603,
      "investigate": 6604,
      "##use": 6605,
      "thereby": 6606,
      "quantum": 6607,
      "spine": 6608,
      "cdp": 6609,
      "humor": 6610,
      "kills": 6611,
      "administered": 6612,
      "semifinals": 6613,
      "##du": 6614,
      "encountered": 6615,
      "ignore": 6616,
      "##bu": 6617,
      "commentary": 6618,
      "##maker": 6619,
      "bother": 6620,
      "roosevelt": 6621,
      "140": 6622,
      "plains": 6623,
      "halfway": 6624,
      "flowing": 6625,
      "cultures": 6626,
      "crack": 6627,
      "imprisoned": 6628,
      "neighboring": 6629,
      "airline": 6630,
      "##ses": 6631,
      "##view": 6632,
      "##mate": 6633,
      "##ec": 6634,
      "gather": 6635,
      "wolves": 6636,
      "marathon": 6637,
      "transformed": 6638,
      "##ill": 6639,
      "cruise": 6640,
      "organisations": 6641,
      "carol": 6642,
      "punch": 6643,
      "exhibitions": 6644,
      "numbered": 6645,
      "alarm": 6646,
      "ratings": 6647,
      "daddy": 6648,
      "silently": 6649,
      "##stein": 6650,
      "queens": 6651,
      "colours": 6652,
      "impression": 6653,
      "guidance": 6654,
      "liu": 6655,
      "tactical": 6656,
      "##rat": 6657,
      "marshal": 6658,
      "della": 6659,
      "arrow": 6660,
      "##ings": 6661,
      "rested": 6662,
      "feared": 6663,
      "tender": 6664,
      "owns": 6665,
      "bitter": 6666,
      "advisor": 6667,
      "escort": 6668,
      "##ides": 6669,
      "spare": 6670,
      "farms": 6671,
      "grants": 6672,
      "##ene": 6673,
      "dragons": 6674,
      "encourage": 6675,
      "colleagues": 6676,
      "cameras": 6677,
      "##und": 6678,
      "sucked": 6679,
      "pile": 6680,
      "spirits": 6681,
      "prague": 6682,
      "statements": 6683,
      "suspension": 6684,
      "landmark": 6685,
      "fence": 6686,
      "torture": 6687,
      "recreation": 6688,
      "bags": 6689,
      "permanently": 6690,
      "survivors": 6691,
      "pond": 6692,
      "spy": 6693,
      "predecessor": 6694,
      "bombing": 6695,
      "coup": 6696,
      "##og": 6697,
      "protecting": 6698,
      "transformation": 6699,
      "glow": 6700,
      "##lands": 6701,
      "##book": 6702,
      "dug": 6703,
      "priests": 6704,
      "andrea": 6705,
      "feat": 6706,
      "barn": 6707,
      "jumping": 6708,
      "##chen": 6709,
      "##ologist": 6710,
      "##con": 6711,
      "casualties": 6712,
      "stern": 6713,
      "auckland": 6714,
      "pipe": 6715,
      "serie": 6716,
      "revealing": 6717,
      "ba": 6718,
      "##bel": 6719,
      "trevor": 6720,
      "mercy": 6721,
      "spectrum": 6722,
      "yang": 6723,
      "consist": 6724,
      "governing": 6725,
      "collaborated": 6726,
      "possessed": 6727,
      "epic": 6728,
      "comprises": 6729,
      "blew": 6730,
      "shane": 6731,
      "##ack": 6732,
      "lopez": 6733,
      "honored": 6734,
      "magical": 6735,
      "sacrifice": 6736,
      "judgment": 6737,
      "perceived": 6738,
      "hammer": 6739,
      "mtv": 6740,
      "baronet": 6741,
      "tune": 6742,
      "das": 6743,
      "missionary": 6744,
      "sheets": 6745,
      "350": 6746,
      "neutral": 6747,
      "oral": 6748,
      "threatening": 6749,
      "attractive": 6750,
      "shade": 6751,
      "aims": 6752,
      "seminary": 6753,
      "##master": 6754,
      "estates": 6755,
      "1856": 6756,
      "michel": 6757,
      "wounds": 6758,
      "refugees": 6759,
      "manufacturers": 6760,
      "##nic": 6761,
      "mercury": 6762,
      "syndrome": 6763,
      "porter": 6764,
      "##iya": 6765,
      "##din": 6766,
      "hamburg": 6767,
      "identification": 6768,
      "upstairs": 6769,
      "purse": 6770,
      "widened": 6771,
      "pause": 6772,
      "cared": 6773,
      "breathed": 6774,
      "affiliate": 6775,
      "santiago": 6776,
      "prevented": 6777,
      "celtic": 6778,
      "fisher": 6779,
      "125": 6780,
      "recruited": 6781,
      "byzantine": 6782,
      "reconstruction": 6783,
      "farther": 6784,
      "##mp": 6785,
      "diet": 6786,
      "sake": 6787,
      "au": 6788,
      "spite": 6789,
      "sensation": 6790,
      "##ert": 6791,
      "blank": 6792,
      "separation": 6793,
      "105": 6794,
      "##hon": 6795,
      "vladimir": 6796,
      "armies": 6797,
      "anime": 6798,
      "##lie": 6799,
      "accommodate": 6800,
      "orbit": 6801,
      "cult": 6802,
      "sofia": 6803,
      "archive": 6804,
      "##ify": 6805,
      "##box": 6806,
      "founders": 6807,
      "sustained": 6808,
      "disorder": 6809,
      "honours": 6810,
      "northeastern": 6811,
      "mia": 6812,
      "crops": 6813,
      "violet": 6814,
      "threats": 6815,
      "blanket": 6816,
      "fires": 6817,
      "canton": 6818,
      "followers": 6819,
      "southwestern": 6820,
      "prototype": 6821,
      "voyage": 6822,
      "assignment": 6823,
      "altered": 6824,
      "moderate": 6825,
      "protocol": 6826,
      "pistol": 6827,
      "##eo": 6828,
      "questioned": 6829,
      "brass": 6830,
      "lifting": 6831,
      "1852": 6832,
      "math": 6833,
      "authored": 6834,
      "##ual": 6835,
      "doug": 6836,
      "dimensional": 6837,
      "dynamic": 6838,
      "##san": 6839,
      "1851": 6840,
      "pronounced": 6841,
      "grateful": 6842,
      "quest": 6843,
      "uncomfortable": 6844,
      "boom": 6845,
      "presidency": 6846,
      "stevens": 6847,
      "relating": 6848,
      "politicians": 6849,
      "chen": 6850,
      "barrier": 6851,
      "quinn": 6852,
      "diana": 6853,
      "mosque": 6854,
      "tribal": 6855,
      "cheese": 6856,
      "palmer": 6857,
      "portions": 6858,
      "sometime": 6859,
      "chester": 6860,
      "treasure": 6861,
      "wu": 6862,
      "bend": 6863,
      "download": 6864,
      "millions": 6865,
      "reforms": 6866,
      "registration": 6867,
      "##osa": 6868,
      "consequently": 6869,
      "monitoring": 6870,
      "ate": 6871,
      "preliminary": 6872,
      "brandon": 6873,
      "invented": 6874,
      "ps": 6875,
      "eaten": 6876,
      "exterior": 6877,
      "intervention": 6878,
      "ports": 6879,
      "documented": 6880,
      "log": 6881,
      "displays": 6882,
      "lecture": 6883,
      "sally": 6884,
      "favourite": 6885,
      "##itz": 6886,
      "vermont": 6887,
      "lo": 6888,
      "invisible": 6889,
      "isle": 6890,
      "breed": 6891,
      "##ator": 6892,
      "journalists": 6893,
      "relay": 6894,
      "speaks": 6895,
      "backward": 6896,
      "explore": 6897,
      "midfielder": 6898,
      "actively": 6899,
      "stefan": 6900,
      "procedures": 6901,
      "cannon": 6902,
      "blond": 6903,
      "kenneth": 6904,
      "centered": 6905,
      "servants": 6906,
      "chains": 6907,
      "libraries": 6908,
      "malcolm": 6909,
      "essex": 6910,
      "henri": 6911,
      "slavery": 6912,
      "##hal": 6913,
      "facts": 6914,
      "fairy": 6915,
      "coached": 6916,
      "cassie": 6917,
      "cats": 6918,
      "washed": 6919,
      "cop": 6920,
      "##fi": 6921,
      "announcement": 6922,
      "item": 6923,
      "2000s": 6924,
      "vinyl": 6925,
      "activated": 6926,
      "marco": 6927,
      "frontier": 6928,
      "growled": 6929,
      "curriculum": 6930,
      "##das": 6931,
      "loyal": 6932,
      "accomplished": 6933,
      "leslie": 6934,
      "ritual": 6935,
      "kenny": 6936,
      "##00": 6937,
      "vii": 6938,
      "napoleon": 6939,
      "hollow": 6940,
      "hybrid": 6941,
      "jungle": 6942,
      "stationed": 6943,
      "friedrich": 6944,
      "counted": 6945,
      "##ulated": 6946,
      "platinum": 6947,
      "theatrical": 6948,
      "seated": 6949,
      "col": 6950,
      "rubber": 6951,
      "glen": 6952,
      "1840": 6953,
      "diversity": 6954,
      "healing": 6955,
      "extends": 6956,
      "id": 6957,
      "provisions": 6958,
      "administrator": 6959,
      "columbus": 6960,
      "##oe": 6961,
      "tributary": 6962,
      "te": 6963,
      "assured": 6964,
      "org": 6965,
      "##uous": 6966,
      "prestigious": 6967,
      "examined": 6968,
      "lectures": 6969,
      "grammy": 6970,
      "ronald": 6971,
      "associations": 6972,
      "bailey": 6973,
      "allan": 6974,
      "essays": 6975,
      "flute": 6976,
      "believing": 6977,
      "consultant": 6978,
      "proceedings": 6979,
      "travelling": 6980,
      "1853": 6981,
      "kit": 6982,
      "kerala": 6983,
      "yugoslavia": 6984,
      "buddy": 6985,
      "methodist": 6986,
      "##ith": 6987,
      "burial": 6988,
      "centres": 6989,
      "batman": 6990,
      "##nda": 6991,
      "discontinued": 6992,
      "bo": 6993,
      "dock": 6994,
      "stockholm": 6995,
      "lungs": 6996,
      "severely": 6997,
      "##nk": 6998,
      "citing": 6999,
      "manga": 7000,
      "##ugh": 7001,
      "steal": 7002,
      "mumbai": 7003,
      "iraqi": 7004,
      "robot": 7005,
      "celebrity": 7006,
      "bride": 7007,
      "broadcasts": 7008,
      "abolished": 7009,
      "pot": 7010,
      "joel": 7011,
      "overhead": 7012,
      "franz": 7013,
      "packed": 7014,
      "reconnaissance": 7015,
      "johann": 7016,
      "acknowledged": 7017,
      "introduce": 7018,
      "handled": 7019,
      "doctorate": 7020,
      "developments": 7021,
      "drinks": 7022,
      "alley": 7023,
      "palestine": 7024,
      "##nis": 7025,
      "##aki": 7026,
      "proceeded": 7027,
      "recover": 7028,
      "bradley": 7029,
      "grain": 7030,
      "patch": 7031,
      "afford": 7032,
      "infection": 7033,
      "nationalist": 7034,
      "legendary": 7035,
      "##ath": 7036,
      "interchange": 7037,
      "virtually": 7038,
      "gen": 7039,
      "gravity": 7040,
      "exploration": 7041,
      "amber": 7042,
      "vital": 7043,
      "wishes": 7044,
      "powell": 7045,
      "doctrine": 7046,
      "elbow": 7047,
      "screenplay": 7048,
      "##bird": 7049,
      "contribute": 7050,
      "indonesian": 7051,
      "pet": 7052,
      "creates": 7053,
      "##com": 7054,
      "enzyme": 7055,
      "kylie": 7056,
      "discipline": 7057,
      "drops": 7058,
      "manila": 7059,
      "hunger": 7060,
      "##ien": 7061,
      "layers": 7062,
      "suffer": 7063,
      "fever": 7064,
      "bits": 7065,
      "monica": 7066,
      "keyboard": 7067,
      "manages": 7068,
      "##hood": 7069,
      "searched": 7070,
      "appeals": 7071,
      "##bad": 7072,
      "testament": 7073,
      "grande": 7074,
      "reid": 7075,
      "##war": 7076,
      "beliefs": 7077,
      "congo": 7078,
      "##ification": 7079,
      "##dia": 7080,
      "si": 7081,
      "requiring": 7082,
      "##via": 7083,
      "casey": 7084,
      "1849": 7085,
      "regret": 7086,
      "streak": 7087,
      "rape": 7088,
      "depends": 7089,
      "syrian": 7090,
      "sprint": 7091,
      "pound": 7092,
      "tourists": 7093,
      "upcoming": 7094,
      "pub": 7095,
      "##xi": 7096,
      "tense": 7097,
      "##els": 7098,
      "practiced": 7099,
      "echo": 7100,
      "nationwide": 7101,
      "guild": 7102,
      "motorcycle": 7103,
      "liz": 7104,
      "##zar": 7105,
      "chiefs": 7106,
      "desired": 7107,
      "elena": 7108,
      "bye": 7109,
      "precious": 7110,
      "absorbed": 7111,
      "relatives": 7112,
      "booth": 7113,
      "pianist": 7114,
      "##mal": 7115,
      "citizenship": 7116,
      "exhausted": 7117,
      "wilhelm": 7118,
      "##ceae": 7119,
      "##hed": 7120,
      "noting": 7121,
      "quarterback": 7122,
      "urge": 7123,
      "hectares": 7124,
      "##gue": 7125,
      "ace": 7126,
      "holly": 7127,
      "##tal": 7128,
      "blonde": 7129,
      "davies": 7130,
      "parked": 7131,
      "sustainable": 7132,
      "stepping": 7133,
      "twentieth": 7134,
      "airfield": 7135,
      "galaxy": 7136,
      "nest": 7137,
      "chip": 7138,
      "##nell": 7139,
      "tan": 7140,
      "shaft": 7141,
      "paulo": 7142,
      "requirement": 7143,
      "##zy": 7144,
      "paradise": 7145,
      "tobacco": 7146,
      "trans": 7147,
      "renewed": 7148,
      "vietnamese": 7149,
      "##cker": 7150,
      "##ju": 7151,
      "suggesting": 7152,
      "catching": 7153,
      "holmes": 7154,
      "enjoying": 7155,
      "md": 7156,
      "trips": 7157,
      "colt": 7158,
      "holder": 7159,
      "butterfly": 7160,
      "nerve": 7161,
      "reformed": 7162,
      "cherry": 7163,
      "bowling": 7164,
      "trailer": 7165,
      "carriage": 7166,
      "goodbye": 7167,
      "appreciate": 7168,
      "toy": 7169,
      "joshua": 7170,
      "interactive": 7171,
      "enabled": 7172,
      "involve": 7173,
      "##kan": 7174,
      "collar": 7175,
      "determination": 7176,
      "bunch": 7177,
      "facebook": 7178,
      "recall": 7179,
      "shorts": 7180,
      "superintendent": 7181,
      "episcopal": 7182,
      "frustration": 7183,
      "giovanni": 7184,
      "nineteenth": 7185,
      "laser": 7186,
      "privately": 7187,
      "array": 7188,
      "circulation": 7189,
      "##ovic": 7190,
      "armstrong": 7191,
      "deals": 7192,
      "painful": 7193,
      "permit": 7194,
      "discrimination": 7195,
      "##wi": 7196,
      "aires": 7197,
      "retiring": 7198,
      "cottage": 7199,
      "ni": 7200,
      "##sta": 7201,
      "horizon": 7202,
      "ellen": 7203,
      "jamaica": 7204,
      "ripped": 7205,
      "fernando": 7206,
      "chapters": 7207,
      "playstation": 7208,
      "patron": 7209,
      "lecturer": 7210,
      "navigation": 7211,
      "behaviour": 7212,
      "genes": 7213,
      "georgian": 7214,
      "export": 7215,
      "solomon": 7216,
      "rivals": 7217,
      "swift": 7218,
      "seventeen": 7219,
      "rodriguez": 7220,
      "princeton": 7221,
      "independently": 7222,
      "sox": 7223,
      "1847": 7224,
      "arguing": 7225,
      "entity": 7226,
      "casting": 7227,
      "hank": 7228,
      "criteria": 7229,
      "oakland": 7230,
      "geographic": 7231,
      "milwaukee": 7232,
      "reflection": 7233,
      "expanding": 7234,
      "conquest": 7235,
      "dubbed": 7236,
      "##tv": 7237,
      "halt": 7238,
      "brave": 7239,
      "brunswick": 7240,
      "doi": 7241,
      "arched": 7242,
      "curtis": 7243,
      "divorced": 7244,
      "predominantly": 7245,
      "somerset": 7246,
      "streams": 7247,
      "ugly": 7248,
      "zoo": 7249,
      "horrible": 7250,
      "curved": 7251,
      "buenos": 7252,
      "fierce": 7253,
      "dictionary": 7254,
      "vector": 7255,
      "theological": 7256,
      "unions": 7257,
      "handful": 7258,
      "stability": 7259,
      "chan": 7260,
      "punjab": 7261,
      "segments": 7262,
      "##lly": 7263,
      "altar": 7264,
      "ignoring": 7265,
      "gesture": 7266,
      "monsters": 7267,
      "pastor": 7268,
      "##stone": 7269,
      "thighs": 7270,
      "unexpected": 7271,
      "operators": 7272,
      "abruptly": 7273,
      "coin": 7274,
      "compiled": 7275,
      "associates": 7276,
      "improving": 7277,
      "migration": 7278,
      "pin": 7279,
      "##ose": 7280,
      "compact": 7281,
      "collegiate": 7282,
      "reserved": 7283,
      "##urs": 7284,
      "quarterfinals": 7285,
      "roster": 7286,
      "restore": 7287,
      "assembled": 7288,
      "hurry": 7289,
      "oval": 7290,
      "##cies": 7291,
      "1846": 7292,
      "flags": 7293,
      "martha": 7294,
      "##del": 7295,
      "victories": 7296,
      "sharply": 7297,
      "##rated": 7298,
      "argues": 7299,
      "deadly": 7300,
      "neo": 7301,
      "drawings": 7302,
      "symbols": 7303,
      "performer": 7304,
      "##iel": 7305,
      "griffin": 7306,
      "restrictions": 7307,
      "editing": 7308,
      "andrews": 7309,
      "java": 7310,
      "journals": 7311,
      "arabia": 7312,
      "compositions": 7313,
      "dee": 7314,
      "pierce": 7315,
      "removing": 7316,
      "hindi": 7317,
      "casino": 7318,
      "runway": 7319,
      "civilians": 7320,
      "minds": 7321,
      "nasa": 7322,
      "hotels": 7323,
      "##zation": 7324,
      "refuge": 7325,
      "rent": 7326,
      "retain": 7327,
      "potentially": 7328,
      "conferences": 7329,
      "suburban": 7330,
      "conducting": 7331,
      "##tto": 7332,
      "##tions": 7333,
      "##tle": 7334,
      "descended": 7335,
      "massacre": 7336,
      "##cal": 7337,
      "ammunition": 7338,
      "terrain": 7339,
      "fork": 7340,
      "souls": 7341,
      "counts": 7342,
      "chelsea": 7343,
      "durham": 7344,
      "drives": 7345,
      "cab": 7346,
      "##bank": 7347,
      "perth": 7348,
      "realizing": 7349,
      "palestinian": 7350,
      "finn": 7351,
      "simpson": 7352,
      "##dal": 7353,
      "betty": 7354,
      "##ule": 7355,
      "moreover": 7356,
      "particles": 7357,
      "cardinals": 7358,
      "tent": 7359,
      "evaluation": 7360,
      "extraordinary": 7361,
      "##oid": 7362,
      "inscription": 7363,
      "##works": 7364,
      "wednesday": 7365,
      "chloe": 7366,
      "maintains": 7367,
      "panels": 7368,
      "ashley": 7369,
      "trucks": 7370,
      "##nation": 7371,
      "cluster": 7372,
      "sunlight": 7373,
      "strikes": 7374,
      "zhang": 7375,
      "##wing": 7376,
      "dialect": 7377,
      "canon": 7378,
      "##ap": 7379,
      "tucked": 7380,
      "##ws": 7381,
      "collecting": 7382,
      "##mas": 7383,
      "##can": 7384,
      "##sville": 7385,
      "maker": 7386,
      "quoted": 7387,
      "evan": 7388,
      "franco": 7389,
      "aria": 7390,
      "buying": 7391,
      "cleaning": 7392,
      "eva": 7393,
      "closet": 7394,
      "provision": 7395,
      "apollo": 7396,
      "clinic": 7397,
      "rat": 7398,
      "##ez": 7399,
      "necessarily": 7400,
      "ac": 7401,
      "##gle": 7402,
      "##ising": 7403,
      "venues": 7404,
      "flipped": 7405,
      "cent": 7406,
      "spreading": 7407,
      "trustees": 7408,
      "checking": 7409,
      "authorized": 7410,
      "##sco": 7411,
      "disappointed": 7412,
      "##ado": 7413,
      "notion": 7414,
      "duration": 7415,
      "trumpet": 7416,
      "hesitated": 7417,
      "topped": 7418,
      "brussels": 7419,
      "rolls": 7420,
      "theoretical": 7421,
      "hint": 7422,
      "define": 7423,
      "aggressive": 7424,
      "repeat": 7425,
      "wash": 7426,
      "peaceful": 7427,
      "optical": 7428,
      "width": 7429,
      "allegedly": 7430,
      "mcdonald": 7431,
      "strict": 7432,
      "copyright": 7433,
      "##illa": 7434,
      "investors": 7435,
      "mar": 7436,
      "jam": 7437,
      "witnesses": 7438,
      "sounding": 7439,
      "miranda": 7440,
      "michelle": 7441,
      "privacy": 7442,
      "hugo": 7443,
      "harmony": 7444,
      "##pp": 7445,
      "valid": 7446,
      "lynn": 7447,
      "glared": 7448,
      "nina": 7449,
      "102": 7450,
      "headquartered": 7451,
      "diving": 7452,
      "boarding": 7453,
      "gibson": 7454,
      "##ncy": 7455,
      "albanian": 7456,
      "marsh": 7457,
      "routine": 7458,
      "dealt": 7459,
      "enhanced": 7460,
      "er": 7461,
      "intelligent": 7462,
      "substance": 7463,
      "targeted": 7464,
      "enlisted": 7465,
      "discovers": 7466,
      "spinning": 7467,
      "observations": 7468,
      "pissed": 7469,
      "smoking": 7470,
      "rebecca": 7471,
      "capitol": 7472,
      "visa": 7473,
      "varied": 7474,
      "costume": 7475,
      "seemingly": 7476,
      "indies": 7477,
      "compensation": 7478,
      "surgeon": 7479,
      "thursday": 7480,
      "arsenal": 7481,
      "westminster": 7482,
      "suburbs": 7483,
      "rid": 7484,
      "anglican": 7485,
      "##ridge": 7486,
      "knots": 7487,
      "foods": 7488,
      "alumni": 7489,
      "lighter": 7490,
      "fraser": 7491,
      "whoever": 7492,
      "portal": 7493,
      "scandal": 7494,
      "##ray": 7495,
      "gavin": 7496,
      "advised": 7497,
      "instructor": 7498,
      "flooding": 7499,
      "terrorist": 7500,
      "##ale": 7501,
      "teenage": 7502,
      "interim": 7503,
      "senses": 7504,
      "duck": 7505,
      "teen": 7506,
      "thesis": 7507,
      "abby": 7508,
      "eager": 7509,
      "overcome": 7510,
      "##ile": 7511,
      "newport": 7512,
      "glenn": 7513,
      "rises": 7514,
      "shame": 7515,
      "##cc": 7516,
      "prompted": 7517,
      "priority": 7518,
      "forgot": 7519,
      "bomber": 7520,
      "nicolas": 7521,
      "protective": 7522,
      "360": 7523,
      "cartoon": 7524,
      "katherine": 7525,
      "breeze": 7526,
      "lonely": 7527,
      "trusted": 7528,
      "henderson": 7529,
      "richardson": 7530,
      "relax": 7531,
      "banner": 7532,
      "candy": 7533,
      "palms": 7534,
      "remarkable": 7535,
      "##rio": 7536,
      "legends": 7537,
      "cricketer": 7538,
      "essay": 7539,
      "ordained": 7540,
      "edmund": 7541,
      "rifles": 7542,
      "trigger": 7543,
      "##uri": 7544,
      "##away": 7545,
      "sail": 7546,
      "alert": 7547,
      "1830": 7548,
      "audiences": 7549,
      "penn": 7550,
      "sussex": 7551,
      "siblings": 7552,
      "pursued": 7553,
      "indianapolis": 7554,
      "resist": 7555,
      "rosa": 7556,
      "consequence": 7557,
      "succeed": 7558,
      "avoided": 7559,
      "1845": 7560,
      "##ulation": 7561,
      "inland": 7562,
      "##tie": 7563,
      "##nna": 7564,
      "counsel": 7565,
      "profession": 7566,
      "chronicle": 7567,
      "hurried": 7568,
      "##una": 7569,
      "eyebrow": 7570,
      "eventual": 7571,
      "bleeding": 7572,
      "innovative": 7573,
      "cure": 7574,
      "##dom": 7575,
      "committees": 7576,
      "accounting": 7577,
      "con": 7578,
      "scope": 7579,
      "hardy": 7580,
      "heather": 7581,
      "tenor": 7582,
      "gut": 7583,
      "herald": 7584,
      "codes": 7585,
      "tore": 7586,
      "scales": 7587,
      "wagon": 7588,
      "##oo": 7589,
      "luxury": 7590,
      "tin": 7591,
      "prefer": 7592,
      "fountain": 7593,
      "triangle": 7594,
      "bonds": 7595,
      "darling": 7596,
      "convoy": 7597,
      "dried": 7598,
      "traced": 7599,
      "beings": 7600,
      "troy": 7601,
      "accidentally": 7602,
      "slam": 7603,
      "findings": 7604,
      "smelled": 7605,
      "joey": 7606,
      "lawyers": 7607,
      "outcome": 7608,
      "steep": 7609,
      "bosnia": 7610,
      "configuration": 7611,
      "shifting": 7612,
      "toll": 7613,
      "brook": 7614,
      "performers": 7615,
      "lobby": 7616,
      "philosophical": 7617,
      "construct": 7618,
      "shrine": 7619,
      "aggregate": 7620,
      "boot": 7621,
      "cox": 7622,
      "phenomenon": 7623,
      "savage": 7624,
      "insane": 7625,
      "solely": 7626,
      "reynolds": 7627,
      "lifestyle": 7628,
      "##ima": 7629,
      "nationally": 7630,
      "holdings": 7631,
      "consideration": 7632,
      "enable": 7633,
      "edgar": 7634,
      "mo": 7635,
      "mama": 7636,
      "##tein": 7637,
      "fights": 7638,
      "relegation": 7639,
      "chances": 7640,
      "atomic": 7641,
      "hub": 7642,
      "conjunction": 7643,
      "awkward": 7644,
      "reactions": 7645,
      "currency": 7646,
      "finale": 7647,
      "kumar": 7648,
      "underwent": 7649,
      "steering": 7650,
      "elaborate": 7651,
      "gifts": 7652,
      "comprising": 7653,
      "melissa": 7654,
      "veins": 7655,
      "reasonable": 7656,
      "sunshine": 7657,
      "chi": 7658,
      "solve": 7659,
      "trails": 7660,
      "inhabited": 7661,
      "elimination": 7662,
      "ethics": 7663,
      "huh": 7664,
      "ana": 7665,
      "molly": 7666,
      "consent": 7667,
      "apartments": 7668,
      "layout": 7669,
      "marines": 7670,
      "##ces": 7671,
      "hunters": 7672,
      "bulk": 7673,
      "##oma": 7674,
      "hometown": 7675,
      "##wall": 7676,
      "##mont": 7677,
      "cracked": 7678,
      "reads": 7679,
      "neighbouring": 7680,
      "withdrawn": 7681,
      "admission": 7682,
      "wingspan": 7683,
      "damned": 7684,
      "anthology": 7685,
      "lancashire": 7686,
      "brands": 7687,
      "batting": 7688,
      "forgive": 7689,
      "cuban": 7690,
      "awful": 7691,
      "##lyn": 7692,
      "104": 7693,
      "dimensions": 7694,
      "imagination": 7695,
      "##ade": 7696,
      "dante": 7697,
      "##ship": 7698,
      "tracking": 7699,
      "desperately": 7700,
      "goalkeeper": 7701,
      "##yne": 7702,
      "groaned": 7703,
      "workshops": 7704,
      "confident": 7705,
      "burton": 7706,
      "gerald": 7707,
      "milton": 7708,
      "circus": 7709,
      "uncertain": 7710,
      "slope": 7711,
      "copenhagen": 7712,
      "sophia": 7713,
      "fog": 7714,
      "philosopher": 7715,
      "portraits": 7716,
      "accent": 7717,
      "cycling": 7718,
      "varying": 7719,
      "gripped": 7720,
      "larvae": 7721,
      "garrett": 7722,
      "specified": 7723,
      "scotia": 7724,
      "mature": 7725,
      "luther": 7726,
      "kurt": 7727,
      "rap": 7728,
      "##kes": 7729,
      "aerial": 7730,
      "750": 7731,
      "ferdinand": 7732,
      "heated": 7733,
      "es": 7734,
      "transported": 7735,
      "##shan": 7736,
      "safely": 7737,
      "nonetheless": 7738,
      "##orn": 7739,
      "##gal": 7740,
      "motors": 7741,
      "demanding": 7742,
      "##sburg": 7743,
      "startled": 7744,
      "##brook": 7745,
      "ally": 7746,
      "generate": 7747,
      "caps": 7748,
      "ghana": 7749,
      "stained": 7750,
      "demo": 7751,
      "mentions": 7752,
      "beds": 7753,
      "ap": 7754,
      "afterward": 7755,
      "diary": 7756,
      "##bling": 7757,
      "utility": 7758,
      "##iro": 7759,
      "richards": 7760,
      "1837": 7761,
      "conspiracy": 7762,
      "conscious": 7763,
      "shining": 7764,
      "footsteps": 7765,
      "observer": 7766,
      "cyprus": 7767,
      "urged": 7768,
      "loyalty": 7769,
      "developer": 7770,
      "probability": 7771,
      "olive": 7772,
      "upgraded": 7773,
      "gym": 7774,
      "miracle": 7775,
      "insects": 7776,
      "graves": 7777,
      "1844": 7778,
      "ourselves": 7779,
      "hydrogen": 7780,
      "amazon": 7781,
      "katie": 7782,
      "tickets": 7783,
      "poets": 7784,
      "##pm": 7785,
      "planes": 7786,
      "##pan": 7787,
      "prevention": 7788,
      "witnessed": 7789,
      "dense": 7790,
      "jin": 7791,
      "randy": 7792,
      "tang": 7793,
      "warehouse": 7794,
      "monroe": 7795,
      "bang": 7796,
      "archived": 7797,
      "elderly": 7798,
      "investigations": 7799,
      "alec": 7800,
      "granite": 7801,
      "mineral": 7802,
      "conflicts": 7803,
      "controlling": 7804,
      "aboriginal": 7805,
      "carlo": 7806,
      "##zu": 7807,
      "mechanics": 7808,
      "stan": 7809,
      "stark": 7810,
      "rhode": 7811,
      "skirt": 7812,
      "est": 7813,
      "##berry": 7814,
      "bombs": 7815,
      "respected": 7816,
      "##horn": 7817,
      "imposed": 7818,
      "limestone": 7819,
      "deny": 7820,
      "nominee": 7821,
      "memphis": 7822,
      "grabbing": 7823,
      "disabled": 7824,
      "##als": 7825,
      "amusement": 7826,
      "aa": 7827,
      "frankfurt": 7828,
      "corn": 7829,
      "referendum": 7830,
      "varies": 7831,
      "slowed": 7832,
      "disk": 7833,
      "firms": 7834,
      "unconscious": 7835,
      "incredible": 7836,
      "clue": 7837,
      "sue": 7838,
      "##zhou": 7839,
      "twist": 7840,
      "##cio": 7841,
      "joins": 7842,
      "idaho": 7843,
      "chad": 7844,
      "developers": 7845,
      "computing": 7846,
      "destroyer": 7847,
      "103": 7848,
      "mortal": 7849,
      "tucker": 7850,
      "kingston": 7851,
      "choices": 7852,
      "yu": 7853,
      "carson": 7854,
      "1800": 7855,
      "os": 7856,
      "whitney": 7857,
      "geneva": 7858,
      "pretend": 7859,
      "dimension": 7860,
      "staged": 7861,
      "plateau": 7862,
      "maya": 7863,
      "##une": 7864,
      "freestyle": 7865,
      "##bc": 7866,
      "rovers": 7867,
      "hiv": 7868,
      "##ids": 7869,
      "tristan": 7870,
      "classroom": 7871,
      "prospect": 7872,
      "##hus": 7873,
      "honestly": 7874,
      "diploma": 7875,
      "lied": 7876,
      "thermal": 7877,
      "auxiliary": 7878,
      "feast": 7879,
      "unlikely": 7880,
      "iata": 7881,
      "##tel": 7882,
      "morocco": 7883,
      "pounding": 7884,
      "treasury": 7885,
      "lithuania": 7886,
      "considerably": 7887,
      "1841": 7888,
      "dish": 7889,
      "1812": 7890,
      "geological": 7891,
      "matching": 7892,
      "stumbled": 7893,
      "destroying": 7894,
      "marched": 7895,
      "brien": 7896,
      "advances": 7897,
      "cake": 7898,
      "nicole": 7899,
      "belle": 7900,
      "settling": 7901,
      "measuring": 7902,
      "directing": 7903,
      "##mie": 7904,
      "tuesday": 7905,
      "bassist": 7906,
      "capabilities": 7907,
      "stunned": 7908,
      "fraud": 7909,
      "torpedo": 7910,
      "##list": 7911,
      "##phone": 7912,
      "anton": 7913,
      "wisdom": 7914,
      "surveillance": 7915,
      "ruined": 7916,
      "##ulate": 7917,
      "lawsuit": 7918,
      "healthcare": 7919,
      "theorem": 7920,
      "halls": 7921,
      "trend": 7922,
      "aka": 7923,
      "horizontal": 7924,
      "dozens": 7925,
      "acquire": 7926,
      "lasting": 7927,
      "swim": 7928,
      "hawk": 7929,
      "gorgeous": 7930,
      "fees": 7931,
      "vicinity": 7932,
      "decrease": 7933,
      "adoption": 7934,
      "tactics": 7935,
      "##ography": 7936,
      "pakistani": 7937,
      "##ole": 7938,
      "draws": 7939,
      "##hall": 7940,
      "willie": 7941,
      "burke": 7942,
      "heath": 7943,
      "algorithm": 7944,
      "integral": 7945,
      "powder": 7946,
      "elliott": 7947,
      "brigadier": 7948,
      "jackie": 7949,
      "tate": 7950,
      "varieties": 7951,
      "darker": 7952,
      "##cho": 7953,
      "lately": 7954,
      "cigarette": 7955,
      "specimens": 7956,
      "adds": 7957,
      "##ree": 7958,
      "##ensis": 7959,
      "##inger": 7960,
      "exploded": 7961,
      "finalist": 7962,
      "cia": 7963,
      "murders": 7964,
      "wilderness": 7965,
      "arguments": 7966,
      "nicknamed": 7967,
      "acceptance": 7968,
      "onwards": 7969,
      "manufacture": 7970,
      "robertson": 7971,
      "jets": 7972,
      "tampa": 7973,
      "enterprises": 7974,
      "blog": 7975,
      "loudly": 7976,
      "composers": 7977,
      "nominations": 7978,
      "1838": 7979,
      "ai": 7980,
      "malta": 7981,
      "inquiry": 7982,
      "automobile": 7983,
      "hosting": 7984,
      "viii": 7985,
      "rays": 7986,
      "tilted": 7987,
      "grief": 7988,
      "museums": 7989,
      "strategies": 7990,
      "furious": 7991,
      "euro": 7992,
      "equality": 7993,
      "cohen": 7994,
      "poison": 7995,
      "surrey": 7996,
      "wireless": 7997,
      "governed": 7998,
      "ridiculous": 7999,
      "moses": 8000,
      "##esh": 8001,
      "##room": 8002,
      "vanished": 8003,
      "##ito": 8004,
      "barnes": 8005,
      "attract": 8006,
      "morrison": 8007,
      "istanbul": 8008,
      "##iness": 8009,
      "absent": 8010,
      "rotation": 8011,
      "petition": 8012,
      "janet": 8013,
      "##logical": 8014,
      "satisfaction": 8015,
      "custody": 8016,
      "deliberately": 8017,
      "observatory": 8018,
      "comedian": 8019,
      "surfaces": 8020,
      "pinyin": 8021,
      "novelist": 8022,
      "strictly": 8023,
      "canterbury": 8024,
      "oslo": 8025,
      "monks": 8026,
      "embrace": 8027,
      "ibm": 8028,
      "jealous": 8029,
      "photograph": 8030,
      "continent": 8031,
      "dorothy": 8032,
      "marina": 8033,
      "doc": 8034,
      "excess": 8035,
      "holden": 8036,
      "allegations": 8037,
      "explaining": 8038,
      "stack": 8039,
      "avoiding": 8040,
      "lance": 8041,
      "storyline": 8042,
      "majesty": 8043,
      "poorly": 8044,
      "spike": 8045,
      "dos": 8046,
      "bradford": 8047,
      "raven": 8048,
      "travis": 8049,
      "classics": 8050,
      "proven": 8051,
      "voltage": 8052,
      "pillow": 8053,
      "fists": 8054,
      "butt": 8055,
      "1842": 8056,
      "interpreted": 8057,
      "##car": 8058,
      "1839": 8059,
      "gage": 8060,
      "telegraph": 8061,
      "lens": 8062,
      "promising": 8063,
      "expelled": 8064,
      "casual": 8065,
      "collector": 8066,
      "zones": 8067,
      "##min": 8068,
      "silly": 8069,
      "nintendo": 8070,
      "##kh": 8071,
      "##bra": 8072,
      "downstairs": 8073,
      "chef": 8074,
      "suspicious": 8075,
      "afl": 8076,
      "flies": 8077,
      "vacant": 8078,
      "uganda": 8079,
      "pregnancy": 8080,
      "condemned": 8081,
      "lutheran": 8082,
      "estimates": 8083,
      "cheap": 8084,
      "decree": 8085,
      "saxon": 8086,
      "proximity": 8087,
      "stripped": 8088,
      "idiot": 8089,
      "deposits": 8090,
      "contrary": 8091,
      "presenter": 8092,
      "magnus": 8093,
      "glacier": 8094,
      "im": 8095,
      "offense": 8096,
      "edwin": 8097,
      "##ori": 8098,
      "upright": 8099,
      "##long": 8100,
      "bolt": 8101,
      "##ois": 8102,
      "toss": 8103,
      "geographical": 8104,
      "##izes": 8105,
      "environments": 8106,
      "delicate": 8107,
      "marking": 8108,
      "abstract": 8109,
      "xavier": 8110,
      "nails": 8111,
      "windsor": 8112,
      "plantation": 8113,
      "occurring": 8114,
      "equity": 8115,
      "saskatchewan": 8116,
      "fears": 8117,
      "drifted": 8118,
      "sequences": 8119,
      "vegetation": 8120,
      "revolt": 8121,
      "##stic": 8122,
      "1843": 8123,
      "sooner": 8124,
      "fusion": 8125,
      "opposing": 8126,
      "nato": 8127,
      "skating": 8128,
      "1836": 8129,
      "secretly": 8130,
      "ruin": 8131,
      "lease": 8132,
      "##oc": 8133,
      "edit": 8134,
      "##nne": 8135,
      "flora": 8136,
      "anxiety": 8137,
      "ruby": 8138,
      "##ological": 8139,
      "##mia": 8140,
      "tel": 8141,
      "bout": 8142,
      "taxi": 8143,
      "emmy": 8144,
      "frost": 8145,
      "rainbow": 8146,
      "compounds": 8147,
      "foundations": 8148,
      "rainfall": 8149,
      "assassination": 8150,
      "nightmare": 8151,
      "dominican": 8152,
      "##win": 8153,
      "achievements": 8154,
      "deserve": 8155,
      "orlando": 8156,
      "intact": 8157,
      "armenia": 8158,
      "##nte": 8159,
      "calgary": 8160,
      "valentine": 8161,
      "106": 8162,
      "marion": 8163,
      "proclaimed": 8164,
      "theodore": 8165,
      "bells": 8166,
      "courtyard": 8167,
      "thigh": 8168,
      "gonzalez": 8169,
      "console": 8170,
      "troop": 8171,
      "minimal": 8172,
      "monte": 8173,
      "everyday": 8174,
      "##ence": 8175,
      "##if": 8176,
      "supporter": 8177,
      "terrorism": 8178,
      "buck": 8179,
      "openly": 8180,
      "presbyterian": 8181,
      "activists": 8182,
      "carpet": 8183,
      "##iers": 8184,
      "rubbing": 8185,
      "uprising": 8186,
      "##yi": 8187,
      "cute": 8188,
      "conceived": 8189,
      "legally": 8190,
      "##cht": 8191,
      "millennium": 8192,
      "cello": 8193,
      "velocity": 8194,
      "ji": 8195,
      "rescued": 8196,
      "cardiff": 8197,
      "1835": 8198,
      "rex": 8199,
      "concentrate": 8200,
      "senators": 8201,
      "beard": 8202,
      "rendered": 8203,
      "glowing": 8204,
      "battalions": 8205,
      "scouts": 8206,
      "competitors": 8207,
      "sculptor": 8208,
      "catalogue": 8209,
      "arctic": 8210,
      "ion": 8211,
      "raja": 8212,
      "bicycle": 8213,
      "wow": 8214,
      "glancing": 8215,
      "lawn": 8216,
      "##woman": 8217,
      "gentleman": 8218,
      "lighthouse": 8219,
      "publish": 8220,
      "predicted": 8221,
      "calculated": 8222,
      "##val": 8223,
      "variants": 8224,
      "##gne": 8225,
      "strain": 8226,
      "##ui": 8227,
      "winston": 8228,
      "deceased": 8229,
      "##nus": 8230,
      "touchdowns": 8231,
      "brady": 8232,
      "caleb": 8233,
      "sinking": 8234,
      "echoed": 8235,
      "crush": 8236,
      "hon": 8237,
      "blessed": 8238,
      "protagonist": 8239,
      "hayes": 8240,
      "endangered": 8241,
      "magnitude": 8242,
      "editors": 8243,
      "##tine": 8244,
      "estimate": 8245,
      "responsibilities": 8246,
      "##mel": 8247,
      "backup": 8248,
      "laying": 8249,
      "consumed": 8250,
      "sealed": 8251,
      "zurich": 8252,
      "lovers": 8253,
      "frustrated": 8254,
      "##eau": 8255,
      "ahmed": 8256,
      "kicking": 8257,
      "mit": 8258,
      "treasurer": 8259,
      "1832": 8260,
      "biblical": 8261,
      "refuse": 8262,
      "terrified": 8263,
      "pump": 8264,
      "agrees": 8265,
      "genuine": 8266,
      "imprisonment": 8267,
      "refuses": 8268,
      "plymouth": 8269,
      "##hen": 8270,
      "lou": 8271,
      "##nen": 8272,
      "tara": 8273,
      "trembling": 8274,
      "antarctic": 8275,
      "ton": 8276,
      "learns": 8277,
      "##tas": 8278,
      "crap": 8279,
      "crucial": 8280,
      "faction": 8281,
      "atop": 8282,
      "##borough": 8283,
      "wrap": 8284,
      "lancaster": 8285,
      "odds": 8286,
      "hopkins": 8287,
      "erik": 8288,
      "lyon": 8289,
      "##eon": 8290,
      "bros": 8291,
      "##ode": 8292,
      "snap": 8293,
      "locality": 8294,
      "tips": 8295,
      "empress": 8296,
      "crowned": 8297,
      "cal": 8298,
      "acclaimed": 8299,
      "chuckled": 8300,
      "##ory": 8301,
      "clara": 8302,
      "sends": 8303,
      "mild": 8304,
      "towel": 8305,
      "##fl": 8306,
      "##day": 8307,
      "wishing": 8308,
      "assuming": 8309,
      "interviewed": 8310,
      "##bal": 8311,
      "##die": 8312,
      "interactions": 8313,
      "eden": 8314,
      "cups": 8315,
      "helena": 8316,
      "##lf": 8317,
      "indie": 8318,
      "beck": 8319,
      "##fire": 8320,
      "batteries": 8321,
      "filipino": 8322,
      "wizard": 8323,
      "parted": 8324,
      "##lam": 8325,
      "traces": 8326,
      "##born": 8327,
      "rows": 8328,
      "idol": 8329,
      "albany": 8330,
      "delegates": 8331,
      "##ees": 8332,
      "##sar": 8333,
      "discussions": 8334,
      "##ex": 8335,
      "notre": 8336,
      "instructed": 8337,
      "belgrade": 8338,
      "highways": 8339,
      "suggestion": 8340,
      "lauren": 8341,
      "possess": 8342,
      "orientation": 8343,
      "alexandria": 8344,
      "abdul": 8345,
      "beats": 8346,
      "salary": 8347,
      "reunion": 8348,
      "ludwig": 8349,
      "alright": 8350,
      "wagner": 8351,
      "intimate": 8352,
      "pockets": 8353,
      "slovenia": 8354,
      "hugged": 8355,
      "brighton": 8356,
      "merchants": 8357,
      "cruel": 8358,
      "stole": 8359,
      "trek": 8360,
      "slopes": 8361,
      "repairs": 8362,
      "enrollment": 8363,
      "politically": 8364,
      "underlying": 8365,
      "promotional": 8366,
      "counting": 8367,
      "boeing": 8368,
      "##bb": 8369,
      "isabella": 8370,
      "naming": 8371,
      "keen": 8372,
      "bacteria": 8373,
      "listing": 8374,
      "separately": 8375,
      "belfast": 8376,
      "ussr": 8377,
      "450": 8378,
      "lithuanian": 8379,
      "anybody": 8380,
      "ribs": 8381,
      "sphere": 8382,
      "martinez": 8383,
      "cock": 8384,
      "embarrassed": 8385,
      "proposals": 8386,
      "fragments": 8387,
      "nationals": 8388,
      "##fs": 8389,
      "##wski": 8390,
      "premises": 8391,
      "fin": 8392,
      "1500": 8393,
      "alpine": 8394,
      "matched": 8395,
      "freely": 8396,
      "bounded": 8397,
      "jace": 8398,
      "sleeve": 8399,
      "##af": 8400,
      "gaming": 8401,
      "pier": 8402,
      "populated": 8403,
      "evident": 8404,
      "##like": 8405,
      "frances": 8406,
      "flooded": 8407,
      "##dle": 8408,
      "frightened": 8409,
      "pour": 8410,
      "trainer": 8411,
      "framed": 8412,
      "visitor": 8413,
      "challenging": 8414,
      "pig": 8415,
      "wickets": 8416,
      "##fold": 8417,
      "infected": 8418,
      "email": 8419,
      "##pes": 8420,
      "arose": 8421,
      "##aw": 8422,
      "reward": 8423,
      "ecuador": 8424,
      "oblast": 8425,
      "vale": 8426,
      "ch": 8427,
      "shuttle": 8428,
      "##usa": 8429,
      "bach": 8430,
      "rankings": 8431,
      "forbidden": 8432,
      "cornwall": 8433,
      "accordance": 8434,
      "salem": 8435,
      "consumers": 8436,
      "bruno": 8437,
      "fantastic": 8438,
      "toes": 8439,
      "machinery": 8440,
      "resolved": 8441,
      "julius": 8442,
      "remembering": 8443,
      "propaganda": 8444,
      "iceland": 8445,
      "bombardment": 8446,
      "tide": 8447,
      "contacts": 8448,
      "wives": 8449,
      "##rah": 8450,
      "concerto": 8451,
      "macdonald": 8452,
      "albania": 8453,
      "implement": 8454,
      "daisy": 8455,
      "tapped": 8456,
      "sudan": 8457,
      "helmet": 8458,
      "angela": 8459,
      "mistress": 8460,
      "##lic": 8461,
      "crop": 8462,
      "sunk": 8463,
      "finest": 8464,
      "##craft": 8465,
      "hostile": 8466,
      "##ute": 8467,
      "##tsu": 8468,
      "boxer": 8469,
      "fr": 8470,
      "paths": 8471,
      "adjusted": 8472,
      "habit": 8473,
      "ballot": 8474,
      "supervision": 8475,
      "soprano": 8476,
      "##zen": 8477,
      "bullets": 8478,
      "wicked": 8479,
      "sunset": 8480,
      "regiments": 8481,
      "disappear": 8482,
      "lamp": 8483,
      "performs": 8484,
      "app": 8485,
      "##gia": 8486,
      "##oa": 8487,
      "rabbit": 8488,
      "digging": 8489,
      "incidents": 8490,
      "entries": 8491,
      "##cion": 8492,
      "dishes": 8493,
      "##oi": 8494,
      "introducing": 8495,
      "##ati": 8496,
      "##fied": 8497,
      "freshman": 8498,
      "slot": 8499,
      "jill": 8500,
      "tackles": 8501,
      "baroque": 8502,
      "backs": 8503,
      "##iest": 8504,
      "lone": 8505,
      "sponsor": 8506,
      "destiny": 8507,
      "altogether": 8508,
      "convert": 8509,
      "##aro": 8510,
      "consensus": 8511,
      "shapes": 8512,
      "demonstration": 8513,
      "basically": 8514,
      "feminist": 8515,
      "auction": 8516,
      "artifacts": 8517,
      "##bing": 8518,
      "strongest": 8519,
      "twitter": 8520,
      "halifax": 8521,
      "2019": 8522,
      "allmusic": 8523,
      "mighty": 8524,
      "smallest": 8525,
      "precise": 8526,
      "alexandra": 8527,
      "viola": 8528,
      "##los": 8529,
      "##ille": 8530,
      "manuscripts": 8531,
      "##illo": 8532,
      "dancers": 8533,
      "ari": 8534,
      "managers": 8535,
      "monuments": 8536,
      "blades": 8537,
      "barracks": 8538,
      "springfield": 8539,
      "maiden": 8540,
      "consolidated": 8541,
      "electron": 8542,
      "##end": 8543,
      "berry": 8544,
      "airing": 8545,
      "wheat": 8546,
      "nobel": 8547,
      "inclusion": 8548,
      "blair": 8549,
      "payments": 8550,
      "geography": 8551,
      "bee": 8552,
      "cc": 8553,
      "eleanor": 8554,
      "react": 8555,
      "##hurst": 8556,
      "afc": 8557,
      "manitoba": 8558,
      "##yu": 8559,
      "su": 8560,
      "lineup": 8561,
      "fitness": 8562,
      "recreational": 8563,
      "investments": 8564,
      "airborne": 8565,
      "disappointment": 8566,
      "##dis": 8567,
      "edmonton": 8568,
      "viewing": 8569,
      "##row": 8570,
      "renovation": 8571,
      "##cast": 8572,
      "infant": 8573,
      "bankruptcy": 8574,
      "roses": 8575,
      "aftermath": 8576,
      "pavilion": 8577,
      "##yer": 8578,
      "carpenter": 8579,
      "withdrawal": 8580,
      "ladder": 8581,
      "##hy": 8582,
      "discussing": 8583,
      "popped": 8584,
      "reliable": 8585,
      "agreements": 8586,
      "rochester": 8587,
      "##abad": 8588,
      "curves": 8589,
      "bombers": 8590,
      "220": 8591,
      "rao": 8592,
      "reverend": 8593,
      "decreased": 8594,
      "choosing": 8595,
      "107": 8596,
      "stiff": 8597,
      "consulting": 8598,
      "naples": 8599,
      "crawford": 8600,
      "tracy": 8601,
      "ka": 8602,
      "ribbon": 8603,
      "cops": 8604,
      "##lee": 8605,
      "crushed": 8606,
      "deciding": 8607,
      "unified": 8608,
      "teenager": 8609,
      "accepting": 8610,
      "flagship": 8611,
      "explorer": 8612,
      "poles": 8613,
      "sanchez": 8614,
      "inspection": 8615,
      "revived": 8616,
      "skilled": 8617,
      "induced": 8618,
      "exchanged": 8619,
      "flee": 8620,
      "locals": 8621,
      "tragedy": 8622,
      "swallow": 8623,
      "loading": 8624,
      "hanna": 8625,
      "demonstrate": 8626,
      "##ela": 8627,
      "salvador": 8628,
      "flown": 8629,
      "contestants": 8630,
      "civilization": 8631,
      "##ines": 8632,
      "wanna": 8633,
      "rhodes": 8634,
      "fletcher": 8635,
      "hector": 8636,
      "knocking": 8637,
      "considers": 8638,
      "##ough": 8639,
      "nash": 8640,
      "mechanisms": 8641,
      "sensed": 8642,
      "mentally": 8643,
      "walt": 8644,
      "unclear": 8645,
      "##eus": 8646,
      "renovated": 8647,
      "madame": 8648,
      "##cks": 8649,
      "crews": 8650,
      "governmental": 8651,
      "##hin": 8652,
      "undertaken": 8653,
      "monkey": 8654,
      "##ben": 8655,
      "##ato": 8656,
      "fatal": 8657,
      "armored": 8658,
      "copa": 8659,
      "caves": 8660,
      "governance": 8661,
      "grasp": 8662,
      "perception": 8663,
      "certification": 8664,
      "froze": 8665,
      "damp": 8666,
      "tugged": 8667,
      "wyoming": 8668,
      "##rg": 8669,
      "##ero": 8670,
      "newman": 8671,
      "##lor": 8672,
      "nerves": 8673,
      "curiosity": 8674,
      "graph": 8675,
      "115": 8676,
      "##ami": 8677,
      "withdraw": 8678,
      "tunnels": 8679,
      "dull": 8680,
      "meredith": 8681,
      "moss": 8682,
      "exhibits": 8683,
      "neighbors": 8684,
      "communicate": 8685,
      "accuracy": 8686,
      "explored": 8687,
      "raiders": 8688,
      "republicans": 8689,
      "secular": 8690,
      "kat": 8691,
      "superman": 8692,
      "penny": 8693,
      "criticised": 8694,
      "##tch": 8695,
      "freed": 8696,
      "update": 8697,
      "conviction": 8698,
      "wade": 8699,
      "ham": 8700,
      "likewise": 8701,
      "delegation": 8702,
      "gotta": 8703,
      "doll": 8704,
      "promises": 8705,
      "technological": 8706,
      "myth": 8707,
      "nationality": 8708,
      "resolve": 8709,
      "convent": 8710,
      "##mark": 8711,
      "sharon": 8712,
      "dig": 8713,
      "sip": 8714,
      "coordinator": 8715,
      "entrepreneur": 8716,
      "fold": 8717,
      "##dine": 8718,
      "capability": 8719,
      "councillor": 8720,
      "synonym": 8721,
      "blown": 8722,
      "swan": 8723,
      "cursed": 8724,
      "1815": 8725,
      "jonas": 8726,
      "haired": 8727,
      "sofa": 8728,
      "canvas": 8729,
      "keeper": 8730,
      "rivalry": 8731,
      "##hart": 8732,
      "rapper": 8733,
      "speedway": 8734,
      "swords": 8735,
      "postal": 8736,
      "maxwell": 8737,
      "estonia": 8738,
      "potter": 8739,
      "recurring": 8740,
      "##nn": 8741,
      "##ave": 8742,
      "errors": 8743,
      "##oni": 8744,
      "cognitive": 8745,
      "1834": 8746,
      "claws": 8747,
      "nadu": 8748,
      "roberto": 8749,
      "bce": 8750,
      "wrestler": 8751,
      "ellie": 8752,
      "##ations": 8753,
      "infinite": 8754,
      "ink": 8755,
      "##tia": 8756,
      "presumably": 8757,
      "finite": 8758,
      "staircase": 8759,
      "108": 8760,
      "noel": 8761,
      "patricia": 8762,
      "nacional": 8763,
      "##cation": 8764,
      "chill": 8765,
      "eternal": 8766,
      "tu": 8767,
      "preventing": 8768,
      "prussia": 8769,
      "fossil": 8770,
      "limbs": 8771,
      "##logist": 8772,
      "ernst": 8773,
      "frog": 8774,
      "perez": 8775,
      "rene": 8776,
      "##ace": 8777,
      "pizza": 8778,
      "prussian": 8779,
      "##ios": 8780,
      "##vy": 8781,
      "molecules": 8782,
      "regulatory": 8783,
      "answering": 8784,
      "opinions": 8785,
      "sworn": 8786,
      "lengths": 8787,
      "supposedly": 8788,
      "hypothesis": 8789,
      "upward": 8790,
      "habitats": 8791,
      "seating": 8792,
      "ancestors": 8793,
      "drank": 8794,
      "yield": 8795,
      "hd": 8796,
      "synthesis": 8797,
      "researcher": 8798,
      "modest": 8799,
      "##var": 8800,
      "mothers": 8801,
      "peered": 8802,
      "voluntary": 8803,
      "homeland": 8804,
      "##the": 8805,
      "acclaim": 8806,
      "##igan": 8807,
      "static": 8808,
      "valve": 8809,
      "luxembourg": 8810,
      "alto": 8811,
      "carroll": 8812,
      "fe": 8813,
      "receptor": 8814,
      "norton": 8815,
      "ambulance": 8816,
      "##tian": 8817,
      "johnston": 8818,
      "catholics": 8819,
      "depicting": 8820,
      "jointly": 8821,
      "elephant": 8822,
      "gloria": 8823,
      "mentor": 8824,
      "badge": 8825,
      "ahmad": 8826,
      "distinguish": 8827,
      "remarked": 8828,
      "councils": 8829,
      "precisely": 8830,
      "allison": 8831,
      "advancing": 8832,
      "detection": 8833,
      "crowded": 8834,
      "##10": 8835,
      "cooperative": 8836,
      "ankle": 8837,
      "mercedes": 8838,
      "dagger": 8839,
      "surrendered": 8840,
      "pollution": 8841,
      "commit": 8842,
      "subway": 8843,
      "jeffrey": 8844,
      "lesson": 8845,
      "sculptures": 8846,
      "provider": 8847,
      "##fication": 8848,
      "membrane": 8849,
      "timothy": 8850,
      "rectangular": 8851,
      "fiscal": 8852,
      "heating": 8853,
      "teammate": 8854,
      "basket": 8855,
      "particle": 8856,
      "anonymous": 8857,
      "deployment": 8858,
      "##ple": 8859,
      "missiles": 8860,
      "courthouse": 8861,
      "proportion": 8862,
      "shoe": 8863,
      "sec": 8864,
      "##ller": 8865,
      "complaints": 8866,
      "forbes": 8867,
      "blacks": 8868,
      "abandon": 8869,
      "remind": 8870,
      "sizes": 8871,
      "overwhelming": 8872,
      "autobiography": 8873,
      "natalie": 8874,
      "##awa": 8875,
      "risks": 8876,
      "contestant": 8877,
      "countryside": 8878,
      "babies": 8879,
      "scorer": 8880,
      "invaded": 8881,
      "enclosed": 8882,
      "proceed": 8883,
      "hurling": 8884,
      "disorders": 8885,
      "##cu": 8886,
      "reflecting": 8887,
      "continuously": 8888,
      "cruiser": 8889,
      "graduates": 8890,
      "freeway": 8891,
      "investigated": 8892,
      "ore": 8893,
      "deserved": 8894,
      "maid": 8895,
      "blocking": 8896,
      "phillip": 8897,
      "jorge": 8898,
[...]
